{
  "version": "1.0",
  "truncation": null,
  "padding": null,
  "added_tokens": [
    {
      "id": 0,
      "content": "<pad>",
      "single_word": false,
      "lstrip": false,
      "rstrip": false,
      "normalized": false,
      "special": true
    },
    {
      "id": 1,
      "content": "<bos>",
      "single_word": false,
      "lstrip": false,
      "rstrip": false,
      "normalized": false,
      "special": true
    },
    {
      "id": 2,
      "content": "<eos>",
      "single_word": false,
      "lstrip": false,
      "rstrip": false,
      "normalized": false,
      "special": true
    },
    {
      "id": 3,
      "content": "<unk>",
      "single_word": false,
      "lstrip": false,
      "rstrip": false,
      "normalized": false,
      "special": true
    },
    {
      "id": 8000,
      "content": "<|instruction|>",
      "single_word": false,
      "lstrip": false,
      "rstrip": false,
      "normalized": false,
      "special": true
    },
    {
      "id": 8001,
      "content": "<|input|>",
      "single_word": false,
      "lstrip": false,
      "rstrip": false,
      "normalized": false,
      "special": true
    },
    {
      "id": 8002,
      "content": "<|output|>",
      "single_word": false,
      "lstrip": false,
      "rstrip": false,
      "normalized": false,
      "special": true
    },
    {
      "id": 8003,
      "content": "<|system|>",
      "single_word": false,
      "lstrip": false,
      "rstrip": false,
      "normalized": false,
      "special": true
    }
  ],
  "normalizer": null,
  "pre_tokenizer": {
    "type": "ByteLevel",
    "add_prefix_space": true,
    "trim_offsets": true,
    "use_regex": true
  },
  "post_processor": {
    "type": "TemplateProcessing",
    "single": [
      {
        "SpecialToken": {
          "id": "<bos>",
          "type_id": 0
        }
      },
      {
        "Sequence": {
          "id": "A",
          "type_id": 0
        }
      },
      {
        "SpecialToken": {
          "id": "<eos>",
          "type_id": 0
        }
      }
    ],
    "pair": [
      {
        "SpecialToken": {
          "id": "<bos>",
          "type_id": 0
        }
      },
      {
        "Sequence": {
          "id": "A",
          "type_id": 0
        }
      },
      {
        "SpecialToken": {
          "id": "<eos>",
          "type_id": 0
        }
      },
      {
        "Sequence": {
          "id": "B",
          "type_id": 1
        }
      },
      {
        "SpecialToken": {
          "id": "<eos>",
          "type_id": 1
        }
      }
    ],
    "special_tokens": {
      "<bos>": {
        "id": "<bos>",
        "ids": [
          1
        ],
        "tokens": [
          "<bos>"
        ]
      },
      "<eos>": {
        "id": "<eos>",
        "ids": [
          2
        ],
        "tokens": [
          "<eos>"
        ]
      }
    }
  },
  "decoder": null,
  "model": {
    "type": "BPE",
    "dropout": null,
    "unk_token": "<unk>",
    "continuing_subword_prefix": null,
    "end_of_word_suffix": null,
    "fuse_unk": false,
    "byte_fallback": false,
    "ignore_merges": false,
    "vocab": {
      "<pad>": 0,
      "<bos>": 1,
      "<eos>": 2,
      "<unk>": 3,
      "!": 4,
      "\"": 5,
      "#": 6,
      "$": 7,
      "%": 8,
      "&": 9,
      "'": 10,
      "(": 11,
      ")": 12,
      "*": 13,
      "+": 14,
      ",": 15,
      "-": 16,
      ".": 17,
      "/": 18,
      "0": 19,
      "1": 20,
      "2": 21,
      "3": 22,
      "4": 23,
      "5": 24,
      "6": 25,
      "7": 26,
      "8": 27,
      "9": 28,
      ":": 29,
      ";": 30,
      "<": 31,
      "=": 32,
      ">": 33,
      "?": 34,
      "@": 35,
      "A": 36,
      "B": 37,
      "C": 38,
      "D": 39,
      "E": 40,
      "F": 41,
      "G": 42,
      "H": 43,
      "I": 44,
      "J": 45,
      "K": 46,
      "L": 47,
      "M": 48,
      "N": 49,
      "O": 50,
      "P": 51,
      "Q": 52,
      "R": 53,
      "S": 54,
      "T": 55,
      "U": 56,
      "V": 57,
      "W": 58,
      "X": 59,
      "Y": 60,
      "Z": 61,
      "[": 62,
      "]": 63,
      "^": 64,
      "_": 65,
      "`": 66,
      "a": 67,
      "b": 68,
      "c": 69,
      "d": 70,
      "e": 71,
      "f": 72,
      "g": 73,
      "h": 74,
      "i": 75,
      "j": 76,
      "k": 77,
      "l": 78,
      "m": 79,
      "n": 80,
      "o": 81,
      "p": 82,
      "q": 83,
      "r": 84,
      "s": 85,
      "t": 86,
      "u": 87,
      "v": 88,
      "w": 89,
      "x": 90,
      "y": 91,
      "z": 92,
      "{": 93,
      "|": 94,
      "}": 95,
      "~": 96,
      "¡": 97,
      "¢": 98,
      "£": 99,
      "§": 100,
      "¨": 101,
      "©": 102,
      "ª": 103,
      "«": 104,
      "®": 105,
      "±": 106,
      "³": 107,
      "¶": 108,
      "¹": 109,
      "º": 110,
      "Â": 111,
      "Ã": 112,
      "Ä": 113,
      "Å": 114,
      "â": 115,
      "Ċ": 116,
      "Ġ": 117,
      "Ģ": 118,
      "ģ": 119,
      "Ĥ": 120,
      "ĥ": 121,
      "Ħ": 122,
      "Ĩ": 123,
      "ĩ": 124,
      "Ī": 125,
      "ī": 126,
      "Į": 127,
      "į": 128,
      "ĳ": 129,
      "Ĵ": 130,
      "ĸ": 131,
      "Ļ": 132,
      "ŀ": 133,
      "Ł": 134,
      "ł": 135,
      "Ń": 136,
      "on": 137,
      "er": 138,
      "Ġa": 139,
      "Ġt": 140,
      "in": 141,
      "Ġs": 142,
      "he": 143,
      "ers": 144,
      "erson": 145,
      "ou": 146,
      "Person": 147,
      "re": 148,
      "ĠPerson": 149,
      "is": 150,
      "Ġc": 151,
      "or": 152,
      "Ġw": 153,
      "Ġb": 154,
      "Ġan": 155,
      "ha": 156,
      "Ġm": 157,
      "en": 158,
      "es": 159,
      "Ġf": 160,
      "Ġd": 161,
      "Ġp": 162,
      "it": 163,
      "le": 164,
      "Ġ\"": 165,
      "Ġthe": 166,
      "Ġy": 167,
      "ing": 168,
      "Ġto": 169,
      "ĠI": 170,
      "ti": 171,
      "Ġand": 172,
      "ed": 173,
      "an": 174,
      "Ġyou": 175,
      "Ġo": 176,
      "\":": 177,
      "ro": 178,
      "al": 179,
      "Ġha": 180,
      "Ġn": 181,
      "as": 182,
      "Ġin": 183,
      "ent": 184,
      "ve": 185,
      "us": 186,
      "Ġof": 187,
      "ar": 188,
      "Ġl": 189,
      "at": 190,
      "Ġis": 191,
      "ll": 192,
      "Ġbe": 193,
      "tion": 194,
      "Ġg": 195,
      "ic": 196,
      "{\"": 197,
      "ont": 198,
      "om": 199,
      "Ġth": 200,
      "Ġre": 201,
      "ct": 202,
      "Ġfor": 203,
      "Ġe": 204,
      "Ġi": 205,
      "ot": 206,
      "Ġh": 207,
      "ly": 208,
      "Ġyour": 209,
      "Ġhe": 210,
      "Ġit": 211,
      "Ġhave": 212,
      "ld": 213,
      "ay": 214,
      "cont": 215,
      "role": 216,
      "content": 217,
      "\",": 218,
      "\"}": 219,
      "Ġ{\"": 220,
      "ist": 221,
      "Ġmy": 222,
      "et": 223,
      "ow": 224,
      "Ġon": 225,
      "id": 226,
      "os": 227,
      "gh": 228,
      "ur": 229,
      "hat": 230,
      "ain": 231,
      "ess": 232,
      "ag": 233,
      "ul": 234,
      "ver": 235,
      "th": 236,
      "Ġcan": 237,
      "od": 238,
      "ke": 239,
      "ith": 240,
      "ctor": 241,
      "ant": 242,
      "octor": 243,
      "Ġwith": 244,
      "ation": 245,
      "Ġst": 246,
      "ac": 247,
      "ould": 248,
      "..": 249,
      "ut": 250,
      "qu": 251,
      "ee": 252,
      "Ġor": 253,
      "Ġas": 254,
      "Ġcon": 255,
      "Ġu": 256,
      "Ġthat": 257,
      "Ġli": 258,
      "Ġare": 259,
      "Ġnot": 260,
      "Ġthis": 261,
      "ĠD": 262,
      "ec": 263,
      "ass": 264,
      "Ġr": 265,
      "est": 266,
      "mp": 267,
      "ill": 268,
      "Ġsu": 269,
      "han": 270,
      "nd": 271,
      "ĠT": 272,
      "igh": 273,
      "Ġpain": 274,
      "Ġ[": 275,
      "Ġqu": 276,
      "out": 277,
      "Ġpro": 278,
      "am": 279,
      "lo": 280,
      "ter": 281,
      "ages": 282,
      ".\"}": 283,
      "ble": 284,
      "istant": 285,
      "Ġal": 286,
      "user": 287,
      "Ġne": 288,
      "essages": 289,
      "messages": 290,
      "]}": 291,
      "assistant": 292,
      "Ġ[{\"": 293,
      "ad": 294,
      "ell": 295,
      "Ġta": 296,
      "ĠDoctor": 297,
      "Ġca": 298,
      "st": 299,
      "Ġme": 300,
      "Ġwh": 301,
      "Ġdo": 302,
      "Ġpre": 303,
      "ight": 304,
      "pp": 305,
      "ome": 306,
      "Ġex": 307,
      "Ġsh": 308,
      "ce": 309,
      "ch": 310,
      "im": 311,
      "Ġwill": 312,
      "ks": 313,
      "ion": 314,
      "ir": 315,
      "Ġab": 316,
      "ere": 317,
      "reat": 318,
      "Ġdi": 319,
      "Ġwas": 320,
      "lp": 321,
      "ment": 322,
      "Ġhelp": 323,
      "Ġle": 324,
      "use": 325,
      "Ġbut": 326,
      "Ġk": 327,
      "Ġget": 328,
      "Ġif": 329,
      "one": 330,
      "Ġam": 331,
      "Ġgo": 332,
      "Ġ1": 333,
      "ear": 334,
      "Ġday": 335,
      "Ġlike": 336,
      "Ġany": 337,
      "Ġ2": 338,
      "ast": 339,
      "ri": 340,
      ".\"}]}": 341,
      "ol": 342,
      "ine": 343,
      "ther": 344,
      "ore": 345,
      "se": 346,
      "Ġhas": 347,
      "ult": 348,
      "\"},": 349,
      "Ġhad": 350,
      "Ġinf": 351,
      "ure": 352,
      "ery": 353,
      "ase": 354,
      "Ġat": 355,
      "art": 356,
      "ĠA": 357,
      "Ġv": 358,
      "so": 359,
      "rom": 360,
      "tic": 361,
      "very": 362,
      "ue": 363,
      "Ġsp": 364,
      "ff": 365,
      "il": 366,
      "um": 367,
      "orm": 368,
      "Hi": 369,
      "op": 370,
      "Ġtreat": 371,
      "Ġneed": 372,
      "Ġshould": 373,
      "Ġ(": 374,
      "ate": 375,
      "Ġdis": 376,
      "Ġcom": 377,
      "Ġfrom": 378,
      "Ġwor": 379,
      "ough": 380,
      "Ġmay": 381,
      "Ġse": 382,
      "cer": 383,
      "Ġalso": 384,
      "ack": 385,
      "Ġsome": 386,
      "Ġfe": 387,
      "Ġwould": 388,
      "and": 389,
      "Ġag": 390,
      "Ġso": 391,
      "Ġsy": 392,
      "Ġthere": 393,
      "king": 394,
      "eri": 395,
      "Ġblo": 396,
      "Ġall": 397,
      "ally": 398,
      "ich": 399,
      "Ġad": 400,
      "Ġquery": 401,
      "Ġdoctor": 402,
      "Ġbeen": 403,
      "ĠIf": 404,
      "ss": 405,
      "ection": 406,
      "Ġtim": 407,
      "Ġmed": 408,
      "hanks": 409,
      "Ġj": 410,
      "Ġund": 411,
      "Ġyear": 412,
      "Ġwe": 413,
      "ep": 414,
      "Ġwhich": 415,
      "Ġaf": 416,
      "ry": 417,
      "Ġtake": 418,
      "oth": 419,
      "Ġtest": 420,
      "Ġpos": 421,
      "Ġno": 422,
      "end": 423,
      "Ġkn": 424,
      "Ġby": 425,
      "un": 426,
      "Ġout": 427,
      "Ġfo": 428,
      "Ġthen": 429,
      "eel": 430,
      "Ġblood": 431,
      "ĠIt": 432,
      "Ġafter": 433,
      "tom": 434,
      "ĠM": 435,
      "gg": 436,
      "sult": 437,
      "Ġ3": 438,
      "Ġwhe": 439,
      "ated": 440,
      "Ġfeel": 441,
      "Ġmedic": 442,
      "ect": 443,
      "ĠS": 444,
      "estion": 445,
      "Ġabout": 446,
      "Ġac": 447,
      "blem": 448,
      "Ġche": 449,
      "ide": 450,
      "Ġproblem": 451,
      "ving": 452,
      "ust": 453,
      "gn": 454,
      "mptom": 455,
      "Ġtreatment": 456,
      "sw": 457,
      "Ġback": 458,
      "Ġsymptom": 459,
      "Ġansw": 460,
      "Ġus": 461,
      "Ġcont": 462,
      "ound": 463,
      "ab": 464,
      "ĠThe": 465,
      "Ġher": 466,
      "ra": 467,
      "Ġinfection": 468,
      "Ġnow": 469,
      "Ġdays": 470,
      "ort": 471,
      "Hell": 472,
      "Ġwhat": 473,
      "Hello": 474,
      "ong": 475,
      "Ġvery": 476,
      "Ġwee": 477,
      "Ġconcer": 478,
      "ive": 479,
      "Ġwhen": 480,
      "Ġconcern": 481,
      "Ġdue": 482,
      "onth": 483,
      "Ġheal": 484,
      "Ġup": 485,
      "Ġsee": 486,
      "Ġknow": 487,
      "Ġquestion": 488,
      "ity": 489,
      "Ġsugg": 490,
      "Ġsymptoms": 491,
      "Ġanti": 492,
      "Ġmonth": 493,
      "Ġshe": 494,
      "hy": 495,
      "Ġanswer": 496,
      "ical": 497,
      "Ġmore": 498,
      "ĠB": 499,
      "Ġfur": 500,
      "ormal": 501,
      "Ġtime": 502,
      "Ġfurther": 503,
      "Ġrel": 504,
      "our": 505,
      "Ġcould": 506,
      "all": 507,
      "Ġcause": 508,
      "...": 509,
      ".\"},": 510,
      "si": 511,
      "ĠH": 512,
      "ting": 513,
      "Ġrec": 514,
      "Ġde": 515,
      "Ġadv": 516,
      "ge": 517,
      "tive": 518,
      "Ġgood": 519,
      "Ġcl": 520,
      "Ġhealth": 521,
      "Ġdone": 522,
      "ous": 523,
      "?\"},": 524,
      "ard": 525,
      "ress": 526,
      "log": 527,
      "Ġstart": 528,
      "ap": 529,
      "\"}]}": 530,
      "cy": 531,
      "nt": 532,
      "Ġapp": 533,
      "Ġhaving": 534,
      "ft": 535,
      "Ġconsult": 536,
      "ven": 537,
      "Ġar": 538,
      "Ġcomp": 539,
      "Ġ5": 540,
      "Ġsuggest": 541,
      "Ġyears": 542,
      "Ġsc": 543,
      "Ġnormal": 544,
      "ise": 545,
      "Ġch": 546,
      "ĠThanks": 547,
      "io": 548,
      "Ġbec": 549,
      "Ġother": 550,
      "Ġjust": 551,
      "hing": 552,
      "ose": 553,
      "Ġsur": 554,
      "Ġlo": 555,
      "erst": 556,
      "ost": 557,
      "Ġ4": 558,
      "uc": 559,
      "Ġunderst": 560,
      "Ġold": 561,
      "ition": 562,
      "ind": 563,
      "Ġcaus": 564,
      "ice": 565,
      "per": 566,
      "ory": 567,
      "Ġreg": 568,
      "amin": 569,
      "age": 570,
      "ĠC": 571,
      "ations": 572,
      "mo": 573,
      "ful": 574,
      "agn": 575,
      "ens": 576,
      "Ġlow": 577,
      "Ġright": 578,
      "Ġsw": 579,
      "ite": 580,
      "Ġpregn": 581,
      "erg": 582,
      "Ġinc": 583,
      "Ġhis": 584,
      "Ġunderstand": 585,
      "Ġtw": 586,
      "Ġdiagn": 587,
      "Ġone": 588,
      "Ġbr": 589,
      "Ġ.": 590,
      "act": 591,
      "ĠĠ": 592,
      "lu": 593,
      "Ġthr": 594,
      "ause": 595,
      "ĠSo": 596,
      "Ġpossi": 597,
      "Ġpl": 598,
      "Ġun": 599,
      "if": 600,
      "Ġlast": 601,
      "Ġthey": 602,
      "led": 603,
      "Ġpres": 604,
      "Ġ-": 605,
      "Ġside": 606,
      "ular": 607,
      "hank": 608,
      "Ġover": 609,
      "osis": 610,
      "ia": 611,
      "Ġbet": 612,
      "Ġhapp": 613,
      "Ġthese": 614,
      "oid": 615,
      "ness": 616,
      "Ġfoll": 617,
      "ame": 618,
      "Ġmonths": 619,
      "ary": 620,
      "ump": 621,
      "itis": 622,
      "Ġthrough": 623,
      "iz": 624,
      "Ġcare": 625,
      "Ġonly": 626,
      "ie": 627,
      "ily": 628,
      "ts": 629,
      "olog": 630,
      "Ġleft": 631,
      "Ġrep": 632,
      "ies": 633,
      "ne": 634,
      "Ġdisc": 635,
      "Ġdise": 636,
      "dition": 637,
      "ĠIn": 638,
      "Ġsti": 639,
      "Ġman": 640,
      "Ġperi": 641,
      "te": 642,
      "dom": 643,
      "Ġheart": 644,
      "ffer": 645,
      "Ġsa": 646,
      "Ġur": 647,
      "Ġda": 648,
      "ning": 649,
      "Ġphy": 650,
      "der": 651,
      "red": 652,
      "Ġworry": 653,
      "Ġchest": 654,
      "other": 655,
      "Ġma": 656,
      "Ġsin": 657,
      "ved": 658,
      "Ġimp": 659,
      "ck": 660,
      "Ġexp": 661,
      "ink": 662,
      "lease": 663,
      "Ġits": 664,
      "ves": 665,
      "Ġantib": 666,
      "Ġop": 667,
      "Ġred": 668,
      "Ġbecause": 669,
      "Ġperiod": 670,
      "iotic": 671,
      "Ġmo": 672,
      "Ġim": 673,
      "Ġago": 674,
      "Ġper": 675,
      "Ġchan": 676,
      "Ġdoes": 677,
      "able": 678,
      "ĠE": 679,
      "cri": 680,
      "Ġweeks": 681,
      "00": 682,
      "vel": 683,
      "Ġco": 684,
      "Ġ6": 685,
      "Ġfollow": 686,
      "ĠMy": 687,
      "Ġhigh": 688,
      "Ġtaking": 689,
      "ail": 690,
      "mon": 691,
      "ffect": 692,
      "ms": 693,
      "Ġstill": 694,
      "les": 695,
      "Ġuse": 696,
      "Ġint": 697,
      "el": 698,
      "Ġantibiotic": 699,
      "Ġtoo": 700,
      "Ġsever": 701,
      "Ġsurg": 702,
      "ile": 703,
      "Ġcou": 704,
      "'t": 705,
      "....": 706,
      "ancy": 707,
      "ater": 708,
      "Ġres": 709,
      "Ġweek": 710,
      "Ġkid": 711,
      "Ġ&": 712,
      "ild": 713,
      "Ġevery": 714,
      ").": 715,
      "Ġthan": 716,
      "ach": 717,
      "Ġ,": 718,
      "ree": 719,
      "Ġcase": 720,
      "Ġru": 721,
      "ays": 722,
      "Ġlevel": 723,
      "ati": 724,
      "ici": 725,
      "Ġwell": 726,
      "Ġen": 727,
      "Ġgot": 728,
      "Ġphys": 729,
      "Ġplease": 730,
      "Ġte": 731,
      "Ġhead": 732,
      "ath": 733,
      "Ġfever": 734,
      "Ġabdom": 735,
      "usc": 736,
      "inal": 737,
      "ma": 738,
      "erc": 739,
      "Ġdisease": 740,
      "Ġpregnancy": 741,
      "Ġexamin": 742,
      "ĠThank": 743,
      "Ġdet": 744,
      "sy": 745,
      "Ġdid": 746,
      "ĠP": 747,
      "Ġav": 748,
      "own": 749,
      "Ġbetter": 750,
      "Ġsince": 751,
      "Ġfew": 752,
      "Ġcondition": 753,
      "fore": 754,
      "Ġpress": 755,
      "ĠHe": 756,
      "uch": 757,
      "ope": 758,
      "Ġass": 759,
      "ĠO": 760,
      "ating": 761,
      "Ġmost": 762,
      "ody": 763,
      "Ġmusc": 764,
      "Ġtwo": 765,
      "hes": 766,
      "lf": 767,
      "Ġhim": 768,
      "Ġcy": 769,
      "Ġfood": 770,
      "Ġmuch": 771,
      "Ġpossible": 772,
      "irst": 773,
      "Ġagain": 774,
      "ried": 775,
      "ually": 776,
      "day": 777,
      "Ġhist": 778,
      "Ġsm": 779,
      "Ġgi": 780,
      "Ġallerg": 781,
      "Ġarea": 782,
      "Ġunder": 783,
      "Ġmight": 784,
      "ace": 785,
      "Ġliver": 786,
      "ci": 787,
      "kin": 788,
      "val": 789,
      "Ġstarted": 790,
      "Ġbefore": 791,
      "ru": 792,
      "ĠAs": 793,
      "tim": 794,
      "Ġanswered": 795,
      "Ġsuch": 796,
      "ken": 797,
      "cc": 798,
      "ĠBut": 799,
      "Ġpressure": 800,
      "Ġfirst": 801,
      "Ġeven": 802,
      "ung": 803,
      "Ġthink": 804,
      "yp": 805,
      "apy": 806,
      "Ġtests": 807,
      "Ġadvise": 808,
      "Ġdown": 809,
      "Ġlower": 810,
      "Ġrequ": 811,
      "row": 812,
      "Ġhope": 813,
      "Ġtimes": 814,
      "erm": 815,
      "int": 816,
      "Ġlump": 817,
      "Ġhistory": 818,
      "Ġbody": 819,
      "Ġtry": 820,
      "Ġtr": 821,
      "Ġwent": 822,
      "Ġlong": 823,
      "Ġbreat": 824,
      "Ġgive": 825,
      "Ġinj": 826,
      "Ġsurgery": 827,
      "Ġear": 828,
      "ance": 829,
      "RI": 830,
      "Ġbl": 831,
      "Ġsuffer": 832,
      "Ġgetting": 833,
      "crib": 834,
      "Ġsi": 835,
      "Ġwr": 836,
      "ĠN": 837,
      "itt": 838,
      "Ġcal": 839,
      "iting": 840,
      "Ġnec": 841,
      "Ġ10": 842,
      "Ġincre": 843,
      "Ġdep": 844,
      "fe": 845,
      "Ġhow": 846,
      "Ġdiagnosis": 847,
      "Ġcancer": 848,
      "ray": 849,
      "Ġcons": 850,
      "Ġexamination": 851,
      "ney": 852,
      "Ġmen": 853,
      "Ġrequi": 854,
      "tc": 855,
      "Ġacc": 856,
      "em": 857,
      "Ġmin": 858,
      "Ġdon": 859,
      "elling": 860,
      "Ġskin": 861,
      "ord": 862,
      "Ġpo": 863,
      "Ġcough": 864,
      "Ġexerc": 865,
      "Ġresult": 866,
      "omet": 867,
      "Ġhelps": 868,
      "Ġwant": 869,
      "Ġgone": 870,
      "ib": 871,
      "atient": 872,
      "Ġcomple": 873,
      "Ġrelie": 874,
      "ific": 875,
      "Ġleg": 876,
      "ction": 877,
      "ĠW": 878,
      "Ġproblems": 879,
      "Ġsaid": 880,
      "Ġkidney": 881,
      "My": 882,
      "Ġstress": 883,
      "Ġgoing": 884,
      "Ġetc": 885,
      "Ġdur": 886,
      "Ġusing": 887,
      "ologist": 888,
      "ases": 889,
      "eth": 890,
      "ans": 891,
      "Ġpatient": 892,
      "thing": 893,
      "Ġsex": 894,
      "Ġthing": 895,
      "Ġcauses": 896,
      "ial": 897,
      "lam": 898,
      "Ġwho": 899,
      "Ġcle": 900,
      "Ġnight": 901,
      "ative": 902,
      "Ġavoid": 903,
      "Ġwork": 904,
      "de": 905,
      "Ġloo": 906,
      "Ġ7": 907,
      "Ġproper": 908,
      "up": 909,
      "Ġfind": 910,
      "leep": 911,
      "Ġhur": 912,
      "ras": 913,
      "ig": 914,
      "Ġhar": 915,
      "Ġage": 916,
      "Ġreport": 917,
      "ull": 918,
      "Ġhour": 919,
      "Ġve": 920,
      "Ġask": 921,
      "Ġfeeling": 922,
      "ently": 923,
      "Ġult": 924,
      "Ġhappy": 925,
      "Ġsmall": 926,
      "Ġcheck": 927,
      "Ġtooth": 928,
      "Ġdiet": 929,
      "Ġsha": 930,
      "Ġocc": 931,
      "med": 932,
      "Ġrule": 933,
      "Ġsame": 934,
      "Thanks": 935,
      "Ġaround": 936,
      "Ġreally": 937,
      "Ġcommon": 938,
      "Ġinter": 939,
      "Ġbest": 940,
      "Ġantibiotics": 941,
      "Ġext": 942,
      "Ġrelated": 943,
      "umb": 944,
      "ines": 945,
      "ond": 946,
      "Ġsleep": 947,
      "come": 948,
      "Ġshow": 949,
      "Ġstom": 950,
      "Ġdaily": 951,
      "ak": 952,
      "rol": 953,
      "Ġner": 954,
      "Ġremo": 955,
      "Ġweight": 956,
      "Ġeffect": 957,
      "Ġsupp": 958,
      "Ġsevere": 959,
      "osed": 960,
      "Ġultras": 961,
      "Ġsomet": 962,
      "Ġmany": 963,
      "Ġvis": 964,
      "Ġconf": 965,
      "ected": 966,
      "Ġthem": 967,
      "Ġurine": 968,
      "Ġsomething": 969,
      "Ġhelpful": 970,
      "Ġspec": 971,
      "Ġsto": 972,
      "Ġclin": 973,
      "ason": 974,
      "ital": 975,
      "Ġtaken": 976,
      "Ġind": 977,
      "ick": 978,
      "Ġstomach": 979,
      "Ġx": 980,
      "ron": 981,
      "Ġprescrib": 982,
      "Ġtyp": 983,
      "Ġanx": 984,
      "iss": 985,
      "ER": 986,
      "tig": 987,
      "Ġregular": 988,
      "ub": 989,
      "lamm": 990,
      "Ġduring": 991,
      "bs": 992,
      "Ġswelling": 993,
      "Ġke": 994,
      "Ġsit": 995,
      "Ġmor": 996,
      "ip": 997,
      "Ġhy": 998,
      "unction": 999,
      "ĠL": 1000,
      "Ġdec": 1001,
      "valu": 1002,
      "Ġbad": 1003,
      "Ġcomplete": 1004,
      "Ġmedication": 1005,
      "Ġboth": 1006,
      "Ġchild": 1007,
      "iet": 1008,
      "ges": 1009,
      "Ġaw": 1010,
      "Ġthough": 1011,
      "Ġpill": 1012,
      "ician": 1013,
      "ĠĠĠĠ": 1014,
      "ract": 1015,
      "Ġcontin": 1016,
      "ence": 1017,
      "Ġsl": 1018,
      "atory": 1019,
      "ourse": 1020,
      "Ġevalu": 1021,
      "til": 1022,
      "Ġregard": 1023,
      "sych": 1024,
      "ple": 1025,
      "Ġsure": 1026,
      "Ġwere": 1027,
      "ĠIs": 1028,
      "Ġgiven": 1029,
      "Ġseems": 1030,
      "Ġther": 1031,
      "Ġvir": 1032,
      "Ġwater": 1033,
      "Ġabdomen": 1034,
      "Ġlot": 1035,
      "ased": 1036,
      "Ġreason": 1037,
      "Ġmedicine": 1038,
      "Ġ20": 1039,
      "IN": 1040,
      "Ġsuffering": 1041,
      "Ġble": 1042,
      "Ġov": 1043,
      "Ġscan": 1044,
      "are": 1045,
      "omm": 1046,
      "Ġpast": 1047,
      "Ġultrasound": 1048,
      "Ġassist": 1049,
      "Ġdef": 1050,
      "bil": 1051,
      "ised": 1052,
      "Ġatt": 1053,
      "Ġopin": 1054,
      "Ġgr": 1055,
      "Ġpsych": 1056,
      "iety": 1057,
      "Ġ8": 1058,
      "Ġopinion": 1059,
      "vestig": 1060,
      "ual": 1061,
      "Ġrecomm": 1062,
      "Ġrecommend": 1063,
      "Ġinvestig": 1064,
      "Ġins": 1065,
      "ud": 1066,
      "Ġcontrol": 1067,
      "Ġsol": 1068,
      "ĠMRI": 1069,
      "eding": 1070,
      "Ġoff": 1071,
      "ittle": 1072,
      "Ġwhile": 1073,
      "read": 1074,
      "ON": 1075,
      "Ġbab": 1076,
      "Ġcount": 1077,
      "Ġinform": 1078,
      "Ġtold": 1079,
      "Ġsens": 1080,
      "cess": 1081,
      "Ġro": 1082,
      "Ġonce": 1083,
      "Ġdetail": 1084,
      "ĠG": 1085,
      "Ġlittle": 1086,
      "ize": 1087,
      "Ġrest": 1088,
      "ĠF": 1089,
      "Ġdr": 1090,
      "li": 1091,
      "Ġflu": 1092,
      "Ġusually": 1093,
      "Ġresp": 1094,
      "lop": 1095,
      "Ġcol": 1096,
      "Ġgen": 1097,
      "Ġmorning": 1098,
      "osp": 1099,
      "Ġneck": 1100,
      "rect": 1101,
      "Ġlung": 1102,
      "Ġanxiety": 1103,
      "xt": 1104,
      "ĠDo": 1105,
      "rop": 1106,
      "Ġtable": 1107,
      "Ġpart": 1108,
      "co": 1109,
      "rs": 1110,
      "vent": 1111,
      "Ġbre": 1112,
      "Ġmedicines": 1113,
      "lain": 1114,
      "ys": 1115,
      "TI": 1116,
      "Ġanything": 1117,
      "Ġhard": 1118,
      "Ġmention": 1119,
      "Ġpar": 1120,
      "Ġkeep": 1121,
      "we": 1122,
      "Ġhand": 1123,
      "Ġsometim": 1124,
      "Ġimpro": 1125,
      "pper": 1126,
      "my": 1127,
      "ax": 1128,
      "ove": 1129,
      "ĠAnd": 1130,
      "Ġoccur": 1131,
      "Ġwhere": 1132,
      "Ġbaby": 1133,
      "Ġdent": 1134,
      "Ġsec": 1135,
      "Ġsmo": 1136,
      "tain": 1137,
      "Ġpregnant": 1138,
      "ency": 1139,
      "ching": 1140,
      "Ġalong": 1141,
      "Ġmuscle": 1142,
      "ues": 1143,
      "Ġmou": 1144,
      "pt": 1145,
      "Ġmg": 1146,
      "Ġwithout": 1147,
      "Ġwis": 1148,
      "Ġwal": 1149,
      "hed": 1150,
      "Ġused": 1151,
      "Ġson": 1152,
      "rac": 1153,
      "Ġcor": 1154,
      "Ġfunction": 1155,
      "ĠU": 1156,
      "Ġexperi": 1157,
      "Ġlead": 1158,
      "Ġfound": 1159,
      "ression": 1160,
      "ious": 1161,
      "Ġcard": 1162,
      "iat": 1163,
      "ulation": 1164,
      "Ġcontact": 1165,
      "uss": 1166,
      "Ġcold": 1167,
      "Ġmouth": 1168,
      "Ġcome": 1169,
      "Ġcer": 1170,
      "Ġquestions": 1171,
      "Ġdou": 1172,
      "its": 1173,
      "Ġiss": 1174,
      "Ġread": 1175,
      "mg": 1176,
      "Ġlife": 1177,
      "Ġclinical": 1178,
      "Ġfl": 1179,
      "Ġmake": 1180,
      "Ġlevels": 1181,
      "Ġcausing": 1182,
      "Ġreco": 1183,
      "ester": 1184,
      "Ġphysical": 1185,
      "Ġpresent": 1186,
      "Ġwa": 1187,
      "Ġupper": 1188,
      "Ġkind": 1189,
      "Ġabove": 1190,
      "Ġteeth": 1191,
      "Ġpul": 1192,
      "Ġmar": 1193,
      "Ġrelief": 1194,
      "Ġinformation": 1195,
      "Ġhours": 1196,
      "self": 1197,
      "Ġoral": 1198,
      "itive": 1199,
      "Ġhappen": 1200,
      "Ġtell": 1201,
      "Ġend": 1202,
      "Ġdiagnosed": 1203,
      "velop": 1204,
      "Ġpost": 1205,
      "ording": 1206,
      "Ġdont": 1207,
      "Ġrequire": 1208,
      "Ġgl": 1209,
      "av": 1210,
      "Ġjo": 1211,
      "ugh": 1212,
      "Ġdes": 1213,
      "Ġdevelop": 1214,
      "Ġbeing": 1215,
      "ty": 1216,
      "Ġtwice": 1217,
      "Ġtook": 1218,
      "Ġphysician": 1219,
      "Ġconfir": 1220,
      "Ġbleeding": 1221,
      "Ġsometimes": 1222,
      "ways": 1223,
      "Ġneeded": 1224,
      "Ġnothing": 1225,
      "Ġly": 1226,
      "Ġnerve": 1227,
      "band": 1228,
      "RE": 1229,
      "ments": 1230,
      "ute": 1231,
      "Ġhus": 1232,
      "Ġfre": 1233,
      "Ġinclu": 1234,
      "Ġhosp": 1235,
      "ures": 1236,
      "Ġtreated": 1237,
      "ric": 1238,
      "Ġput": 1239,
      "Ġtherapy": 1240,
      "Ġloc": 1241,
      "Ġsign": 1242,
      "ption": 1243,
      "Ġhusband": 1244,
      "Ġsore": 1245,
      "eries": 1246,
      "Ġaccording": 1247,
      "Ġnext": 1248,
      "vity": 1249,
      "Ġadvice": 1250,
      "enc": 1251,
      "Ġpossibil": 1252,
      "Ġneeds": 1253,
      "Ġdoub": 1254,
      "Ġaway": 1255,
      "Ġway": 1256,
      "Ġbrain": 1257,
      "Ġcyst": 1258,
      "itamin": 1259,
      "Ġmove": 1260,
      "Ġneu": 1261,
      "Ġhospital": 1262,
      "Ġbur": 1263,
      "Ġtoday": 1264,
      "Ġbel": 1265,
      "Ġinto": 1266,
      "ren": 1267,
      "Ġaffect": 1268,
      "ĠIm": 1269,
      "ĠTH": 1270,
      "Ġconcerns": 1271,
      "Ġstop": 1272,
      "Ġnumb": 1273,
      "Ġir": 1274,
      "Ġworried": 1275,
      "uce": 1276,
      "Ġel": 1277,
      "Ġsecond": 1278,
      "Ġpainful": 1279,
      "og": 1280,
      "Ġsal": 1281,
      "Ġdiff": 1282,
      "Ġgu": 1283,
      "Ġele": 1284,
      "Ġfeels": 1285,
      "Ġinjur": 1286,
      "Ġtype": 1287,
      "Ġsize": 1288,
      "Ġacid": 1289,
      "roid": 1290,
      "Ġprescribed": 1291,
      "YY": 1292,
      "Ġ15": 1293,
      "Ġwel": 1294,
      "tions": 1295,
      "Ġrecently": 1296,
      "geon": 1297,
      "Ġable": 1298,
      "Ġthanks": 1299,
      "Ġspine": 1300,
      "Ġalways": 1301,
      "Ġ9": 1302,
      "llen": 1303,
      "den": 1304,
      "Ġseen": 1305,
      "Ġstud": 1306,
      "ises": 1307,
      "Ġanal": 1308,
      "'s": 1309,
      "Ġdiffer": 1310,
      "ately": 1311,
      "Ġthree": 1312,
      "ten": 1313,
      "Ġbi": 1314,
      "Ġclear": 1315,
      "Ġdoctors": 1316,
      "Ġviral": 1317,
      "ade": 1318,
      "Ġdetails": 1319,
      "Ġhome": 1320,
      "Ġbron": 1321,
      "Ġthro": 1322,
      "Ġexercise": 1323,
      "Ġform": 1324,
      "Ġinflamm": 1325,
      "ather": 1326,
      "Ġbreath": 1327,
      "Ġsay": 1328,
      "lic": 1329,
      "Ġras": 1330,
      "??": 1331,
      "ones": 1332,
      "Ġdiscuss": 1333,
      "Ġnever": 1334,
      "Ġvisit": 1335,
      "Ġbronch": 1336,
      "Ġprob": 1337,
      "Ġcourse": 1338,
      "ces": 1339,
      "Ġwelcome": 1340,
      "Ġbit": 1341,
      "Ġgum": 1342,
      "otherapy": 1343,
      "Ġhair": 1344,
      "ream": 1345,
      "Ġmedications": 1346,
      "Ġlos": 1347,
      "Ġstr": 1348,
      "Ġmain": 1349,
      "Ġref": 1350,
      "logist": 1351,
      "Ġfine": 1352,
      "hi": 1353,
      "Ġnotic": 1354,
      "Ġdoing": 1355,
      "riend": 1356,
      "Ġheadac": 1357,
      "hatD": 1358,
      "Ġdaugh": 1359,
      "ied": 1360,
      "Ġdiffic": 1361,
      "Ġqueries": 1362,
      "Ġcell": 1363,
      "Ġfam": 1364,
      "Ġcaused": 1365,
      "Ġes": 1366,
      "most": 1367,
      "Ġpen": 1368,
      "Ġspecial": 1369,
      "Ġfa": 1370,
      "Ġhorm": 1371,
      "uck": 1372,
      "Ġanother": 1373,
      "Ġmedical": 1374,
      "Ġ/": 1375,
      "ider": 1376,
      "adder": 1377,
      "Ġ12": 1378,
      "fort": 1379,
      "Ġfollowing": 1380,
      "Ġknee": 1381,
      "the": 1382,
      "ciated": 1383,
      "Ġfree": 1384,
      "Ġmanage": 1385,
      "Ġinjury": 1386,
      "Ġsurgeon": 1387,
      "atic": 1388,
      "ling": 1389,
      "),": 1390,
      "Ġmet": 1391,
      "Ġmentioned": 1392,
      "Ġob": 1393,
      "Ġrad": 1394,
      "Ġsoon": 1395,
      "ĠAN": 1396,
      "Ġlymp": 1397,
      "Ġep": 1398,
      "Ġswo": 1399,
      "men": 1400,
      "ities": 1401,
      "arm": 1402,
      "Ġabdominal": 1403,
      "Ġbreast": 1404,
      "Ġclar": 1405,
      "Ġhealthy": 1406,
      "Ġvom": 1407,
      "Ġfat": 1408,
      "ions": 1409,
      "zy": 1410,
      "Ġvitamin": 1411,
      "Ġbone": 1412,
      "yroid": 1413,
      "Ġmust": 1414,
      "Ġgener": 1415,
      "Ġdentist": 1416,
      "har": 1417,
      "Ġeat": 1418,
      "Ġfamily": 1419,
      "Ġdaughter": 1420,
      "less": 1421,
      "Ġresults": 1422,
      "Ġswollen": 1423,
      "Ġlook": 1424,
      "oc": 1425,
      "Ġcyc": 1426,
      "Ġgrow": 1427,
      "Ġpe": 1428,
      "Ġthroat": 1429,
      "Ġseem": 1430,
      "lt": 1431,
      "mple": 1432,
      "not": 1433,
      "Ġless": 1434,
      "Ġlater": 1435,
      "Ġmild": 1436,
      "Ġfluid": 1437,
      "Ġcar": 1438,
      "Ġimprove": 1439,
      "pped": 1440,
      "Ġneg": 1441,
      "Ġdifficult": 1442,
      "ever": 1443,
      "Ġnoticed": 1444,
      "urb": 1445,
      "Ġspot": 1446,
      "Ġimport": 1447,
      "Ġnod": 1448,
      "kes": 1449,
      "Ġeffects": 1450,
      "Ġexperienc": 1451,
      "Ġstool": 1452,
      "ably": 1453,
      "hol": 1454,
      "Ġpass": 1455,
      "ave": 1456,
      "Ġconcerned": 1457,
      "Ġearly": 1458,
      "Ġbo": 1459,
      "mun": 1460,
      "Ġthings": 1461,
      "arg": 1462,
      "Ġey": 1463,
      "Ġcur": 1464,
      "Ġhere": 1465,
      "rap": 1466,
      "Ġcure": 1467,
      "Ġpossibility": 1468,
      "Ġtub": 1469,
      "ĠX": 1470,
      "Ġdiab": 1471,
      "Ġindic": 1472,
      "ene": 1473,
      "Ġperson": 1474,
      "Ġrem": 1475,
      "Ġdose": 1476,
      "Ġles": 1477,
      "Ġwriting": 1478,
      "Ġcame": 1479,
      "Ġanswers": 1480,
      "ronic": 1481,
      "Ġimportant": 1482,
      "EN": 1483,
      "Ġgast": 1484,
      "me": 1485,
      "Ġbreathing": 1486,
      "Ġalmost": 1487,
      "rit": 1488,
      "Ġworse": 1489,
      "Ġface": 1490,
      "ced": 1491,
      "Ġfrequ": 1492,
      "Ġprevent": 1493,
      "Ġurin": 1494,
      "Ġremoved": 1495,
      "iatr": 1496,
      "Ġfelt": 1497,
      "cohol": 1498,
      "Ġprov": 1499,
      "ĠCT": 1500,
      "Ġexercises": 1501,
      "cop": 1502,
      "Ġincrease": 1503,
      "ole": 1504,
      "hatDoctor": 1505,
      "ween": 1506,
      "Ġreduce": 1507,
      "Ġneuro": 1508,
      "ension": 1509,
      "Ġwon": 1510,
      "Ġconsider": 1511,
      "Ġloss": 1512,
      "Ġlikely": 1513,
      "urn": 1514,
      "Ġrelax": 1515,
      "Ġallergic": 1516,
      "Ġappear": 1517,
      "order": 1518,
      "Ġtiss": 1519,
      "thma": 1520,
      "Ġrun": 1521,
      "ature": 1522,
      "Ġlymph": 1523,
      "Ġreac": 1524,
      "als": 1525,
      "Ġdepend": 1526,
      "Ġasso": 1527,
      "Ġcream": 1528,
      "Ġperf": 1529,
      "Ġbetween": 1530,
      "Ġhyper": 1531,
      "ially": 1532,
      "Ġspecialist": 1533,
      "Ġinha": 1534,
      "Ġsyst": 1535,
      "Ġpatients": 1536,
      "Ġchronic": 1537,
      "Ġasking": 1538,
      "Ġallergy": 1539,
      "male": 1540,
      "Ġasthma": 1541,
      "Ġpains": 1542,
      "Ġwhite": 1543,
      "iac": 1544,
      "Ġalcohol": 1545,
      "Ġrecovery": 1546,
      "ective": 1547,
      "Ġperiods": 1548,
      "Ġseri": 1549,
      "Ġmanagement": 1550,
      "oma": 1551,
      "Ġslight": 1552,
      "rent": 1553,
      "Ġyrs": 1554,
      "Ġpan": 1555,
      "Ġnegative": 1556,
      "Ġexc": 1557,
      "Ġarm": 1558,
      "Ġ?": 1559,
      "Ġregards": 1560,
      "be": 1561,
      "Ġclarific": 1562,
      "Ġweak": 1563,
      "Ġris": 1564,
      "ared": 1565,
      "aw": 1566,
      "Ġrate": 1567,
      "Ġrequired": 1568,
      "Ġhot": 1569,
      "Ġconfirm": 1570,
      "ber": 1571,
      "Ġaddition": 1572,
      "Ġevaluation": 1573,
      "Ġplan": 1574,
      "Ġfr": 1575,
      "Ġconce": 1576,
      "Ġserious": 1577,
      "Ġassociated": 1578,
      "ST": 1579,
      "UR": 1580,
      "Ġadvised": 1581,
      "Ġem": 1582,
      "Ġinflammation": 1583,
      "ward": 1584,
      "ĠEC": 1585,
      "gar": 1586,
      "Ġabs": 1587,
      "Ġtend": 1588,
      "ins": 1589,
      "Ġtum": 1590,
      "ner": 1591,
      "Ġdirect": 1592,
      "Ġcalled": 1593,
      "Ġeff": 1594,
      "but": 1595,
      "bin": 1596,
      "Ġbed": 1597,
      "Ġheav": 1598,
      "normal": 1599,
      "cription": 1600,
      "Ġgall": 1601,
      "Ġrash": 1602,
      "ulti": 1603,
      "Ġlip": 1604,
      "Ġshort": 1605,
      "Ġhurts": 1606,
      "Ġtop": 1607,
      "Ġcontinue": 1608,
      "Ġtou": 1609,
      "Ġfull": 1610,
      "Ġster": 1611,
      "AN": 1612,
      "acteri": 1613,
      "Ġpers": 1614,
      "ish": 1615,
      "Ġfemale": 1616,
      "ology": 1617,
      "Ġlegs": 1618,
      "ĠNo": 1619,
      "arge": 1620,
      "Ġwithin": 1621,
      "Ġnear": 1622,
      "ided": 1623,
      "Ġdiseases": 1624,
      "Ġaccordingly": 1625,
      "ake": 1626,
      "Ġdisorder": 1627,
      "Ġmean": 1628,
      "Ġdifferent": 1629,
      "Ġinjection": 1630,
      "ors": 1631,
      "AL": 1632,
      "Ġhes": 1633,
      "OR": 1634,
      "Ġ30": 1635,
      "ings": 1636,
      "Ġser": 1637,
      "Ġluck": 1638,
      "ither": 1639,
      "uction": 1640,
      "Ġpenis": 1641,
      "!!": 1642,
      "Ġmon": 1643,
      "Ġwhy": 1644,
      "ĠR": 1645,
      "Ġprod": 1646,
      "Ġtra": 1647,
      "Ġsitu": 1648,
      "Ġtrans": 1649,
      "Ġlocal": 1650,
      "Ġsugar": 1651,
      "Ġacti": 1652,
      "Ġsystem": 1653,
      "Ġchanges": 1654,
      "Ġthank": 1655,
      "Ġcardiac": 1656,
      "Ġbump": 1657,
      "Ġtemp": 1658,
      "Ġact": 1659,
      "Ġer": 1660,
      "Ġcomplain": 1661,
      "pl": 1662,
      "12": 1663,
      "Ġinvestigations": 1664,
      "iness": 1665,
      "ysis": 1666,
      "Ġdam": 1667,
      "Ġnose": 1668,
      "ural": 1669,
      "Ġwarm": 1670,
      "nal": 1671,
      "AT": 1672,
      "Ġbro": 1673,
      "Ġthyroid": 1674,
      "ign": 1675,
      "ĠECG": 1676,
      "Ġhurt": 1677,
      "Ġwalk": 1678,
      "com": 1679,
      "ĠWe": 1680,
      "Ġdiz": 1681,
      "gen": 1682,
      "Ġtrying": 1683,
      "ired": 1684,
      "inf": 1685,
      "Ġpersist": 1686,
      "Ġ:": 1687,
      "Ġcouple": 1688,
      "Ġcomes": 1689,
      "ood": 1690,
      "Ġgets": 1691,
      "Ġthin": 1692,
      "itate": 1693,
      "Ġapply": 1694,
      "Ġabnormal": 1695,
      "Ġnew": 1696,
      "pec": 1697,
      "Ġmulti": 1698,
      "Ġactive": 1699,
      "ral": 1700,
      "Ġdoesn": 1701,
      "Ġfib": 1702,
      "Ġill": 1703,
      "Ġlif": 1704,
      "Ġnon": 1705,
      "Ġcant": 1706,
      "Ġbacteri": 1707,
      "Ġprog": 1708,
      "Ġpositive": 1709,
      "Ġfall": 1710,
      "10": 1711,
      "ically": 1712,
      "Ġunderg": 1713,
      "Ġcannot": 1714,
      "Ġtablet": 1715,
      "Ġbecome": 1716,
      "Ġmother": 1717,
      "ution": 1718,
      "Ġissues": 1719,
      "Ġmast": 1720,
      "Ġbiop": 1721,
      "Ġsteroid": 1722,
      "Ġasp": 1723,
      "Ġprobably": 1724,
      "Ġeither": 1725,
      "Ġlet": 1726,
      "Ġvomiting": 1727,
      "ready": 1728,
      "Ġderm": 1729,
      "Ġleast": 1730,
      "Ġroot": 1731,
      "Ġwhether": 1732,
      "Ġvar": 1733,
      "Ġtissue": 1734,
      "vi": 1735,
      "Ġcases": 1736,
      "Ġalready": 1737,
      "OT": 1738,
      "Ġpills": 1739,
      "Ġtill": 1740,
      "Ġsolved": 1741,
      "ox": 1742,
      "Ġinside": 1743,
      "get": 1744,
      "Ġsoft": 1745,
      "Ġprot": 1746,
      "Ġclarifications": 1747,
      "Ġmuscles": 1748,
      "Ġgoes": 1749,
      "Ġide": 1750,
      "ĠChatDoctor": 1751,
      "--": 1752,
      "Ġresol": 1753,
      "Ġstone": 1754,
      "Ġinv": 1755,
      "arr": 1756,
      "Ġmil": 1757,
      "Ġshoulder": 1758,
      "Ġchange": 1759,
      "Ġthought": 1760,
      "Ġsmoking": 1761,
      "Ġpus": 1762,
      "Ġhesitate": 1763,
      "Ġpr": 1764,
      "Ġgave": 1765,
      "Ġligh": 1766,
      "Ġinfections": 1767,
      "Ġfriend": 1768,
      "ĠĠĠĠĠĠĠĠ": 1769,
      "Ġfoot": 1770,
      "esterday": 1771,
      "Ġdermat": 1772,
      "Ġsupple": 1773,
      "Ġrout": 1774,
      "ritis": 1775,
      "Ġpulmon": 1776,
      "Ġuntil": 1777,
      "Ġheadache": 1778,
      "Ġcompletely": 1779,
      "rot": 1780,
      "Ġshar": 1781,
      "Ġbiopsy": 1782,
      "Ġlim": 1783,
      "ED": 1784,
      "Ġrisk": 1785,
      "ING": 1786,
      "Ġquite": 1787,
      "Ġimmun": 1788,
      "Ġdist": 1789,
      "Ġpat": 1790,
      "Ġsituation": 1791,
      "Ġwrong": 1792,
      "Ġexact": 1793,
      "Ġfactor": 1794,
      "wh": 1795,
      "Ġ14": 1796,
      "Ġbladder": 1797,
      "Ġrib": 1798,
      "Ġ100": 1799,
      "Ġnecess": 1800,
      "Ġclean": 1801,
      "Ġtri": 1802,
      "Ġnause": 1803,
      "Ġheavy": 1804,
      "Ġseveral": 1805,
      "Ġitch": 1806,
      "ates": 1807,
      "Dear": 1808,
      "Ġsays": 1809,
      "Ġmid": 1810,
      "Ġmostly": 1811,
      "Ġcycle": 1812,
      "Ġval": 1813,
      "Ġwonder": 1814,
      "Ġconsulting": 1815,
      "Ġsub": 1816,
      "Ġtablets": 1817,
      "Ġhep": 1818,
      "ized": 1819,
      "reen": 1820,
      "Ġfast": 1821,
      "Ġincreased": 1822,
      "Ġsperm": 1823,
      "Ġblock": 1824,
      "Ġconst": 1825,
      "ph": 1826,
      "Ġsuggestion": 1827,
      "Ġdefin": 1828,
      "Ġtreating": 1829,
      "Ġdischar": 1830,
      "amine": 1831,
      "Ġcra": 1832,
      "Ġposting": 1833,
      "Ġpeop": 1834,
      "Ġchances": 1835,
      "Ġstand": 1836,
      "enter": 1837,
      "HI": 1838,
      "Ġfollic": 1839,
      "Ġbelow": 1840,
      "utes": 1841,
      "itor": 1842,
      "Ġexperiencing": 1843,
      "Ġtried": 1844,
      "Ġcho": 1845,
      "Ġreports": 1846,
      "Ġchecked": 1847,
      "Ġinclude": 1848,
      "ĠAND": 1849,
      "Ġprof": 1850,
      "Ġsensation": 1851,
      "Ġyesterday": 1852,
      "Ġwait": 1853,
      "OU": 1854,
      "Ġpeople": 1855,
      "ĠDr": 1856,
      "Ġelse": 1857,
      "Ġ24": 1858,
      "Ġstage": 1859,
      "copy": 1860,
      "Ġgeneral": 1861,
      "cho": 1862,
      "tility": 1863,
      "Ġconditions": 1864,
      "Ġcells": 1865,
      "Ġhem": 1866,
      "Ġdee": 1867,
      "Ġsud": 1868,
      "Ġsemen": 1869,
      "intment": 1870,
      "Ġroutine": 1871,
      "Ġspread": 1872,
      "Ġconc": 1873,
      "Ġcertain": 1874,
      "Ġcult": 1875,
      "usion": 1876,
      "medi": 1877,
      "LO": 1878,
      "Ġovulation": 1879,
      "ros": 1880,
      "ni": 1881,
      "aining": 1882,
      "asis": 1883,
      "ife": 1884,
      "Ġenl": 1885,
      "Ġminutes": 1886,
      "TION": 1887,
      "Ġphysi": 1888,
      "isod": 1889,
      "Ġassess": 1890,
      "pecially": 1891,
      "ted": 1892,
      "Ġdoubts": 1893,
      "Ġburning": 1894,
      "Ġepisod": 1895,
      "Ġsudden": 1896,
      "Ġbru": 1897,
      "Ġbronchitis": 1898,
      "Ġperform": 1899,
      "Ġmasturb": 1900,
      "gi": 1901,
      "gan": 1902,
      "Ġimmedi": 1903,
      "Ġmale": 1904,
      "ES": 1905,
      "Âł": 1906,
      "Ġdecre": 1907,
      "alp": 1908,
      "Ġirrit": 1909,
      "Ġitching": 1910,
      "iatrist": 1911,
      "ram": 1912,
      "Ġmass": 1913,
      ",\"}]}": 1914,
      "kill": 1915,
      "az": 1916,
      "Ġfeet": 1917,
      "Ġcontinu": 1918,
      "Ġculture": 1919,
      "Ġnecessary": 1920,
      "ding": 1921,
      "enti": 1922,
      "Ġextre": 1923,
      "Ġsinus": 1924,
      "Ġeating": 1925,
      "etic": 1926,
      "Ġsafe": 1927,
      "Ġjoint": 1928,
      "Ġmeas": 1929,
      "Ġdepression": 1930,
      "FT": 1931,
      "Ġ25": 1932,
      "Ġdamage": 1933,
      "Ġtong": 1934,
      "Ġour": 1935,
      "Ġrepe": 1936,
      "Ġfather": 1937,
      "Ġdear": 1938,
      "Ġclot": 1939,
      "Ġpsychiatrist": 1940,
      "Ġvag": 1941,
      "Ġdeep": 1942,
      "Ġtongue": 1943,
      "Ġthor": 1944,
      "Ġinst": 1945,
      "Ġtract": 1946,
      "uct": 1947,
      "hea": 1948,
      "inflamm": 1949,
      "Ġrecur": 1950,
      "etes": 1951,
      "ants": 1952,
      "ĠER": 1953,
      "Ġreduc": 1954,
      "Ġcurrent": 1955,
      "Ġoften": 1956,
      "Ġmilk": 1957,
      "ĠY": 1958,
      "Ġhalf": 1959,
      "Ġtired": 1960,
      "Ġavail": 1961,
      "ount": 1962,
      "Ġespecially": 1963,
      "Ġcoming": 1964,
      "AS": 1965,
      "Ġfoods": 1966,
      "Ġstren": 1967,
      "Ġlarge": 1968,
      "ĠTO": 1969,
      "AR": 1970,
      "Ġelev": 1971,
      "tice": 1972,
      "Ġissue": 1973,
      "Ġ...": 1974,
      "ism": 1975,
      "Ġexcess": 1976,
      "Ġinvol": 1977,
      "Ġtouch": 1978,
      "Ġproced": 1979,
      "Ġadditional": 1980,
      "Ġul": 1981,
      "Ġdischarge": 1982,
      "right": 1983,
      "Ġradi": 1984,
      "Ġhowever": 1985,
      "Ġpath": 1986,
      "Ġlab": 1987,
      "Ġattack": 1988,
      "Ġinterc": 1989,
      "ange": 1990,
      "ungal": 1991,
      "Ġdeveloped": 1992,
      "ium": 1993,
      "ĠIN": 1994,
      "hen": 1995,
      "Ġrespir": 1996,
      "Ġpainkill": 1997,
      "Ġwife": 1998,
      "Ġmeans": 1999,
      "omy": 2000,
      "Ġdiabetes": 2001,
      "Ġsharp": 2002,
      "Ġaffected": 2003,
      "Ġok": 2004,
      "uter": 2005,
      "Ġpoint": 2006,
      "Ġdoubt": 2007,
      "Ġtumor": 2008,
      "ides": 2009,
      "iti": 2010,
      "Ġfail": 2011,
      "Ġconstant": 2012,
      "Ġexplain": 2013,
      "vical": 2014,
      "Ġlooks": 2015,
      "Ġworking": 2016,
      "Ġfing": 2017,
      "iew": 2018,
      "ng": 2019,
      "Ġmal": 2020,
      "Ġevaluated": 2021,
      "Ġmat": 2022,
      "Ġhip": 2023,
      "ĠBP": 2024,
      "Ġsick": 2025,
      "gesic": 2026,
      "ID": 2027,
      "Ġgy": 2028,
      "emia": 2029,
      "Ġlesion": 2030,
      "Ġfer": 2031,
      "Ġillness": 2032,
      "Ġstopped": 2033,
      "reg": 2034,
      "ang": 2035,
      "Ġavailable": 2036,
      "Ġcomplic": 2037,
      "ler": 2038,
      "Ġgums": 2039,
      "ps": 2040,
      "Ġtight": 2041,
      "Ġmod": 2042,
      "Ġfore": 2043,
      "Ġopen": 2044,
      "ix": 2045,
      "Ġappre": 2046,
      "Ġsound": 2047,
      "Ġrespiratory": 2048,
      "Ġanalgesic": 2049,
      "Ġreaction": 2050,
      "Ġextreme": 2051,
      "Ġfact": 2052,
      "Ġret": 2053,
      "irth": 2054,
      "Ġnausea": 2055,
      "fen": 2056,
      "mia": 2057,
      "Ġknown": 2058,
      "Ġ18": 2059,
      "iv": 2060,
      "uture": 2061,
      "Ġjaw": 2062,
      "Ġintercourse": 2063,
      "Ġ200": 2064,
      "Ġstones": 2065,
      "Ġcervical": 2066,
      "Ġair": 2067,
      "Ġchance": 2068,
      "let": 2069,
      "line": 2070,
      "Ġprescribe": 2071,
      "Ġrev": 2072,
      "Ġtheir": 2073,
      "Ġdiscom": 2074,
      "Ġadd": 2075,
      "Ġfatty": 2076,
      "LE": 2077,
      "Ġdoc": 2078,
      "bal": 2079,
      "no": 2080,
      "Ġcir": 2081,
      "Ġchem": 2082,
      "Ġeffective": 2083,
      "Ġdiscomfort": 2084,
      "Ġdefinite": 2085,
      "ision": 2086,
      "BC": 2087,
      "Ġwalking": 2088,
      "inflammatory": 2089,
      "ons": 2090,
      "Ġ0": 2091,
      "Ġinfected": 2092,
      "Ġlight": 2093,
      "af": 2094,
      "eg": 2095,
      "zing": 2096,
      "Ġank": 2097,
      "Ġwom": 2098,
      "Ġdel": 2099,
      "Ġsim": 2100,
      "Ġeverything": 2101,
      "Ġposition": 2102,
      "iled": 2103,
      "Ġmiss": 2104,
      "Ġoper": 2105,
      "ech": 2106,
      "ured": 2107,
      "cin": 2108,
      "Ġbil": 2109,
      "time": 2110,
      "Ġgiving": 2111,
      "Ġclose": 2112,
      "Ġsimple": 2113,
      "wn": 2114,
      "Ġdefici": 2115,
      "Ġtal": 2116,
      "VE": 2117,
      "Ġenough": 2118,
      "Ġbirth": 2119,
      "Ġwhole": 2120,
      "osing": 2121,
      "Ġregarding": 2122,
      "Ġspecific": 2123,
      "Ġregularly": 2124,
      "Ġhepat": 2125,
      "ches": 2126,
      "Ġph": 2127,
      "fer": 2128,
      "Ġreasons": 2129,
      "Ġwondering": 2130,
      "Ġundergo": 2131,
      "Ġbased": 2132,
      "Ġnumbness": 2133,
      "Ġcorrect": 2134,
      "Ġamount": 2135,
      "Ġmonitor": 2136,
      "Ġfuture": 2137,
      "IC": 2138,
      "TH": 2139,
      "Ġstudy": 2140,
      "Ġwish": 2141,
      "ropri": 2142,
      ".-": 2143,
      "Ġintake": 2144,
      "Ġcramp": 2145,
      "Ġpel": 2146,
      "Ġcoun": 2147,
      "ents": 2148,
      "Ġsexual": 2149,
      "Ġlungs": 2150,
      "ĠAt": 2151,
      "Ġfru": 2152,
      "iry": 2153,
      "Ġname": 2154,
      "ĠTHE": 2155,
      "Ġhands": 2156,
      "jac": 2157,
      "vious": 2158,
      "Ġsuggested": 2159,
      "Ġspinal": 2160,
      "Ġdiarr": 2161,
      "tern": 2162,
      "Ġtab": 2163,
      "Ġregion": 2164,
      "Ġprote": 2165,
      "Ġorth": 2166,
      "Ġang": 2167,
      "ian": 2168,
      "ological": 2169,
      "Ġmaintain": 2170,
      "AC": 2171,
      "Ġterm": 2172,
      "Ġslow": 2173,
      "Ġver": 2174,
      "Ġswe": 2175,
      "Ġ50": 2176,
      "Ġstre": 2177,
      "raphy": 2178,
      "Ġappropri": 2179,
      "ains": 2180,
      "Ġgreat": 2181,
      "Ġmade": 2182,
      "Ġhab": 2183,
      "Ġshows": 2184,
      "Ġfac": 2185,
      "Ġsus": 2186,
      "Ġhappens": 2187,
      "Ġdermatologist": 2188,
      "Ġcoughing": 2189,
      "Ġanemia": 2190,
      "OM": 2191,
      "Ġseiz": 2192,
      "Ġalright": 2193,
      "onal": 2194,
      "Ġbow": 2195,
      "mm": 2196,
      "Ġgastro": 2197,
      "Ġprocedure": 2198,
      "Ġstrong": 2199,
      "nec": 2200,
      "Ġelect": 2201,
      "Ġmuc": 2202,
      "Ġshowed": 2203,
      "Ġurinary": 2204,
      "neum": 2205,
      "Ġhypert": 2206,
      "Ġeas": 2207,
      "Ġfront": 2208,
      "IS": 2209,
      "Ġturn": 2210,
      "Ġ16": 2211,
      "Ġmom": 2212,
      "Ġsubs": 2213,
      "Ġhappened": 2214,
      "Ġnat": 2215,
      "tif": 2216,
      "Ġdiarrhea": 2217,
      "Ġ11": 2218,
      "ĠAL": 2219,
      "Ġtraum": 2220,
      "Ġcontrac": 2221,
      "Ġuseful": 2222,
      "Ġpelv": 2223,
      "Ġfract": 2224,
      "Ġmeals": 2225,
      "ark": 2226,
      "rown": 2227,
      "Ġactivity": 2228,
      "Ġhyp": 2229,
      "Ġcreat": 2230,
      "Ġ40": 2231,
      "Ġimmediately": 2232,
      "Ġting": 2233,
      "ilar": 2234,
      "what": 2235,
      "icy": 2236,
      "Ġtech": 2237,
      "Ġsitting": 2238,
      "Ġoccurs": 2239,
      "Ġappears": 2240,
      "Ġ..": 2241,
      "str": 2242,
      "Ġhygi": 2243,
      "Ġra": 2244,
      "Ġdos": 2245,
      "Ġ13": 2246,
      "Ġeye": 2247,
      "athy": 2248,
      "cept": 2249,
      "Ġveget": 2250,
      "stru": 2251,
      "Ġfrequent": 2252,
      "Ġgrowth": 2253,
      "ility": 2254,
      "wards": 2255,
      "Ġsurgical": 2256,
      "Ġyourself": 2257,
      "Ġiron": 2258,
      "oscopy": 2259,
      "Ġdairy": 2260,
      "Ġblack": 2261,
      "Ġcombin": 2262,
      "ATION": 2263,
      "Ġbot": 2264,
      "ĠTo": 2265,
      "old": 2266,
      "Ġsite": 2267,
      "Ġrespon": 2268,
      "ident": 2269,
      "Ġacute": 2270,
      "ister": 2271,
      "Ġemerg": 2272,
      "Ġcr": 2273,
      "Ġben": 2274,
      "Ġplace": 2275,
      "olic": 2276,
      "dle": 2277,
      "Ġcardio": 2278,
      "Ġstarting": 2279,
      "Ġthorough": 2280,
      "itivity": 2281,
      "URL": 2282,
      "Ġcompression": 2283,
      "Ġproperly": 2284,
      "Ġthose": 2285,
      "Ġsuggestions": 2286,
      "Ġappropriate": 2287,
      "Ġmultiple": 2288,
      "uff": 2289,
      "onia": 2290,
      "elcome": 2291,
      "Ġhygiene": 2292,
      "Ġped": 2293,
      "ieve": 2294,
      "Ġstep": 2295,
      "Ġpi": 2296,
      "Ġever": 2297,
      "Ġstreng": 2298,
      "asm": 2299,
      "Ġslightly": 2300,
      "Ġsolution": 2301,
      "full": 2302,
      "Ġdescrib": 2303,
      "Ġdefinitely": 2304,
      "Ġdelay": 2305,
      "like": 2306,
      "Ġsir": 2307,
      "Ġsusp": 2308,
      "Ġsupplements": 2309,
      "bl": 2310,
      "Ġsimilar": 2311,
      "au": 2312,
      "Ġenzy": 2313,
      "Ġown": 2314,
      "Ġhormonal": 2315,
      "Ġprofile": 2316,
      "Ġelevated": 2317,
      "Ġpneum": 2318,
      "Ġweakness": 2319,
      "Ġant": 2320,
      "Ġmind": 2321,
      "Ġdescription": 2322,
      "Ġtot": 2323,
      "Ġeyes": 2324,
      "ĠHA": 2325,
      "Ġwishes": 2326,
      "Ġeach": 2327,
      "Ġbowel": 2328,
      "ziness": 2329,
      "gger": 2330,
      "ticular": 2331,
      "Ġmaybe": 2332,
      "Ġyet": 2333,
      "Ġdidnt": 2334,
      "llo": 2335,
      "Ġcanal": 2336,
      "Ġwat": 2337,
      "Ġsigns": 2338,
      "ged": 2339,
      "Ġgreen": 2340,
      "Ġprocess": 2341,
      "regular": 2342,
      "acks": 2343,
      "asal": 2344,
      "Ġpulmonologist": 2345,
      "Ġrelieve": 2346,
      "ina": 2347,
      "Ġyr": 2348,
      "Ġprol": 2349,
      "Ġfailure": 2350,
      "Ġpot": 2351,
      "Ġguide": 2352,
      "Ġmeds": 2353,
      "Ġexamined": 2354,
      "nia": 2355,
      "Ġejac": 2356,
      "EL": 2357,
      "Ġuter": 2358,
      "Ġtested": 2359,
      "ched": 2360,
      "Ġorder": 2361,
      "Ġvac": 2362,
      "Ġnut": 2363,
      "Ġareas": 2364,
      "Ġemergency": 2365,
      "Ġitchy": 2366,
      "Ġpanic": 2367,
      "gue": 2368,
      "niqu": 2369,
      "Ġhormone": 2370,
      "ĠIS": 2371,
      "Ġdidn": 2372,
      "Ġvirus": 2373,
      "Ġtechniqu": 2374,
      "Ġruled": 2375,
      "ember": 2376,
      "SG": 2377,
      "Ġminute": 2378,
      "Ġdeficiency": 2379,
      "yl": 2380,
      "Ġabscess": 2381,
      "Ġmiddle": 2382,
      "Ġfin": 2383,
      "Ġcolor": 2384,
      "ze": 2385,
      "yle": 2386,
      "Ġovar": 2387,
      "jor": 2388,
      "lying": 2389,
      "Ġwo": 2390,
      "Ġgland": 2391,
      "ables": 2392,
      "Ġap": 2393,
      "Ġarth": 2394,
      "Ġlost": 2395,
      "Ġincluding": 2396,
      "Ġself": 2397,
      "Ġtakes": 2398,
      "Ġplay": 2399,
      "Ġdifficulty": 2400,
      "Ġdizziness": 2401,
      "mitt": 2402,
      "Ġankle": 2403,
      "Ġbecom": 2404,
      "Ġlumb": 2405,
      "sh": 2406,
      "Ġrenal": 2407,
      "rain": 2408,
      "Ġfactors": 2409,
      "Ġmajor": 2410,
      "hello": 2411,
      "asing": 2412,
      "Ġhepatitis": 2413,
      "Ġbu": 2414,
      "itation": 2415,
      "Ġdiagnose": 2416,
      "iog": 2417,
      "Ġ19": 2418,
      "app": 2419,
      "Ġirregular": 2420,
      "ending": 2421,
      "Ġfollowed": 2422,
      "Ġbig": 2423,
      "Ġconceive": 2424,
      "lux": 2425,
      ".,": 2426,
      "Ġdys": 2427,
      "oster": 2428,
      "hist": 2429,
      "Ġmeth": 2430,
      "Ġreal": 2431,
      "Ġgir": 2432,
      "Ġquick": 2433,
      "Ġupon": 2434,
      "Ġtrou": 2435,
      "Ġstay": 2436,
      "Ġsat": 2437,
      "Ġdark": 2438,
      "ising": 2439,
      "SA": 2440,
      "Ġwisdom": 2441,
      "ker": 2442,
      "Ġure": 2443,
      "Ġbacterial": 2444,
      "Ġtrauma": 2445,
      "Welcome": 2446,
      "Ġthigh": 2447,
      "Ġ17": 2448,
      "Ġearli": 2449,
      "Ġhealing": 2450,
      "Ġmyself": 2451,
      "Ġremove": 2452,
      "Ġlooking": 2453,
      "Ġanalysis": 2454,
      "Ġdrink": 2455,
      "Ġvegetables": 2456,
      "Ġmovements": 2457,
      "opha": 2458,
      "Ġtender": 2459,
      "Ġsensitivity": 2460,
      "Ġnode": 2461,
      "Ġbal": 2462,
      "Ġegg": 2463,
      "tip": 2464,
      "mog": 2465,
      "Ġenlarg": 2466,
      "Ġfar": 2467,
      "Ġmem": 2468,
      "Ġreflux": 2469,
      "Ġfruits": 2470,
      "head": 2471,
      "Ġprotein": 2472,
      "Ġfati": 2473,
      "Ġunp": 2474,
      "Ġbene": 2475,
      ".....": 2476,
      "Ġserum": 2477,
      "!\"},": 2478,
      "Ġcombination": 2479,
      "ense": 2480,
      "ints": 2481,
      "rox": 2482,
      "Ġevening": 2483,
      "Ġprescription": 2484,
      "Ġarms": 2485,
      "Ġconfirmed": 2486,
      "Ġsaline": 2487,
      "mes": 2488,
      "Ġcut": 2489,
      "Ġoption": 2490,
      "Ġmenstru": 2491,
      "Ġmasturbation": 2492,
      "pping": 2493,
      "Ġwound": 2494,
      "Ġhear": 2495,
      "Ġplate": 2496,
      "Ġfindings": 2497,
      "Ġchol": 2498,
      "Ġrefer": 2499,
      "Ġlay": 2500,
      "YYYY": 2501,
      "Ġneurologist": 2502,
      "Ġbutt": 2503,
      "Ġintest": 2504,
      "Ġexcessive": 2505,
      "Ġasked": 2506,
      "ats": 2507,
      "Ġstarts": 2508,
      "Ġboy": 2509,
      "Ġsupport": 2510,
      "Ġcontracep": 2511,
      "Ġenlarged": 2512,
      "Ġleading": 2513,
      "raction": 2514,
      "ĠRE": 2515,
      "Ġ201": 2516,
      "Ġexperience": 2517,
      "Ġspots": 2518,
      "Ġsho": 2519,
      "Ġrecommended": 2520,
      "Ġbeha": 2521,
      "Ġseverity": 2522,
      "Ġspe": 2523,
      "cium": 2524,
      "Ġloose": 2525,
      "Ġpneumonia": 2526,
      "Ġrecover": 2527,
      "Ġcha": 2528,
      "Ġple": 2529,
      "Ġnodes": 2530,
      "PT": 2531,
      "Ġlesions": 2532,
      "hyth": 2533,
      "Ġ500": 2534,
      "Ġlifest": 2535,
      "Ġharm": 2536,
      "air": 2537,
      "Ġment": 2538,
      "UT": 2539,
      "Ġwear": 2540,
      "Ġtingling": 2541,
      "tes": 2542,
      "ume": 2543,
      "Ġconstip": 2544,
      "Ġepisodes": 2545,
      "Ġarter": 2546,
      "Ġshall": 2547,
      "ĠOF": 2548,
      "Ġprost": 2549,
      "Ġsalt": 2550,
      "estive": 2551,
      "Ġlifestyle": 2552,
      "Ġidea": 2553,
      "Ġhit": 2554,
      "Ġtuberc": 2555,
      "fully": 2556,
      "Ġrid": 2557,
      "Ġexclu": 2558,
      "bing": 2559,
      "ead": 2560,
      "Ġpathology": 2561,
      "rotected": 2562,
      "Ġheadaches": 2563,
      "Ġsleeping": 2564,
      "Ġremoval": 2565,
      "Ġgynec": 2566,
      "Ġbumps": 2567,
      "Ġbite": 2568,
      "Ġaspir": 2569,
      "Ġcirc": 2570,
      "Ġorthop": 2571,
      "ecti": 2572,
      "gs": 2573,
      "Ġshot": 2574,
      "Ġcommonly": 2575,
      "ĠV": 2576,
      "Ġdoesnt": 2577,
      "Ġoil": 2578,
      "aged": 2579,
      "Ġitself": 2580,
      "Ġcalcium": 2581,
      "Ġmarried": 2582,
      "Ġunprotected": 2583,
      "man": 2584,
      "Ġecho": 2585,
      "Ġwors": 2586,
      "Ġobs": 2587,
      "side": 2588,
      "Ġthinking": 2589,
      "che": 2590,
      "Ġsuggestive": 2591,
      "Ġhypertension": 2592,
      "Ġnorm": 2593,
      "Ġinvestigation": 2594,
      "Ġib": 2595,
      "Ġfour": 2596,
      "Ġcolon": 2597,
      "Ġformation": 2598,
      "Ġwoke": 2599,
      "Ġiden": 2600,
      "Ġorgan": 2601,
      "Ġsignific": 2602,
      "ush": 2603,
      "Ġhernia": 2604,
      "Ġmic": 2605,
      "ointment": 2606,
      "Ġantihist": 2607,
      "Ġliqu": 2608,
      "Ġprevious": 2609,
      "Ġrunning": 2610,
      "ited": 2611,
      "Ġsymptomatic": 2612,
      "Ġline": 2613,
      "ization": 2614,
      "Ġmakes": 2615,
      "Ġassessment": 2616,
      "OD": 2617,
      "sp": 2618,
      "Ġinhaled": 2619,
      "Ġpalp": 2620,
      "azole": 2621,
      "Ġtemper": 2622,
      "ening": 2623,
      "allow": 2624,
      "Ġenzymes": 2625,
      "Ġhemat": 2626,
      "Ġnasal": 2627,
      "Ġfracture": 2628,
      "Ġrare": 2629,
      "Ġulcer": 2630,
      "min": 2631,
      "NT": 2632,
      "Ġbath": 2633,
      "ailed": 2634,
      "Ġdirectly": 2635,
      "Ġgarg": 2636,
      "ellow": 2637,
      "Ġactually": 2638,
      "by": 2639,
      "Ġsn": 2640,
      "Ġstat": 2641,
      "Ġobstr": 2642,
      "Ġidentif": 2643,
      "ulosis": 2644,
      "Ġspicy": 2645,
      "ef": 2646,
      "orders": 2647,
      "Ġ28": 2648,
      "Ġgro": 2649,
      "Ġache": 2650,
      "osure": 2651,
      "Ġsecondary": 2652,
      "Ġallergies": 2653,
      "Ġlumps": 2654,
      "Ġmm": 2655,
      "ird": 2656,
      "Ġchee": 2657,
      "20": 2658,
      "bly": 2659,
      "Ġdizzy": 2660,
      "Ġdiabetic": 2661,
      "Ġreview": 2662,
      "Ġfell": 2663,
      "ential": 2664,
      "IL": 2665,
      "Ġcall": 2666,
      "ĠJ": 2667,
      "ĠMY": 2668,
      "hind": 2669,
      "Ġbenef": 2670,
      "Ġsort": 2671,
      "Ġscar": 2672,
      "ciate": 2673,
      "fortable": 2674,
      "Ġ....": 2675,
      "Ġcurrently": 2676,
      "Ġsun": 2677,
      "weight": 2678,
      "Ġaspect": 2679,
      "Ġmethod": 2680,
      "Ġdisorders": 2681,
      "bladder": 2682,
      "Ġfungal": 2683,
      "ring": 2684,
      "ances": 2685,
      "Ġlive": 2686,
      "Ġscared": 2687,
      "Ġyoung": 2688,
      "Ġchoosing": 2689,
      "Ġprogress": 2690,
      "set": 2691,
      "ible": 2692,
      "Ġnatural": 2693,
      "Ġoptions": 2694,
      "ĠST": 2695,
      "rofen": 2696,
      "Ġdry": 2697,
      "Ġbehind": 2698,
      "Ġrange": 2699,
      "Ġgel": 2700,
      "ET": 2701,
      "Ġox": 2702,
      "Ġju": 2703,
      "Ġlifting": 2704,
      "Ġrather": 2705,
      "Ġdetailed": 2706,
      ",,": 2707,
      "Ġprim": 2708,
      "Ġcalc": 2709,
      "LOC": 2710,
      "Ġcomplications": 2711,
      "Ġtesting": 2712,
      "Ġz": 2713,
      "ĠPC": 2714,
      "edic": 2715,
      "Ġkidneys": 2716,
      "Ġnerves": 2717,
      "isc": 2718,
      "Ġbeg": 2719,
      "Ġlonger": 2720,
      "ĠIT": 2721,
      "Ġgynecologist": 2722,
      "olar": 2723,
      "Ġparticular": 2724,
      "apist": 2725,
      "Ġgrad": 2726,
      "Ġprac": 2727,
      "Ġsignificant": 2728,
      "Ġdepends": 2729,
      "Ġresolve": 2730,
      "Ġtechniques": 2731,
      "Ġpret": 2732,
      "Ġinfer": 2733,
      "Ġibup": 2734,
      "Ġunderlying": 2735,
      "Ġbul": 2736,
      "Ġstro": 2737,
      "Ġappreciate": 2738,
      "Ġstab": 2739,
      "Ġbottom": 2740,
      "ĠHY": 2741,
      "Ġunderstood": 2742,
      "Ġnormally": 2743,
      "Ġcardiologist": 2744,
      "Ġfatigue": 2745,
      "ration": 2746,
      "Ġbacteria": 2747,
      "Ġlate": 2748,
      "Ġpin": 2749,
      "Ġinit": 2750,
      "Ġpoor": 2751,
      "Ġbreak": 2752,
      "ging": 2753,
      "Ġpri": 2754,
      "Ġagg": 2755,
      "Ġbenign": 2756,
      "Ġgallbladder": 2757,
      "ĠTB": 2758,
      "Ġappointment": 2759,
      "Ġprovide": 2760,
      "Ġextremely": 2761,
      "Ġpur": 2762,
      "Ġsomeone": 2763,
      "Ġhappening": 2764,
      "Ġtuberculosis": 2765,
      "CT": 2766,
      "though": 2767,
      "LOCATION": 2768,
      "Ġ21": 2769,
      "Ġconsidered": 2770,
      "Ġreduced": 2771,
      "Ġyellow": 2772,
      "Ġmovement": 2773,
      "Ġhelped": 2774,
      "Ġmonitoring": 2775,
      "Ġelectro": 2776,
      "ained": 2777,
      "etite": 2778,
      "Ġarthritis": 2779,
      "Ġpanc": 2780,
      "Ġter": 2781,
      "ĠSG": 2782,
      "pert": 2783,
      "ane": 2784,
      "Ġactiv": 2785,
      "Ġpretty": 2786,
      "Ġbelieve": 2787,
      "Ġexposure": 2788,
      "asc": 2789,
      "Ġreply": 2790,
      "esterol": 2791,
      "Ġbas": 2792,
      "Ġstudied": 2793,
      "Ġphysiotherapy": 2794,
      "mor": 2795,
      "Ġbehavi": 2796,
      "Ġoutside": 2797,
      "Ġimbal": 2798,
      "Ġibuprofen": 2799,
      "Ġrepl": 2800,
      "ĠChatDoctorI": 2801,
      "par": 2802,
      "Ġset": 2803,
      "lobin": 2804,
      "Ġed": 2805,
      "Ġoccas": 2806,
      "Ġmeet": 2807,
      "ule": 2808,
      "Ġfinger": 2809,
      "Ġduration": 2810,
      "Ġtemperature": 2811,
      "Ġanswering": 2812,
      "Ġalot": 2813,
      "Ġnotice": 2814,
      "Ġ!": 2815,
      "Ġseeing": 2816,
      "Ġtrouble": 2817,
      "Ġdisturb": 2818,
      "Ġtalk": 2819,
      "Ġlumbar": 2820,
      "Ġstru": 2821,
      "Ġtes": 2822,
      "Ġextraction": 2823,
      "Ġremember": 2824,
      "Ġconsultation": 2825,
      "Deg": 2826,
      "OW": 2827,
      "The": 2828,
      "Ġstools": 2829,
      "Ġhurting": 2830,
      "Degree": 2831,
      "Ġroom": 2832,
      "Ġdru": 2833,
      "Ġice": 2834,
      "Ġdust": 2835,
      "Ġmeasures": 2836,
      "Ġaut": 2837,
      "Ġimprovement": 2838,
      "to": 2839,
      "Ġtopical": 2840,
      "Ġcholesterol": 2841,
      "Ġuterus": 2842,
      "ĠBE": 2843,
      "ril": 2844,
      "OS": 2845,
      "Ġappetite": 2846,
      "Ġplac": 2847,
      "Ġchemotherapy": 2848,
      "ml": 2849,
      "ards": 2850,
      "Ġmental": 2851,
      "Ġwash": 2852,
      "ĠFOR": 2853,
      "Ġconstipation": 2854,
      "equ": 2855,
      "rup": 2856,
      "Ġkindly": 2857,
      "ĠES": 2858,
      "Ġprec": 2859,
      "Ġresponse": 2860,
      "Ġraised": 2861,
      "IT": 2862,
      "orn": 2863,
      "Ġhigher": 2864,
      "Ġmissed": 2865,
      "Ġive": 2866,
      "amol": 2867,
      "Ġexcept": 2868,
      "Ġproduct": 2869,
      "Ġvarious": 2870,
      "Ġthoughts": 2871,
      "moglobin": 2872,
      "idence": 2873,
      "ulate": 2874,
      "ears": 2875,
      "ĠAn": 2876,
      "arent": 2877,
      "Ġcramps": 2878,
      "Ġadequ": 2879,
      "mitted": 2880,
      "Ġtension": 2881,
      "ĠPFT": 2882,
      "Ġparac": 2883,
      "OP": 2884,
      "lation": 2885,
      "iatrician": 2886,
      "of": 2887,
      "Ġorthopedic": 2888,
      "Ġremed": 2889,
      "ography": 2890,
      "she": 2891,
      "Ġperman": 2892,
      "Ġpainkiller": 2893,
      "Ġliquid": 2894,
      "Ġattacks": 2895,
      "Ġincreases": 2896,
      "iding": 2897,
      "Ġrepeat": 2898,
      "Ġdeterm": 2899,
      "Ġcompress": 2900,
      "Ġrespond": 2901,
      "Ġsteroids": 2902,
      "Ġpred": 2903,
      "Ġunless": 2904,
      "Ġbell": 2905,
      "Ġincreasing": 2906,
      "ĠBy": 2907,
      "Ġstra": 2908,
      "Ġreturn": 2909,
      "ug": 2910,
      "ex": 2911,
      "Ġfeed": 2912,
      "Ġmatter": 2913,
      "Ġpow": 2914,
      "Ġflow": 2915,
      "Ġsyn": 2916,
      "rat": 2917,
      "kg": 2918,
      "Ġrece": 2919,
      "ĠOr": 2920,
      "gener": 2921,
      "Ġcat": 2922,
      "rologist": 2923,
      "Ġ22": 2924,
      "essel": 2925,
      "Ġmotion": 2926,
      "Ġmenstrual": 2927,
      "you": 2928,
      "Ġindicate": 2929,
      "Ġpoly": 2930,
      "Ġcured": 2931,
      "inine": 2932,
      "vir": 2933,
      "wise": 2934,
      "Ġimpl": 2935,
      "ĠK": 2936,
      "Ġvessel": 2937,
      "Ġfrequently": 2938,
      "ession": 2939,
      "Ġointment": 2940,
      "Ġpediatrician": 2941,
      "ori": 2942,
      "enty": 2943,
      "Ġuncom": 2944,
      "Ġmaking": 2945,
      "ior": 2946,
      "ention": 2947,
      "Ġnumber": 2948,
      "function": 2949,
      "Ġdecrease": 2950,
      "yrs": 2951,
      "thers": 2952,
      "Ġ60": 2953,
      "Ġsyrup": 2954,
      "used": 2955,
      "Ġtowards": 2956,
      "Ġinstead": 2957,
      "Ġpainkillers": 2958,
      "Ġstroke": 2959,
      "Ġsucc": 2960,
      "Ġpossibly": 2961,
      "LD": 2962,
      "ality": 2963,
      "mentation": 2964,
      "ĠOn": 2965,
      "ĠIV": 2966,
      "Ġcontinuous": 2967,
      "Ġagainst": 2968,
      "Ġaltern": 2969,
      "Ġcolle": 2970,
      "hoid": 2971,
      "Ġsuff": 2972,
      "Ġcry": 2973,
      "Ġreading": 2974,
      "Ġgroin": 2975,
      "Ġheight": 2976,
      "Ġneedle": 2977,
      "vers": 2978,
      "Ġgas": 2979,
      "Ġlooked": 2980,
      "Ġfluids": 2981,
      "Ġdrin": 2982,
      "ict": 2983,
      "Ġsmoke": 2984,
      "Ġcortic": 2985,
      "Ġirritation": 2986,
      "Ġsmell": 2987,
      "Ġaccident": 2988,
      "Ġnature": 2989,
      "Ġrich": 2990,
      "Ġhemoglobin": 2991,
      "Ġrecent": 2992,
      "Ġexpect": 2993,
      "Ġsensitive": 2994,
      "ĠENT": 2995,
      "Ġprostate": 2996,
      "Ġclinic": 2997,
      "Ġmalign": 2998,
      "Ġbleed": 2999,
      "nce": 3000,
      "Ġapplic": 3001,
      "Ġforum": 3002,
      "Ġbehavior": 3003,
      "Ġrepeated": 3004,
      "Ġactivities": 3005,
      "ectomy": 3006,
      "Ġcontaining": 3007,
      "Ġprovided": 3008,
      "AY": 3009,
      "Ġunable": 3010,
      "Ġyes": 3011,
      "rays": 3012,
      "Ġvagina": 3013,
      "Ġ23": 3014,
      "Ġsqu": 3015,
      "LY": 3016,
      "Ġgrade": 3017,
      "Ġemp": 3018,
      "ĠESR": 3019,
      "tile": 3020,
      "Ġev": 3021,
      "Ġbecomes": 3022,
      "Ġdepress": 3023,
      "ĠĠĠĠĠĠĠĠĠĠĠĠĠĠĠĠ": 3024,
      "Ġbrown": 3025,
      "Ġminim": 3026,
      "isf": 3027,
      "etamol": 3028,
      "Ġconcent": 3029,
      "Ġexperienced": 3030,
      "ator": 3031,
      "riage": 3032,
      "ortion": 3033,
      "Ġimbalance": 3034,
      "Ġpack": 3035,
      "Ġstatus": 3036,
      "Ġwrite": 3037,
      "ENT": 3038,
      "Ġpelvic": 3039,
      "Ġsuccess": 3040,
      "please": 3041,
      "Ġinh": 3042,
      "Ġstanding": 3043,
      "aled": 3044,
      "Ġgenerally": 3045,
      "Ġexclude": 3046,
      "Ġrupt": 3047,
      "Ġevent": 3048,
      "Ġpartner": 3049,
      "ouse": 3050,
      "Ġchanged": 3051,
      "Ġobstruction": 3052,
      "ĠON": 3053,
      "Ġwomen": 3054,
      "Ġgirl": 3055,
      "ensive": 3056,
      "Ġpossibilities": 3057,
      "Ġtempor": 3058,
      "erous": 3059,
      "Ġhold": 3060,
      "Ġeasily": 3061,
      "ices": 3062,
      "teb": 3063,
      "Ġtotal": 3064,
      "Ġgotten": 3065,
      "Ġribs": 3066,
      "aking": 3067,
      "where": 3068,
      "Ġprimary": 3069,
      "zine": 3070,
      "Ġbelly": 3071,
      "AD": 3072,
      "Ġideas": 3073,
      "gestion": 3074,
      "Ġexam": 3075,
      "Ġappend": 3076,
      "oup": 3077,
      "Ġswallow": 3078,
      "rible": 3079,
      "Ġsix": 3080,
      "Ġdental": 3081,
      "Ġpsychotherapy": 3082,
      "can": 3083,
      "Ġcover": 3084,
      "Ġinjections": 3085,
      "Ġorig": 3086,
      "Ġadvis": 3087,
      "Ġdepending": 3088,
      "Ġdeal": 3089,
      "ified": 3090,
      "Ġstrengthe": 3091,
      "Thank": 3092,
      "Ġoccasion": 3093,
      "Ġsubst": 3094,
      "ectious": 3095,
      "Ġelectroly": 3096,
      "orry": 3097,
      "eptic": 3098,
      "Ġthick": 3099,
      "ubin": 3100,
      "odil": 3101,
      "Ġcontrolled": 3102,
      "for": 3103,
      "Ġwhee": 3104,
      "Ġotherwise": 3105,
      "ĠHER": 3106,
      "Ġoperation": 3107,
      "Ġpulmonary": 3108,
      "Ġsatisf": 3109,
      "Ġshortness": 3110,
      "Ġseizures": 3111,
      "Ġstraight": 3112,
      "HelloThanks": 3113,
      "ned": 3114,
      "Ġ+": 3115,
      "Ġothers": 3116,
      "Ġlots": 3117,
      "Ġhabit": 3118,
      "Ġdegener": 3119,
      "Ġtube": 3120,
      "Ġvaginal": 3121,
      "Ġsaw": 3122,
      "Ġinfertility": 3123,
      "Ġadvisable": 3124,
      "Ġcreatinine": 3125,
      "Ġmoder": 3126,
      "rief": 3127,
      "illin": 3128,
      "Ġcap": 3129,
      "Ġalthough": 3130,
      "Ġ26": 3131,
      "Ġbegin": 3132,
      "Ġdull": 3133,
      "Ġparacetamol": 3134,
      "Ġplus": 3135,
      "Ġinner": 3136,
      "Ġwrist": 3137,
      "Ġpassed": 3138,
      "Ġsk": 3139,
      "Ġantif": 3140,
      "Ġearlier": 3141,
      "Ġgives": 3142,
      "ok": 3143,
      "Ġsing": 3144,
      "ĠUSG": 3145,
      "Ġrequires": 3146,
      "Ġbruise": 3147,
      "Ġglad": 3148,
      "Ġfollicles": 3149,
      "Ġsent": 3150,
      "Ġcenter": 3151,
      "ether": 3152,
      "ĠHE": 3153,
      "Ġcoll": 3154,
      "Ġ35": 3155,
      "Ġsuffered": 3156,
      "Ġradiation": 3157,
      "Ġpump": 3158,
      "irubin": 3159,
      "Ġidentify": 3160,
      "ob": 3161,
      "Ġcalm": 3162,
      "cking": 3163,
      "Ġ?\"},": 3164,
      "Ġjoints": 3165,
      "ascular": 3166,
      "orr": 3167,
      "Ġmucus": 3168,
      "Ġcheek": 3169,
      "abies": 3170,
      "Ġplenty": 3171,
      "Ġdysfunction": 3172,
      "Ġinflammatory": 3173,
      "Ġfix": 3174,
      "Ġpal": 3175,
      "Ġstret": 3176,
      "Ġlack": 3177,
      "Ġapplication": 3178,
      "Ġovarian": 3179,
      "Ġdisapp": 3180,
      "Ġtranspl": 3181,
      "Ġgradually": 3182,
      "ĠGP": 3183,
      "cers": 3184,
      "Ġrele": 3185,
      "Ġjob": 3186,
      "Ġfingers": 3187,
      "Ġrashes": 3188,
      "Ġpersists": 3189,
      "Ġsuddenly": 3190,
      "Ġspasm": 3191,
      "Ġhence": 3192,
      "rizine": 3193,
      "Ġfollows": 3194,
      "Ġsac": 3195,
      "cal": 3196,
      "Ġdang": 3197,
      "Ġconception": 3198,
      "Ġerection": 3199,
      "Ġsend": 3200,
      "ability": 3201,
      "logical": 3202,
      "Ġsuggests": 3203,
      "icken": 3204,
      "Ġlink": 3205,
      "oph": 3206,
      "Ġgastroenter": 3207,
      "Ġsnee": 3208,
      "omp": 3209,
      "Ġtestic": 3210,
      "Ġce": 3211,
      "ĠYOU": 3212,
      "It": 3213,
      "pe": 3214,
      "Ġfil": 3215,
      "Ġstate": 3216,
      "ĠHAVE": 3217,
      "Ġgluc": 3218,
      "chool": 3219,
      "Ġpractice": 3220,
      "Ġbronchodil": 3221,
      "Ġemb": 3222,
      "bow": 3223,
      "Ġfive": 3224,
      "Ġfinding": 3225,
      "Ġpa": 3226,
      "tics": 3227,
      "US": 3228,
      "Ġkids": 3229,
      "alysis": 3230,
      "Ġconsulted": 3231,
      "Ġgrand": 3232,
      "Ġhan": 3233,
      "GH": 3234,
      "Ġ27": 3235,
      "ĠUR": 3236,
      "ived": 3237,
      "Ġcarefully": 3238,
      "Ġarr": 3239,
      "bul": 3240,
      "Ġfollicle": 3241,
      "Ġepisode": 3242,
      "Ġtransplant": 3243,
      "ocy": 3244,
      "Ġbasis": 3245,
      "ĠDO": 3246,
      "Ġkne": 3247,
      "CH": 3248,
      "Ġsister": 3249,
      "Ġcondom": 3250,
      "Ġcysts": 3251,
      "!\"}]}": 3252,
      "raz": 3253,
      "Ġprior": 3254,
      "Ġrecurrent": 3255,
      "Ġgastritis": 3256,
      "Ġguid": 3257,
      "esthe": 3258,
      "Ġmuscular": 3259,
      "Ġsorry": 3260,
      "Ġscrot": 3261,
      "Ġscrat": 3262,
      "Ġcorre": 3263,
      "Ġminor": 3264,
      "Ġejaculation": 3265,
      "rate": 3266,
      "Ġattention": 3267,
      "Ġstiff": 3268,
      "aund": 3269,
      "SH": 3270,
      "ergy": 3271,
      "Ġcycles": 3272,
      "Ġpresence": 3273,
      "iatric": 3274,
      "Ġelbow": 3275,
      "Ġinhib": 3276,
      "Ġproduc": 3277,
      "ries": 3278,
      "form": 3279,
      "friend": 3280,
      "kelet": 3281,
      "Ġschool": 3282,
      "Ġanalgesics": 3283,
      "Ġslowly": 3284,
      "Ġguidance": 3285,
      "ĠWH": 3286,
      "AM": 3287,
      "Ġ45": 3288,
      "Ġbrother": 3289,
      "Ġfear": 3290,
      "UL": 3291,
      "Ġoxy": 3292,
      "RO": 3293,
      "Ġexamine": 3294,
      "Ġdil": 3295,
      "now": 3296,
      "Ġcm": 3297,
      "Ġsubside": 3298,
      "Ġalone": 3299,
      "ĠNOT": 3300,
      "Ġleads": 3301,
      "keletal": 3302,
      "eral": 3303,
      "raph": 3304,
      "raid": 3305,
      "geal": 3306,
      "rav": 3307,
      "Ġwall": 3308,
      "Ġlately": 3309,
      "Ġing": 3310,
      "Ġfill": 3311,
      "icillin": 3312,
      "lex": 3313,
      "Ġtreatments": 3314,
      "Ġbecame": 3315,
      "Ġwoman": 3316,
      "Ġinternal": 3317,
      "Ġobser": 3318,
      "25": 3319,
      "aging": 3320,
      "ste": 3321,
      "Ġprefer": 3322,
      "Ġgenital": 3323,
      "Ġsuper": 3324,
      "Ġexpert": 3325,
      "lied": 3326,
      "osteroid": 3327,
      "Ġinvestigated": 3328,
      "ĠUTI": 3329,
      "inc": 3330,
      "ĠAM": 3331,
      "Ġpsychological": 3332,
      "room": 3333,
      "Ġdate": 3334,
      "which": 3335,
      "itations": 3336,
      "Ġinhaler": 3337,
      "Ġresolved": 3338,
      "dep": 3339,
      "Ġcent": 3340,
      "Ġvalues": 3341,
      "Ġimmune": 3342,
      "Ġscalp": 3343,
      "Ġstruct": 3344,
      "Ġcorticosteroid": 3345,
      "rence": 3346,
      "Ġredness": 3347,
      "Ġtrigger": 3348,
      "Ġboyfriend": 3349,
      "Ġafraid": 3350,
      "He": 3351,
      "Im": 3352,
      "entation": 3353,
      "Ġfacts": 3354,
      "Ġpassing": 3355,
      "BS": 3356,
      "Ġbilirubin": 3357,
      "way": 3358,
      "Ġadequate": 3359,
      "Ġpermanent": 3360,
      "ĠME": 3361,
      "ored": 3362,
      "Ġacne": 3363,
      "Ġbreathless": 3364,
      "ross": 3365,
      "ils": 3366,
      "aste": 3367,
      "ished": 3368,
      "ash": 3369,
      "idual": 3370,
      "Ġfit": 3371,
      "terior": 3372,
      "Ġcontraceptive": 3373,
      "Ġmood": 3374,
      "Ġhouse": 3375,
      "Ġstudies": 3376,
      "Ġburn": 3377,
      "aster": 3378,
      "Ġmig": 3379,
      "Ġhaven": 3380,
      "Ġconsist": 3381,
      "ometri": 3382,
      "Ġtre": 3383,
      "Ġindicates": 3384,
      "unk": 3385,
      "Ġlig": 3386,
      "Ġseizure": 3387,
      "Ġantifungal": 3388,
      "just": 3389,
      "Ġmotility": 3390,
      "Ġreplace": 3391,
      "Ġcord": 3392,
      "Ġobes": 3393,
      "Ġduct": 3394,
      "Ġdog": 3395,
      "erms": 3396,
      "uring": 3397,
      "eared": 3398,
      "Ġmax": 3399,
      "Ġenlarge": 3400,
      "Ġmemory": 3401,
      "amines": 3402,
      "esterone": 3403,
      "Ġjaund": 3404,
      "Ġsteps": 3405,
      "Ġconn": 3406,
      "Ġcavity": 3407,
      "Ġimmunity": 3408,
      "Ġhabits": 3409,
      "ĠSGPT": 3410,
      "Ġusual": 3411,
      "Ġpancre": 3412,
      "Ġden": 3413,
      "Ġvision": 3414,
      "Ġrelaxant": 3415,
      "ema": 3416,
      "Ġtip": 3417,
      "ache": 3418,
      "Ġmark": 3419,
      "AIN": 3420,
      "Ġurg": 3421,
      "rosis": 3422,
      "Ġaches": 3423,
      "Ġmainly": 3424,
      "Ġantis": 3425,
      "Ġbeat": 3426,
      "Ġlose": 3427,
      "utum": 3428,
      "Ġorg": 3429,
      "after": 3430,
      "Ġevaluate": 3431,
      "sible": 3432,
      "........": 3433,
      "Ġquit": 3434,
      "Ġimplant": 3435,
      ".*": 3436,
      "ulos": 3437,
      "Ġmetab": 3438,
      ":-": 3439,
      "Ġdoses": 3440,
      "month": 3441,
      "Ġbrief": 3442,
      "Ġchemo": 3443,
      "ĠOR": 3444,
      "acid": 3445,
      "Ġartery": 3446,
      "ested": 3447,
      "Ġfresh": 3448,
      "Ġneurop": 3449,
      "Ġsingle": 3450,
      "Ġsides": 3451,
      "Ġanesthe": 3452,
      "Ġtog": 3453,
      "Ġgroup": 3454,
      "Ġbreathe": 3455,
      "Ġplz": 3456,
      "Ġbones": 3457,
      "Ġvacc": 3458,
      "Ġoste": 3459,
      "doctor": 3460,
      "urance": 3461,
      "Ġtightness": 3462,
      "Ġcomplaints": 3463,
      "Ġwanted": 3464,
      "ula": 3465,
      "Ġfriends": 3466,
      "Ġproducts": 3467,
      "Ġjaundice": 3468,
      "Ġcontains": 3469,
      "Ġglucose": 3470,
      "Ġpls": 3471,
      "Ġpop": 3472,
      "Ġhematoma": 3473,
      "Ġprogesterone": 3474,
      "Ġwhenever": 3475,
      "ules": 3476,
      "Ġlev": 3477,
      "Ġdeli": 3478,
      "Ġpulse": 3479,
      "more": 3480,
      "ONE": 3481,
      "Ġsaying": 3482,
      "Ġyog": 3483,
      "Ġenergy": 3484,
      "Ġesopha": 3485,
      "Ġtogether": 3486,
      "Ġwake": 3487,
      "Ġdrinking": 3488,
      "ny": 3489,
      "Ġsched": 3490,
      "Ġml": 3491,
      "Ġps": 3492,
      "Ġpad": 3493,
      "Ġpull": 3494,
      "Ġsputum": 3495,
      "icial": 3496,
      "Ġrap": 3497,
      "aneous": 3498,
      "Ġpound": 3499,
      "Ġshowing": 3500,
      "Ġinvolve": 3501,
      "Ġbend": 3502,
      "ank": 3503,
      "ĠURL": 3504,
      "ĠGI": 3505,
      "copic": 3506,
      "lor": 3507,
      "Ġinflam": 3508,
      "Ġbase": 3509,
      "Ġ29": 3510,
      "ChatDoctor": 3511,
      "aria": 3512,
      "Ġsoap": 3513,
      "rition": 3514,
      "Ġforward": 3515,
      "Ġrub": 3516,
      "Ġorigin": 3517,
      "uloskeletal": 3518,
      "Ġheat": 3519,
      "Ġaspiration": 3520,
      "ĠHI": 3521,
      "Ġbroken": 3522,
      "over": 3523,
      "apse": 3524,
      "Ġtons": 3525,
      "ators": 3526,
      "Ġhrs": 3527,
      "Ġworsen": 3528,
      "Ġmill": 3529,
      "Ġpha": 3530,
      "razole": 3531,
      "Ġsperms": 3532,
      "Ġendometri": 3533,
      "Ġstrain": 3534,
      "Ġpelvis": 3535,
      "Ġarrhyth": 3536,
      "Ġcomplex": 3537,
      "Ġproviding": 3538,
      "Ġuncomfortable": 3539,
      "Ġverteb": 3540,
      "Ġpalpitations": 3541,
      "Ġstuff": 3542,
      "30": 3543,
      "Ġmusculoskeletal": 3544,
      "hin": 3545,
      "Ġoverweight": 3546,
      "Ġovary": 3547,
      "Ġbigger": 3548,
      "VER": 3549,
      "ĠCBC": 3550,
      "ire": 3551,
      "Ġjuice": 3552,
      "Ġurination": 3553,
      "Ġdosage": 3554,
      "??\"},": 3555,
      "days": 3556,
      "rin": 3557,
      "Ġligam": 3558,
      "vention": 3559,
      "Ġfacing": 3560,
      "Ġdetermine": 3561,
      "Ġleaf": 3562,
      "Ġconstantly": 3563,
      "Ġgrowing": 3564,
      "Ġunlike": 3565,
      "racted": 3566,
      "Ġspotting": 3567,
      "EC": 3568,
      "In": 3569,
      "Ġdeg": 3570,
      "Ġplaying": 3571,
      "Ġthrice": 3572,
      "GE": 3573,
      "Ġkill": 3574,
      "Ġlipid": 3575,
      "earch": 3576,
      "nis": 3577,
      "vitamin": 3578,
      "anced": 3579,
      "Ġmoving": 3580,
      "Ġchoice": 3581,
      "Ġnar": 3582,
      "Ġdiscussion": 3583,
      "15": 3584,
      "Ġcage": 3585,
      "rowing": 3586,
      "Ġmisc": 3587,
      "sia": 3588,
      "Ġcomplaint": 3589,
      "Ġpulled": 3590,
      ".)": 3591,
      "Ġbile": 3592,
      "----": 3593,
      "Ġdri": 3594,
      "ĠSH": 3595,
      "Ġtoe": 3596,
      "Ġbegan": 3597,
      "Ġhor": 3598,
      "Ġhavent": 3599,
      "Ġperformed": 3600,
      "Ġbring": 3601,
      "ster": 3602,
      "Ġtear": 3603,
      "Ġview": 3604,
      "Ġcontinued": 3605,
      "PH": 3606,
      "Ġcost": 3607,
      "Ġplatelet": 3608,
      "enosis": 3609,
      "Ġperfect": 3610,
      "Ġsweating": 3611,
      "Ġcongestion": 3612,
      "...\"},": 3613,
      "ĠHERD": 3614,
      "opathy": 3615,
      "Ġlotion": 3616,
      "erol": 3617,
      "Ġparent": 3618,
      "Ġrise": 3619,
      "Ġwheezing": 3620,
      "cm": 3621,
      "card": 3622,
      "Ġnerv": 3623,
      "Ġpap": 3624,
      "Ġstim": 3625,
      "ded": 3626,
      "Ġendoscopy": 3627,
      "Ġlap": 3628,
      "Ġcaps": 3629,
      "arily": 3630,
      "Ġrapid": 3631,
      "tle": 3632,
      "Ġamox": 3633,
      "Ġchildren": 3634,
      "zed": 3635,
      "'re": 3636,
      "Ġball": 3637,
      "ĠCAN": 3638,
      "Ġnearby": 3639,
      "Ġmoment": 3640,
      "con": 3641,
      "mic": 3642,
      "rd": 3643,
      "Ġseb": 3644,
      "Ġoxygen": 3645,
      "Ġurologist": 3646,
      "ĠMay": 3647,
      "Ġapprox": 3648,
      "Ġdecided": 3649,
      "Ġinvolved": 3650,
      "Ġdelayed": 3651,
      "Ġaggrav": 3652,
      "tire": 3653,
      "Ġwaiting": 3654,
      "Ġveins": 3655,
      "skin": 3656,
      "chy": 3657,
      "Ġappro": 3658,
      "Ġknees": 3659,
      "Ġsaliv": 3660,
      "Ġguess": 3661,
      "Ġpersistent": 3662,
      "Ġdescribed": 3663,
      "Ġoily": 3664,
      "andom": 3665,
      "Ġtin": 3666,
      "Ġflo": 3667,
      "ote": 3668,
      "Ġlbs": 3669,
      "Ġexactly": 3670,
      "AK": 3671,
      "ulated": 3672,
      "Ġscrotum": 3673,
      "ds": 3674,
      "Ġcontacting": 3675,
      "essions": 3676,
      "Ġeveryday": 3677,
      "Ġvessels": 3678,
      "ĠYYYY": 3679,
      "Ġinches": 3680,
      "Ġkg": 3681,
      "Ġfet": 3682,
      "Ġgain": 3683,
      "Ġsupplement": 3684,
      "Ġnervous": 3685,
      "Ġthroughout": 3686,
      "Ġ80": 3687,
      "TS": 3688,
      "Ġrandom": 3689,
      "Ġrelieved": 3690,
      "Ġallow": 3691,
      "Ġweigh": 3692,
      "Ġapplied": 3693,
      "Ġbother": 3694,
      "Ġneurological": 3695,
      "Ġdescribe": 3696,
      "Ġtomor": 3697,
      "ĠAD": 3698,
      "Ġseek": 3699,
      "Ġreducing": 3700,
      "Ġbalance": 3701,
      "Ġenlargement": 3702,
      "des": 3703,
      "Ġdad": 3704,
      "Ġtyphoid": 3705,
      "mber": 3706,
      "une": 3707,
      "Ġpattern": 3708,
      "ying": 3709,
      "Ġstenosis": 3710,
      "AB": 3711,
      "Ġsour": 3712,
      "Ġvein": 3713,
      "Ġperforming": 3714,
      "Ġdecreased": 3715,
      "Ġlying": 3716,
      "OL": 3717,
      "Ġhi": 3718,
      "amet": 3719,
      "aly": 3720,
      "Ġtomorrow": 3721,
      "otherapist": 3722,
      "Ġchemical": 3723,
      "Ġstrength": 3724,
      "Ġseemed": 3725,
      "ITH": 3726,
      "..\"},": 3727,
      "Ġextra": 3728,
      "Ġsuspect": 3729,
      "tirizine": 3730,
      "Ġforget": 3731,
      "noon": 3732,
      "Ġleafy": 3733,
      "Ġheard": 3734,
      "Ġcyt": 3735,
      "Ġentire": 3736,
      "Ġ)": 3737,
      "Ġye": 3738,
      "Ġdiscussing": 3739,
      "egards": 3740,
      "Ġmoderate": 3741,
      "Ġemo": 3742,
      "Ġdetected": 3743,
      "Ġmigrain": 3744,
      "ics": 3745,
      "Ġ75": 3746,
      "Ġtypes": 3747,
      "Ġfain": 3748,
      "Ġcond": 3749,
      "ateral": 3750,
      "Ġundergone": 3751,
      "immun": 3752,
      "Ġsmoker": 3753,
      "Ġnutrition": 3754,
      "Ġunlikely": 3755,
      "Ġkeeps": 3756,
      "Ġmeal": 3757,
      "Ġwebs": 3758,
      "Ġears": 3759,
      "Ġdialysis": 3760,
      "Ġauto": 3761,
      "Ġod": 3762,
      "Ġten": 3763,
      "cious": 3764,
      "Ġnor": 3765,
      "Ġmens": 3766,
      "Ġnur": 3767,
      "izing": 3768,
      "ilep": 3769,
      "Ġrelaxed": 3770,
      "romy": 3771,
      "CV": 3772,
      "Ġhormones": 3773,
      "ier": 3774,
      "Ġclass": 3775,
      "Ġmiscar": 3776,
      "Ġcomplaining": 3777,
      "14": 3778,
      "last": 3779,
      "round": 3780,
      "Ġest": 3781,
      "aces": 3782,
      "Ġworks": 3783,
      "Ġherni": 3784,
      "Ġposture": 3785,
      "Ġparts": 3786,
      "Ġstent": 3787,
      "Ġhum": 3788,
      "Ġspeed": 3789,
      "EG": 3790,
      "Ġbeta": 3791,
      "depress": 3792,
      "Ġpict": 3793,
      "Ġround": 3794,
      "action": 3795,
      "assium": 3796,
      "Ġprolong": 3797,
      "Ġvaccine": 3798,
      "ining": 3799,
      "Ġantihistamines": 3800,
      "Ġcounter": 3801,
      "NAC": 3802,
      "Ġste": 3803,
      "Ġmetast": 3804,
      "OUR": 3805,
      "treat": 3806,
      "Ġafternoon": 3807,
      "Ġultrason": 3808,
      "Ġarrhythmia": 3809,
      "Ġsessions": 3810,
      "Ġmolar": 3811,
      "Ġwants": 3812,
      "Ġsecre": 3813,
      "cent": 3814,
      "Ġinsurance": 3815,
      "ulitis": 3816,
      "Ġlimb": 3817,
      "Ġexpected": 3818,
      "Ġtissues": 3819,
      "Ġdangerous": 3820,
      "Ġelectrolytes": 3821,
      "Ġdegenerative": 3822,
      "ills": 3823,
      "oney": 3824,
      "Ġseconds": 3825,
      "Ġ48": 3826,
      "Ġinvestigate": 3827,
      "Ġ90": 3828,
      "Ġconfirmation": 3829,
      "11": 3830,
      "icient": 3831,
      "Ġturned": 3832,
      "Ġband": 3833,
      "Ġkept": 3834,
      "Ġdevelopment": 3835,
      "/\"}]}": 3836,
      "this": 3837,
      "Ġdecide": 3838,
      "Ġfully": 3839,
      "Ġleave": 3840,
      "Ġvitamins": 3841,
      "Ġct": 3842,
      "Ġweird": 3843,
      "allerg": 3844,
      "Ġantihistamine": 3845,
      "Ġlist": 3846,
      "opath": 3847,
      "Ġchew": 3848,
      "Ġtaste": 3849,
      "roscopy": 3850,
      "Ġprop": 3851,
      "Ġaccum": 3852,
      "Ġfoc": 3853,
      "Ġtalking": 3854,
      "oriasis": 3855,
      "di": 3856,
      "Ġfig": 3857,
      "Ġni": 3858,
      "Ġulcers": 3859,
      "gia": 3860,
      "any": 3861,
      "Ġinitial": 3862,
      "Ġenc": 3863,
      "Ġ150": 3864,
      "ony": 3865,
      "Ġreve": 3866,
      "Ġarmp": 3867,
      "Ġbruising": 3868,
      "Ġorgans": 3869,
      "Ġlift": 3870,
      "Ġcareful": 3871,
      "Ġreplacement": 3872,
      "Ġgastric": 3873,
      "Ġ72": 3874,
      "Ġpotassium": 3875,
      "stic": 3876,
      "tioned": 3877,
      "Ġbloating": 3878,
      "Ġrecurrence": 3879,
      "Ġtubes": 3880,
      "Ġstrengthening": 3881,
      "Ġnoted": 3882,
      "rum": 3883,
      "na": 3884,
      "Ġphysiotherapist": 3885,
      "Ġrestric": 3886,
      "Ġkeeping": 3887,
      "Ġcleaning": 3888,
      "Ġindiv": 3889,
      "Ġtemporary": 3890,
      "mentioned": 3891,
      "immune": 3892,
      "ĠCON": 3893,
      "Ġputting": 3894,
      "Ġremain": 3895,
      "Ġven": 3896,
      "Ġlear": 3897,
      "Ġantiseptic": 3898,
      "Ġpsoriasis": 3899,
      "UI": 3900,
      "plete": 3901,
      "do": 3902,
      "Ġ%": 3903,
      "Ġherp": 3904,
      "ĠALT": 3905,
      "oo": 3906,
      "Ġec": 3907,
      "Ġhole": 3908,
      "Ġabnormality": 3909,
      "with": 3910,
      "hal": 3911,
      "Ġintense": 3912,
      "ined": 3913,
      "Ġmeditation": 3914,
      "Ġahead": 3915,
      "how": 3916,
      "Ġstic": 3917,
      "ceed": 3918,
      "Ġ70": 3919,
      "Ġpatches": 3920,
      "ĠGo": 3921,
      "Ġdiagnos": 3922,
      "Ġess": 3923,
      "Ġlips": 3924,
      "Ġcalcul": 3925,
      "Ġfair": 3926,
      "eb": 3927,
      "Ġmoist": 3928,
      "Ġbasic": 3929,
      "Ġwebsite": 3930,
      "Ġhealed": 3931,
      "Ġimproving": 3932,
      "Ġgastroenterologist": 3933,
      "blo": 3934,
      "Ġabortion": 3935,
      "Ġmultivitamin": 3936,
      "Ġindividual": 3937,
      "CE": 3938,
      "Ġbeats": 3939,
      "Ġsounds": 3940,
      "Ġyoga": 3941,
      "Ġremains": 3942,
      "ĠMD": 3943,
      "unt": 3944,
      "Ġextent": 3945,
      "Ġfrequency": 3946,
      "Ġinflamed": 3947,
      "SI": 3948,
      "Ġconfused": 3949,
      "load": 3950,
      "Ġanymore": 3951,
      "rh": 3952,
      "Ġprogn": 3953,
      "Ġ32": 3954,
      "Ġpsychologist": 3955,
      "Ġlocation": 3956,
      "Ġresting": 3957,
      "Ġhighly": 3958,
      "Ġrelease": 3959,
      "Ġinser": 3960,
      "Ġblocked": 3961,
      "romb": 3962,
      "cial": 3963,
      "Ġovaries": 3964,
      "hyl": 3965,
      "cket": 3966,
      "ĠWITH": 3967,
      "Ġforeskin": 3968,
      "Ġunc": 3969,
      "Ġtravel": 3970,
      "Ġtotally": 3971,
      "Ġpeel": 3972,
      "Ġthus": 3973,
      "mal": 3974,
      "olute": 3975,
      "Ġpowder": 3976,
      "Ġlasted": 3977,
      "Ġpillow": 3978,
      "Ġmicro": 3979,
      "Ġedema": 3980,
      "esopha": 3981,
      "Ġintra": 3982,
      "Ġtrue": 3983,
      "Ġcoron": 3984,
      "Ġappreciated": 3985,
      "pro": 3986,
      "Ġcalf": 3987,
      "Ġassistance": 3988,
      "Ġintestinal": 3989,
      "Ġappeared": 3990,
      "Ġreferred": 3991,
      "ĠAS": 3992,
      "Ġsample": 3993,
      "Ġremedy": 3994,
      "uous": 3995,
      "ĠLI": 3996,
      "ses": 3997,
      "Ġsurf": 3998,
      "Ġperiph": 3999,
      "Ġcreams": 4000,
      "ify": 4001,
      "Ġanyone": 4002,
      "ects": 4003,
      "Ġsupply": 4004,
      "Ġmassage": 4005,
      "Ġradiating": 4006,
      "Ġflat": 4007,
      "Ġbronchodilators": 4008,
      "Ġbreathlessness": 4009,
      "Ġaction": 4010,
      "roph": 4011,
      "Ġfilled": 4012,
      "Ġrabies": 4013,
      "Ġwatch": 4014,
      "rew": 4015,
      "Ġcere": 4016,
      "Ġinduc": 4017,
      "Ġplanning": 4018,
      "Ġxray": 4019,
      "Ġultrasonography": 4020,
      "contin": 4021,
      "Ġdrop": 4022,
      "Ġerup": 4023,
      "Ġsod": 4024,
      "Ġ31": 4025,
      "Ġyeast": 4026,
      "oration": 4027,
      "Ġinhalation": 4028,
      "uctive": 4029,
      "Ġabsolute": 4030,
      "ASE": 4031,
      "Ġsneezing": 4032,
      "ĠBe": 4033,
      "Ġgenetic": 4034,
      "Ġmenses": 4035,
      "low": 4036,
      "Ġisn": 4037,
      "Ġring": 4038,
      "Ġadmitted": 4039,
      "lect": 4040,
      "Ġrins": 4041,
      "Ġton": 4042,
      "olism": 4043,
      "???": 4044,
      "Ġclarification": 4045,
      "KG": 4046,
      "Ġones": 4047,
      "lan": 4048,
      "Ġcirrh": 4049,
      "Ġ400": 4050,
      "vice": 4051,
      "Ġthromb": 4052,
      "Ġprepar": 4053,
      "Ġcharact": 4054,
      "Ġsquee": 4055,
      "Ġprognosis": 4056,
      "UM": 4057,
      "thanks": 4058,
      "Ġiam": 4059,
      "Ġinfectious": 4060,
      "Ġcounse": 4061,
      "Ġapart": 4062,
      "Ġnice": 4063,
      "mples": 4064,
      "Ġallergen": 4065,
      "Ġdepressed": 4066,
      "ought": 4067,
      "itten": 4068,
      "Ġmeasure": 4069,
      "Ġparents": 4070,
      "Ġthird": 4071,
      "Ġadvance": 4072,
      "Ġcoronary": 4073,
      "Ġpatch": 4074,
      "ites": 4075,
      "Ġech": 4076,
      "ulin": 4077,
      "Ġdelivery": 4078,
      "Ġbp": 4079,
      "Ġchecking": 4080,
      "Ġimpact": 4081,
      "Ġphot": 4082,
      "Is": 4083,
      "Ġworst": 4084,
      "Ġrect": 4085,
      "ushing": 4086,
      "Ġcouns": 4087,
      "Ġupset": 4088,
      "Ġonset": 4089,
      "Ġbuild": 4090,
      "hythm": 4091,
      "Ġspace": 4092,
      "Ġsmaller": 4093,
      "Ġcytology": 4094,
      "Ġspond": 4095,
      "ĠFNAC": 4096,
      "Ġdrug": 4097,
      "Ġpink": 4098,
      "Ġblockage": 4099,
      "Ġthoroughly": 4100,
      "Ġfolic": 4101,
      "Ġtiny": 4102,
      "oce": 4103,
      "Ġsed": 4104,
      "Ġvent": 4105,
      "Ġlove": 4106,
      "Ġmont": 4107,
      "AST": 4108,
      "Ġanxious": 4109,
      "Ġhelping": 4110,
      "Ġbutton": 4111,
      "ters": 4112,
      "Ġfal": 4113,
      "esophageal": 4114,
      "Ġshi": 4115,
      "Ġtherefore": 4116,
      "ĠSU": 4117,
      "Ġhemorr": 4118,
      "Ġent": 4119,
      "Ġtoler": 4120,
      "Ġesophag": 4121,
      "ogen": 4122,
      "br": 4123,
      "Ġvomit": 4124,
      "iography": 4125,
      "Ġcounselling": 4126,
      "Ġdepos": 4127,
      "Ġcolonoscopy": 4128,
      "lets": 4129,
      "Ġpounds": 4130,
      "Ġspl": 4131,
      "Ġparti": 4132,
      "Ġlabor": 4133,
      "Ġmec": 4134,
      "Ġvalue": 4135,
      "Ġopening": 4136,
      "Ġcounts": 4137,
      "Ġbathroom": 4138,
      "Ġcirrhosis": 4139,
      "roll": 4140,
      "odies": 4141,
      "years": 4142,
      "aceous": 4143,
      "Ġessential": 4144,
      "Ġsple": 4145,
      "Ġherpes": 4146,
      "DL": 4147,
      "Ġcontinues": 4148,
      "IM": 4149,
      "isters": 4150,
      "Ġrelation": 4151,
      "000": 4152,
      "Ġdermatitis": 4153,
      "Ġmanaged": 4154,
      "Ġ2011": 4155,
      "Ġshoot": 4156,
      "her": 4157,
      "Ġglands": 4158,
      "Ġureter": 4159,
      "ĠBUT": 4160,
      "GHT": 4161,
      "ensity": 4162,
      "Ġ-\"}]}": 4163,
      "ification": 4164,
      "ĠIVF": 4165,
      "Ġperipheral": 4166,
      "Ġbending": 4167,
      "Ġische": 4168,
      "Ġimmediate": 4169,
      "Ġdrugs": 4170,
      "Ġspleen": 4171,
      "Ġbeginning": 4172,
      "oct": 4173,
      "Ġsolve": 4174,
      "Ġbulge": 4175,
      "idazole": 4176,
      "ĠWBC": 4177,
      "lytic": 4178,
      "Ġfocus": 4179,
      "uke": 4180,
      "sur": 4181,
      "sir": 4182,
      "Ġshown": 4183,
      "Ġvaccin": 4184,
      "Ġempty": 4185,
      "Ġprem": 4186,
      "Ġcrack": 4187,
      "lofen": 4188,
      "Ġsometime": 4189,
      "Ġeasy": 4190,
      "Ġ36": 4191,
      "Ġantacid": 4192,
      "Ġautoimmune": 4193,
      "Ġindicated": 4194,
      "Ġfilling": 4195,
      "ince": 4196,
      "Ġworked": 4197,
      "Ġsores": 4198,
      "ky": 4199,
      "astic": 4200,
      "Ġshape": 4201,
      "Ġcrying": 4202,
      "res": 4203,
      "Ġgargles": 4204,
      "Ġinjured": 4205,
      "Ġaff": 4206,
      "Ġqual": 4207,
      "Ġvascular": 4208,
      "Ġincludes": 4209,
      "Ġreach": 4210,
      "iving": 4211,
      "Ġpub": 4212,
      "Ġmeat": 4213,
      "Ġ2010": 4214,
      "put": 4215,
      "ĠAm": 4216,
      "bone": 4217,
      "Ġfeeding": 4218,
      "Ġfertility": 4219,
      "Ġbroke": 4220,
      "Ġneuropathy": 4221,
      "Ġstopping": 4222,
      "Ġoffice": 4223,
      "Ġnote": 4224,
      "Ġabnormalities": 4225,
      "back": 4226,
      "Ġ37": 4227,
      "SAID": 4228,
      "Ġcompresses": 4229,
      "Ġamoxicillin": 4230,
      "If": 4231,
      "Ġprofession": 4232,
      "Ġchills": 4233,
      "Ġearliest": 4234,
      "treating": 4235,
      "Ġavoiding": 4236,
      "Ġproton": 4237,
      "estation": 4238,
      "hatDoct": 4239,
      "roscopic": 4240,
      "Ġreceived": 4241,
      "Ġsebaceous": 4242,
      "hood": 4243,
      "Ġaware": 4244,
      "Ġradio": 4245,
      "Ġarmpit": 4246,
      "ChatDoct": 4247,
      "otic": 4248,
      "vert": 4249,
      "Ġstrange": 4250,
      "Ġrevers": 4251,
      "bed": 4252,
      "Ġ33": 4253,
      "Ġdeveloping": 4254,
      "po": 4255,
      "Ġtoile": 4256,
      "Ġlarg": 4257,
      "Ġalter": 4258,
      "Ġvisible": 4259,
      "Ġproduce": 4260,
      "ĠYOUR": 4261,
      "Ġjunk": 4262,
      "Ġbroad": 4263,
      "Ġinitially": 4264,
      "EE": 4265,
      "sc": 4266,
      "ked": 4267,
      "iable": 4268,
      "oy": 4269,
      "wash": 4270,
      "lofenac": 4271,
      "EAR": 4272,
      "erv": 4273,
      "Ġate": 4274,
      "Ġtherapist": 4275,
      "Ġdic": 4276,
      "ĠCH": 4277,
      "Ġlit": 4278,
      "Ġacross": 4279,
      "Ġfloor": 4280,
      "Ġprolonged": 4281,
      "Ġworm": 4282,
      "bear": 4283,
      "Ġneph": 4284,
      "Ġaccomp": 4285,
      "ission": 4286,
      "Ġfinally": 4287,
      "Ġbecoming": 4288,
      "Ġsufficient": 4289,
      "Ġpee": 4290,
      "Ġvol": 4291,
      "Ġprobable": 4292,
      "yroidism": 4293,
      "itch": 4294,
      "Ġsexually": 4295,
      "Ġinsulin": 4296,
      "Ġprone": 4297,
      "Ġoperated": 4298,
      "Ġligament": 4299,
      "year": 4300,
      "Ġadjust": 4301,
      "Ġquickly": 4302,
      "Ġterrible": 4303,
      "yr": 4304,
      "ĠCA": 4305,
      "Ġmoved": 4306,
      "HiT": 4307,
      "some": 4308,
      "Ġresponsible": 4309,
      "cl": 4310,
      "rod": 4311,
      "Ġchicken": 4312,
      "Ġfunctions": 4313,
      "ocard": 4314,
      "leg": 4315,
      "Ġtox": 4316,
      "imum": 4317,
      "Ġplaced": 4318,
      "ĠAST": 4319,
      "Ġhyd": 4320,
      "iogram": 4321,
      "Ġcramping": 4322,
      "Ġurgent": 4323,
      "Ġpreg": 4324,
      "Ġadded": 4325,
      "imin": 4326,
      "ĠTHAT": 4327,
      "Ġbilateral": 4328,
      "Ġevidence": 4329,
      "Ġinse": 4330,
      "Ġpig": 4331,
      "Ġsurround": 4332,
      "Ġpiec": 4333,
      "Ġtoilet": 4334,
      "ĠAB": 4335,
      "Ġacet": 4336,
      "ruc": 4337,
      "outs": 4338,
      "Ġ65": 4339,
      "Ġsoreness": 4340,
      "Ġacidity": 4341,
      "Ġpick": 4342,
      "Ġimproved": 4343,
      "Ġstretching": 4344,
      "Ġneural": 4345,
      "ffee": 4346,
      "Ġtherap": 4347,
      "months": 4348,
      "rel": 4349,
      "Ġrhythm": 4350,
      "Ġ55": 4351,
      "Ġunus": 4352,
      "ĠEKG": 4353,
      "doctors": 4354,
      "Ġtoes": 4355,
      "Ġstrenuous": 4356,
      "Ġrequest": 4357,
      "Ġmarrow": 4358,
      "Ġfasting": 4359,
      "Ġalternative": 4360,
      "airs": 4361,
      "Ġran": 4362,
      "Ġcouldnt": 4363,
      "Ġresulting": 4364,
      "Ġbenefit": 4365,
      "Ġenter": 4366,
      "Ġclots": 4367,
      "Ġfinished": 4368,
      "].": 4369,
      "IR": 4370,
      "Ġbes": 4371,
      "Ġspray": 4372,
      "Ġsuppor": 4373,
      "ĠTHIS": 4374,
      "Ġprogressive": 4375,
      "Good": 4376,
      "Ġthinks": 4377,
      "Ġtail": 4378,
      "......": 4379,
      "Ġavoided": 4380,
      "tigo": 4381,
      "ended": 4382,
      "Ġconsidering": 4383,
      "Ġfibrosis": 4384,
      "Ġvalve": 4385,
      "Ġlea": 4386,
      "Ġspeedy": 4387,
      "Ġpicture": 4388,
      "ball": 4389,
      "Ġnail": 4390,
      "Ġliving": 4391,
      "Ġexer": 4392,
      "Ġcomfortable": 4393,
      "aps": 4394,
      "Ġminimal": 4395,
      "Ġnipp": 4396,
      "Ġmiscarriage": 4397,
      "Ġlosing": 4398,
      "Ġnearly": 4399,
      "Ġsweat": 4400,
      "Ġonline": 4401,
      "Ġmorph": 4402,
      "Ġsystemic": 4403,
      "mit": 4404,
      "Ġsuit": 4405,
      "Ġesophagus": 4406,
      "Ġsupportive": 4407,
      "dl": 4408,
      "aph": 4409,
      "Ġdetect": 4410,
      "Ġmalignant": 4411,
      "Ġwont": 4412,
      "Ġextracted": 4413,
      "Ġwearing": 4414,
      "Ġhank": 4415,
      "ran": 4416,
      "Ġhourly": 4417,
      "Ġeggs": 4418,
      "Ġcollar": 4419,
      "Ġpersonal": 4420,
      "autions": 4421,
      "Ġ.\"},": 4422,
      "Ġmix": 4423,
      "Ġ300": 4424,
      "Ġcarb": 4425,
      "ells": 4426,
      "Ġobvious": 4427,
      "Ġdamaged": 4428,
      "Ġfom": 4429,
      "Ġunderw": 4430,
      "heum": 4431,
      "Ġcleared": 4432,
      "Ġinvolvement": 4433,
      "Ġtac": 4434,
      "Ġ34": 4435,
      "Ġworrying": 4436,
      "Ġprecautions": 4437,
      "viron": 4438,
      "Ġwhats": 4439,
      "Ġcool": 4440,
      "Ġrupture": 4441,
      "Ġtenderness": 4442,
      "Ġways": 4443,
      "Ġmis": 4444,
      "Ġlimited": 4445,
      "Ġokay": 4446,
      "Ġoccasionally": 4447,
      "Ġ38": 4448,
      "Ġlipoma": 4449,
      "Ġfertile": 4450,
      "90": 4451,
      "Ġ*": 4452,
      "Ġquality": 4453,
      "ĠSP": 4454,
      "Ġmasturbate": 4455,
      "Ġcollection": 4456,
      "lox": 4457,
      "Ġsurvi": 4458,
      "Ġmethods": 4459,
      "blood": 4460,
      "ĠSO": 4461,
      "Ġcentral": 4462,
      "cardia": 4463,
      "Ġcrown": 4464,
      "Ġrarely": 4465,
      "Ġiv": 4466,
      "othing": 4467,
      "got": 4468,
      "when": 4469,
      "Ġemotion": 4470,
      "Ġign": 4471,
      "Ġspas": 4472,
      "Ġcoffee": 4473,
      "Ġepilep": 4474,
      "buterol": 4475,
      "Ġthats": 4476,
      "Ġsupposed": 4477,
      "Ġcomplication": 4478,
      "Ġaccompan": 4479,
      "well": 4480,
      "Ġla": 4481,
      "ĠNO": 4482,
      "Ġmouthwash": 4483,
      "Ġsinusitis": 4484,
      "Ġpleur": 4485,
      "Ġappendic": 4486,
      "ping": 4487,
      "Ġging": 4488,
      "Ġbony": 4489,
      "Ġenviron": 4490,
      "Ġmins": 4491,
      "Ġ2012": 4492,
      "Ġintestine": 4493,
      "ND": 4494,
      "Ġgirlf": 4495,
      "Ġinch": 4496,
      "Ġrelations": 4497,
      "Ġsocial": 4498,
      "Ġrole": 4499,
      "Ġach": 4500,
      "umption": 4501,
      "Ġtur": 4502,
      "oss": 4503,
      "ĠAT": 4504,
      "Ġadult": 4505,
      "orts": 4506,
      "Ġhyster": 4507,
      "Ġdecision": 4508,
      "Ġpush": 4509,
      "Ġplatelets": 4510,
      "Ġweights": 4511,
      "Ġstabil": 4512,
      "Ġqualified": 4513,
      "fast": 4514,
      "ming": 4515,
      "Ġspect": 4516,
      "Ġstressed": 4517,
      "Ġdecay": 4518,
      "Ġdeath": 4519,
      "Ġdegree": 4520,
      "Ġformed": 4521,
      "Ġaccur": 4522,
      "Ġglass": 4523,
      "Ġbare": 4524,
      "oxid": 4525,
      "tr": 4526,
      "Ġbus": 4527,
      "Ġrelaxation": 4528,
      "Ġcontraception": 4529,
      "rict": 4530,
      "Ġplanned": 4531,
      "Ġapproach": 4532,
      "AP": 4533,
      "ets": 4534,
      "Ġsci": 4535,
      "Ġovercome": 4536,
      "Ġgirlfriend": 4537,
      "hip": 4538,
      "ribut": 4539,
      "Ġbruised": 4540,
      "uly": 4541,
      "Ġmess": 4542,
      "Ġallergens": 4543,
      "Ġblue": 4544,
      "ronidazole": 4545,
      "cinoma": 4546,
      "Ġanesthesia": 4547,
      "Ġphase": 4548,
      "Ġperiodont": 4549,
      "ĠNSAID": 4550,
      "Ġoccurred": 4551,
      "while": 4552,
      "Ġpurp": 4553,
      "ipped": 4554,
      "Ġquant": 4555,
      "Ġmarriage": 4556,
      "OPD": 4557,
      "ugust": 4558,
      "Ġfomentation": 4559,
      "vation": 4560,
      "Ġborn": 4561,
      "Ġforehead": 4562,
      "Ġpancreas": 4563,
      "Ġknot": 4564,
      "Ġcontain": 4565,
      "Ġupload": 4566,
      "ĠNE": 4567,
      "Ġintern": 4568,
      "Ġcircum": 4569,
      "Ġsurface": 4570,
      "Ġcarry": 4571,
      ".(": 4572,
      "Ġstiffness": 4573,
      "Ġdiclofenac": 4574,
      "elled": 4575,
      "EST": 4576,
      "ĠDI": 4577,
      "izer": 4578,
      "Ġcompleted": 4579,
      "Ġmalignancy": 4580,
      "ĠQ": 4581,
      "Ġtelling": 4582,
      "Ġnights": 4583,
      "EM": 4584,
      "Th": 4585,
      "Ġregim": 4586,
      "Ġpercent": 4587,
      "Ġaffecting": 4588,
      "Ġcomment": 4589,
      "Ġtrem": 4590,
      "Ġpainless": 4591,
      "Ġreduction": 4592,
      "Ġlimbs": 4593,
      "Ġsuspected": 4594,
      "ĠARE": 4595,
      "Ġlateral": 4596,
      "Ġlymphoma": 4597,
      "urally": 4598,
      "ĠHIV": 4599,
      "ana": 4600,
      "Ġantidepress": 4601,
      "ĠPAIN": 4602,
      "times": 4603,
      "Ġspondyl": 4604,
      "Ġmechan": 4605,
      "Ġspectrum": 4606,
      "Ġlobe": 4607,
      "Ġdiscover": 4608,
      "Ġepid": 4609,
      "Ġrheum": 4610,
      "mpt": 4611,
      "Ġscreen": 4612,
      "ERY": 4613,
      "Ġenvironment": 4614,
      "lored": 4615,
      "Ġmanif": 4616,
      "Ġremedies": 4617,
      "Ġsource": 4618,
      "Ġopp": 4619,
      "Ġposterior": 4620,
      "ores": 4621,
      "Ġinterest": 4622,
      "RES": 4623,
      "Ġmetronidazole": 4624,
      "Ġvaric": 4625,
      "Ġunusual": 4626,
      "Ġsomewhat": 4627,
      "Ġimaging": 4628,
      "Ġ140": 4629,
      "Ġfollicular": 4630,
      "kast": 4631,
      "ocol": 4632,
      "Ġfacial": 4633,
      "80": 4634,
      "Ġhav": 4635,
      "ulating": 4636,
      "Ġmigraine": 4637,
      "body": 4638,
      "lusion": 4639,
      "Ġrot": 4640,
      "Ġblisters": 4641,
      "Ġbreasts": 4642,
      "Ġtesticle": 4643,
      "Ġlarger": 4644,
      "...\"}]}": 4645,
      "Ġlasts": 4646,
      "Ġclinically": 4647,
      "Ġpimple": 4648,
      "Ġappendicitis": 4649,
      "ĠWAS": 4650,
      "Ġhorrible": 4651,
      "have": 4652,
      "ĠTAK": 4653,
      "Ġalbuterol": 4654,
      "Ġtransf": 4655,
      "ĠDec": 4656,
      "Ġcontr": 4657,
      "Ġshower": 4658,
      "Ġgallst": 4659,
      "Ġprednis": 4660,
      "Ġsteam": 4661,
      "itu": 4662,
      "Ġaged": 4663,
      "Ġbrush": 4664,
      "sequ": 4665,
      "Ġtea": 4666,
      "iatic": 4667,
      "Ġexposed": 4668,
      "Ġaspirin": 4669,
      "Ġhu": 4670,
      "Ġapplying": 4671,
      "Ġspreading": 4672,
      "Ġparticularly": 4673,
      "Ġwet": 4674,
      "Ġcand": 4675,
      "ĠMR": 4676,
      "ĠCOPD": 4677,
      "Ġprotection": 4678,
      "Ġmucos": 4679,
      "allergic": 4680,
      "Ġlax": 4681,
      "Ġsprain": 4682,
      "Ġsimp": 4683,
      "ale": 4684,
      "wee": 4685,
      "Ġshin": 4686,
      "Ġvo": 4687,
      "Ġfalling": 4688,
      "OME": 4689,
      "rated": 4690,
      "cyst": 4691,
      "ICS": 4692,
      "Ġanus": 4693,
      "Ġdat": 4694,
      "%.": 4695,
      "elu": 4696,
      "Ġvertigo": 4697,
      "Ġinduced": 4698,
      "Ġactual": 4699,
      "rophy": 4700,
      "OULD": 4701,
      "cks": 4702,
      "Ġpun": 4703,
      "Ġasleep": 4704,
      "INE": 4705,
      "elukast": 4706,
      "Ġstuck": 4707,
      "Ġlas": 4708,
      "Ġpsychiatric": 4709,
      "osin": 4710,
      "Ġstrict": 4711,
      "Ġeventually": 4712,
      "ĠPRO": 4713,
      "Ġbadly": 4714,
      "Ġfunctioning": 4715,
      "Ġlocated": 4716,
      "Ġstabbing": 4717,
      "Ġbar": 4718,
      "Ġnaturally": 4719,
      "pain": 4720,
      "uls": 4721,
      "Ġconsultations": 4722,
      "Ġinjuries": 4723,
      "Ġpimples": 4724,
      "Ġlapa": 4725,
      "Ġbless": 4726,
      "Ġfigure": 4727,
      "Ġdiagnostic": 4728,
      "uming": 4729,
      "Ġchin": 4730,
      "Ġresearch": 4731,
      "Ġmeantime": 4732,
      "Ġsubstance": 4733,
      "onazole": 4734,
      "ĠUS": 4735,
      "Ġpremature": 4736,
      "Ġpant": 4737,
      "Ġdead": 4738,
      "Ġfiber": 4739,
      "Ġinhibit": 4740,
      "Ġproduction": 4741,
      "Ġestim": 4742,
      "Ġdied": 4743,
      "Ġscans": 4744,
      "Ġconcentration": 4745,
      "Ġconsumption": 4746,
      "ison": 4747,
      "Ġdifference": 4748,
      "ĠIF": 4749,
      "Ġphysically": 4750,
      "ervative": 4751,
      "bles": 4752,
      "gu": 4753,
      "ELP": 4754,
      "Ġureth": 4755,
      "Ġsatisfied": 4756,
      "Ġfight": 4757,
      "ĠALL": 4758,
      "Ġshock": 4759,
      "Ġabsolutely": 4760,
      "pril": 4761,
      "Ġtumors": 4762,
      "take": 4763,
      "Ġic": 4764,
      "eng": 4765,
      "Ġpay": 4766,
      "Ġuterine": 4767,
      "dose": 4768,
      "Ġfish": 4769,
      "oping": 4770,
      "Ġdiss": 4771,
      "Ġsurgeries": 4772,
      "RIN": 4773,
      "Ġdietary": 4774,
      "Sir": 4775,
      "vant": 4776,
      "Ġuric": 4777,
      "HIT": 4778,
      "Ġbrushing": 4779,
      "ĠJuly": 4780,
      "Ġtachy": 4781,
      "Ġwit": 4782,
      "active": 4783,
      "cep": 4784,
      "Ġaccompanied": 4785,
      "Ġisnt": 4786,
      "aded": 4787,
      "Ġ120": 4788,
      "Ġdisappear": 4789,
      "Ġnarrowing": 4790,
      "inner": 4791,
      "ened": 4792,
      "Ġonc": 4793,
      "acy": 4794,
      "ĠTSH": 4795,
      "Ġsolid": 4796,
      "50": 4797,
      "Ġease": 4798,
      "Ġeng": 4799,
      "Ġsmear": 4800,
      "Ġ2013": 4801,
      "Ġnurse": 4802,
      "Ġbabies": 4803,
      "Ġprolapse": 4804,
      "Ġthumb": 4805,
      "Ġshoulders": 4806,
      "ato": 4807,
      "Ġaccept": 4808,
      "iograph": 4809,
      "Ġfaster": 4810,
      "Ġnone": 4811,
      "oper": 4812,
      "Ġseason": 4813,
      "Ġcouldn": 4814,
      "Ġhypoth": 4815,
      "pass": 4816,
      "Ġresist": 4817,
      "Ġfertil": 4818,
      "Ġfinal": 4819,
      "Ġpuss": 4820,
      "anc": 4821,
      "aced": 4822,
      "ressive": 4823,
      "Ġwatery": 4824,
      "Ġcetirizine": 4825,
      "Ġaffects": 4826,
      "Ġarteries": 4827,
      "Ġspasms": 4828,
      "ĠHB": 4829,
      "Ġharmful": 4830,
      "Ġcalculus": 4831,
      "ĠFE": 4832,
      "100": 4833,
      "Ġundergoing": 4834,
      "ĠEEG": 4835,
      "Ġcleaned": 4836,
      "Ġconservative": 4837,
      "???\"},": 4838,
      "Ġanywhere": 4839,
      "Ġvertebra": 4840,
      "PHONE": 4841,
      "atures": 4842,
      "Ġthighs": 4843,
      "Ġlie": 4844,
      "NA": 4845,
      "cter": 4846,
      "cip": 4847,
      "Ġradiograph": 4848,
      "Ġexcision": 4849,
      "Ġleak": 4850,
      "ĠLE": 4851,
      "Ġsense": 4852,
      "Ġdro": 4853,
      "Ġstages": 4854,
      "Ġtrust": 4855,
      "%,": 4856,
      "oun": 4857,
      "Ġmri": 4858,
      "Ġsubsided": 4859,
      "Ġcounseling": 4860,
      "Ġsurrounding": 4861,
      "Ġshots": 4862,
      "Ġstretch": 4863,
      "Ġhives": 4864,
      "Ġsodium": 4865,
      "Ġlat": 4866,
      "Ġdiscontin": 4867,
      "ledge": 4868,
      "Ġmateri": 4869,
      "Ġrinses": 4870,
      "Ġobesity": 4871,
      "Ġrelationship": 4872,
      "Ġsided": 4873,
      "Ġlimit": 4874,
      "gy": 4875,
      "acity": 4876,
      "Ġchanging": 4877,
      "Ġpower": 4878,
      "ĠApril": 4879,
      "Ġbackache": 4880,
      "ĠSTD": 4881,
      "Ġstairs": 4882,
      "'ve": 4883,
      "Ġcre": 4884,
      "ilt": 4885,
      "unch": 4886,
      "ĠHELP": 4887,
      "entif": 4888,
      "Ġtachycardia": 4889,
      "Ġdepth": 4890,
      "night": 4891,
      "uled": 4892,
      "Ġect": 4893,
      "iotics": 4894,
      "Ġvisual": 4895,
      "Ġabsor": 4896,
      "ĠAC": 4897,
      "Ġsharing": 4898,
      "ination": 4899,
      "ĠCR": 4900,
      "Ġcolour": 4901,
      "ILL": 4902,
      "Ġdy": 4903,
      "oli": 4904,
      "Ġsciatic": 4905,
      "Ġ99": 4906,
      "Ġvisited": 4907,
      "Ġtummy": 4908,
      "lbs": 4909,
      "ĠĠĠ": 4910,
      "Ġrunny": 4911,
      "Ġobese": 4912,
      "XX": 4913,
      "Ġfried": 4914,
      "acer": 4915,
      "Ġflex": 4916,
      "Ġdiscol": 4917,
      "Ġincision": 4918,
      "ĠFeb": 4919,
      "Ġdouble": 4920,
      "go": 4921,
      "tia": 4922,
      "rogen": 4923,
      "Ġexha": 4924,
      "ĠSep": 4925,
      "Ġscratch": 4926,
      "Ġcos": 4927,
      "aling": 4928,
      "Ġintervention": 4929,
      "Ġspeak": 4930,
      "Ġposted": 4931,
      "Ġboil": 4932,
      "Ġclothes": 4933,
      "und": 4934,
      "ĠOct": 4935,
      "Ġparas": 4936,
      "Ġcereb": 4937,
      "Ġtonight": 4938,
      "spec": 4939,
      "Ġom": 4940,
      "PP": 4941,
      "eine": 4942,
      "Ġexa": 4943,
      "ophen": 4944,
      "Ġhearing": 4945,
      "ĠJune": 4946,
      "Ġcontrast": 4947,
      "Ġinhibitors": 4948,
      "40": 4949,
      "ication": 4950,
      "Ġsem": 4951,
      "Ġhardly": 4952,
      "Ġhanks": 4953,
      "Ġsup": 4954,
      "lol": 4955,
      "Ġcontroll": 4956,
      "Ġbeneficial": 4957,
      "Ġaccumulation": 4958,
      "iolytic": 4959,
      "Ġuncont": 4960,
      "Ġrepair": 4961,
      "Ġworsening": 4962,
      "Ġintermitt": 4963,
      "then": 4964,
      "Ġfav": 4965,
      "Ġrhin": 4966,
      "Ġ--": 4967,
      "Ġpoints": 4968,
      "Ġtransmitted": 4969,
      "Ġmetabolic": 4970,
      "Ġinterval": 4971,
      "ĠANY": 4972,
      "Ġurinate": 4973,
      "Ġpinched": 4974,
      "Ġdiscovered": 4975,
      "Ġhusbands": 4976,
      "ogram": 4977,
      "pre": 4978,
      "Ġaver": 4979,
      "Ġchlor": 4980,
      "60": 4981,
      "Ġmoth": 4982,
      "itary": 4983,
      "Ġanxiolytic": 4984,
      "Ġshooting": 4985,
      "gly": 4986,
      "Ġconv": 4987,
      "Ġended": 4988,
      "ENS": 4989,
      "Ġappearance": 4990,
      "ĠHAD": 4991,
      "Ġconcentrate": 4992,
      "bbing": 4993,
      "Ġknowledge": 4994,
      "Ġ52": 4995,
      "ups": 4996,
      "Ġreactive": 4997,
      "ĠPCR": 4998,
      "Ġbat": 4999,
      "anted": 5000,
      "erior": 5001,
      "Ġbites": 5002,
      "Ġpediatric": 5003,
      "Ġdinner": 5004,
      "aminophen": 5005,
      "13": 5006,
      "Ġmoney": 5007,
      "Ġpurple": 5008,
      "ophil": 5009,
      "ĠOC": 5010,
      "Ġskull": 5011,
      "ctomy": 5012,
      "Ġunbear": 5013,
      "encies": 5014,
      "Ġcirculation": 5015,
      "Ġepilepsy": 5016,
      "Ġfibr": 5017,
      "Ġbitten": 5018,
      "Ġrice": 5019,
      "Ġfeelings": 5020,
      "Ġtiredness": 5021,
      "Ġwar": 5022,
      "Ġmaximum": 5023,
      "Ġlearn": 5024,
      "ROM": 5025,
      "bility": 5026,
      "Ġsuccessful": 5027,
      "Ġswallowing": 5028,
      "Ġpreferably": 5029,
      "Ġconduction": 5030,
      "ton": 5031,
      "Ġfir": 5032,
      "also": 5033,
      "Ġchildhood": 5034,
      "Ġinhal": 5035,
      "ners": 5036,
      "Ġsleepy": 5037,
      "Ġtends": 5038,
      "ems": 5039,
      "ĠIU": 5040,
      "Ġblister": 5041,
      "ĠLFT": 5042,
      "Ġscheduled": 5043,
      "Ġroots": 5044,
      "Ġmot": 5045,
      "arch": 5046,
      "Ġultra": 5047,
      "Ġfruit": 5048,
      "Ġappendix": 5049,
      "Ġemotional": 5050,
      "Ġquantity": 5051,
      "Ġmam": 5052,
      "Ġreha": 5053,
      "gestive": 5054,
      "Ġreviewed": 5055,
      "Ġscientif": 5056,
      "Ġhuge": 5057,
      "Ġcarcinoma": 5058,
      "Ġurea": 5059,
      "Ġsimply": 5060,
      "Ġunbearable": 5061,
      "Ġrelaxants": 5062,
      "Ġoccasional": 5063,
      "Ġosteop": 5064,
      "Ġleng": 5065,
      "Ġhung": 5066,
      "ellent": 5067,
      "Ġtypical": 5068,
      "Ġlaying": 5069,
      "pm": 5070,
      "Ġaching": 5071,
      "Ġworld": 5072,
      "Ġshamp": 5073,
      "Ġgym": 5074,
      "Ġgargle": 5075,
      "pite": 5076,
      "Ġspi": 5077,
      "Ġspee": 5078,
      "Ġsocket": 5079,
      "Ġcort": 5080,
      "ongest": 5081,
      "Ġdefect": 5082,
      "olecyst": 5083,
      "Ġankles": 5084,
      "Ġsaliva": 5085,
      "Ġinsect": 5086,
      "Ġgra": 5087,
      "Ġthicken": 5088,
      "Ġsting": 5089,
      "Ġdie": 5090,
      "Ġproteins": 5091,
      "zema": 5092,
      "Ġbarely": 5093,
      "For": 5094,
      "asia": 5095,
      "Ġchewing": 5096,
      "Ġrheumat": 5097,
      "Ġrevert": 5098,
      "Ġeosin": 5099,
      "Ġscen": 5100,
      "nel": 5101,
      "Ġspecially": 5102,
      "Ġtrack": 5103,
      "Ġaddic": 5104,
      "Ġsized": 5105,
      "Ġrelative": 5106,
      "Ġpreviously": 5107,
      "Ġmontelukast": 5108,
      "Ġpiece": 5109,
      "Ġwasnt": 5110,
      "Ġgap": 5111,
      "vision": 5112,
      "umed": 5113,
      "ologram": 5114,
      "atives": 5115,
      "Ġenj": 5116,
      "Ġflut": 5117,
      "Ġcontinuously": 5118,
      "Ġconscious": 5119,
      "Ġpea": 5120,
      "Ġhologram": 5121,
      "intest": 5122,
      "Ġpartial": 5123,
      "istic": 5124,
      "Ġphen": 5125,
      "Ġoffer": 5126,
      "Ġcrazy": 5127,
      "Ġtesticles": 5128,
      "Ġoncologist": 5129,
      "Ġweather": 5130,
      "Ġoutput": 5131,
      "Ġprofessional": 5132,
      "Ġcandid": 5133,
      "ober": 5134,
      "Ġdecongest": 5135,
      "ĠGUI": 5136,
      "Ġmalaria": 5137,
      "algia": 5138,
      "Ġdig": 5139,
      "ĠMS": 5140,
      "Ġformula": 5141,
      "ĠRBC": 5142,
      "Ġinhibitor": 5143,
      "Ġspeech": 5144,
      "Ġequ": 5145,
      "ĠGO": 5146,
      "Ġmissing": 5147,
      "Ġwide": 5148,
      "Ġnebul": 5149,
      "Ġhasnt": 5150,
      "ticaria": 5151,
      "aneously": 5152,
      "rolled": 5153,
      "riction": 5154,
      "Ġfibroid": 5155,
      "Ġprogression": 5156,
      "erse": 5157,
      "oud": 5158,
      "Ġtraining": 5159,
      "Ġgrown": 5160,
      "Ġurinating": 5161,
      "ĠChatDoctorIn": 5162,
      "bac": 5163,
      "cope": 5164,
      "ady": 5165,
      "Ġblur": 5166,
      "iates": 5167,
      "Ġpleural": 5168,
      "Ġcit": 5169,
      "alin": 5170,
      "Ġworries": 5171,
      "ĠOK": 5172,
      "asma": 5173,
      "Ġland": 5174,
      "Ġlaw": 5175,
      "Ġrough": 5176,
      "oles": 5177,
      "Ġswim": 5178,
      "Ġuns": 5179,
      "ograph": 5180,
      "Ġacetaminophen": 5181,
      "Ġlength": 5182,
      "FF": 5183,
      "wor": 5184,
      "Ġfung": 5185,
      "Ġwhatever": 5186,
      "complete": 5187,
      "Ġprocedures": 5188,
      "intestinal": 5189,
      "Ġoverall": 5190,
      "Ġgargling": 5191,
      "Ġlact": 5192,
      "omas": 5193,
      "Ġwasn": 5194,
      "Ġexcellent": 5195,
      "Ġscenar": 5196,
      "bit": 5197,
      "ipe": 5198,
      "Ġbreakfast": 5199,
      "Ġresistance": 5200,
      "SO": 5201,
      "Ġinfective": 5202,
      "Ġobj": 5203,
      "Ġtendon": 5204,
      "vix": 5205,
      "Ġexample": 5206,
      "rim": 5207,
      "que": 5208,
      "Ġalternate": 5209,
      "eu": 5210,
      "gast": 5211,
      "itches": 5212,
      "Ġatte": 5213,
      "Ġgran": 5214,
      "Ġ=": 5215,
      "Ġfeatures": 5216,
      "Ġthrow": 5217,
      "Ġindication": 5218,
      "Ġclosed": 5219,
      "We": 5220,
      "Ġweekend": 5221,
      "Ġhypot": 5222,
      ")\"},": 5223,
      "Ġparamet": 5224,
      "Ġradiotherapy": 5225,
      "Ġstrongly": 5226,
      "Ġpancreat": 5227,
      "Ġexertion": 5228,
      "asone": 5229,
      "idal": 5230,
      "oprazole": 5231,
      "olid": 5232,
      "Ġbypass": 5233,
      "Ġ39": 5234,
      "Ġdisturbances": 5235,
      "itching": 5236,
      "ĠTM": 5237,
      "Ġenhan": 5238,
      "Ġpollen": 5239,
      "Ġeczema": 5240,
      "Ġnd": 5241,
      "Ġswell": 5242,
      "Ġaverage": 5243,
      "akes": 5244,
      "Ġbasically": 5245,
      "Ġsubstances": 5246,
      "Ġreleased": 5247,
      "rophic": 5248,
      "Ġvolume": 5249,
      "loxac": 5250,
      "burn": 5251,
      "Ġdot": 5252,
      "Ġcervix": 5253,
      "Ġdistress": 5254,
      "Ġcheeks": 5255,
      "Ġurticaria": 5256,
      "REAT": 5257,
      "Ġsubsides": 5258,
      "Ġbulging": 5259,
      "Ġdiscoloration": 5260,
      "Ġclo": 5261,
      "Ġ42": 5262,
      "Ġprotected": 5263,
      "Ġejaculate": 5264,
      "Ġinde": 5265,
      "Ġaden": 5266,
      "Ġsensations": 5267,
      "Ġangry": 5268,
      "Ġbesides": 5269,
      "Ġlining": 5270,
      "ieved": 5271,
      "ĠEX": 5272,
      "Ġrelieving": 5273,
      "surgeon": 5274,
      "But": 5275,
      "Ġwind": 5276,
      "Ġstated": 5277,
      "Ġurinal": 5278,
      "Ġruns": 5279,
      "vate": 5280,
      "erals": 5281,
      "Ġanterior": 5282,
      "Ġll": 5283,
      "Ġray": 5284,
      "Ġhasn": 5285,
      "Ġtestis": 5286,
      "opic": 5287,
      "Ġpurpose": 5288,
      "Ġpoison": 5289,
      "xture": 5290,
      "Ġforce": 5291,
      "Ġthrobbing": 5292,
      "Ġchar": 5293,
      "Ġneedles": 5294,
      "Ġagree": 5295,
      "Ġdemen": 5296,
      "Ġcogn": 5297,
      "Ġventric": 5298,
      "Ġstops": 5299,
      "Ġreactions": 5300,
      "Ġfairly": 5301,
      "Ġmaterial": 5302,
      "Ġpare": 5303,
      "Ġproceed": 5304,
      "Ġcurable": 5305,
      "Ġheaviness": 5306,
      "TC": 5307,
      "cted": 5308,
      "Ġsumm": 5309,
      "Ġsports": 5310,
      "Ġheaded": 5311,
      "Ġready": 5312,
      "Ġvari": 5313,
      "Ġanger": 5314,
      "Jay": 5315,
      "gic": 5316,
      "Ġdrops": 5317,
      "ternal": 5318,
      "Ġsynd": 5319,
      "Ġcapacity": 5320,
      "Ġstructures": 5321,
      "Ġmillion": 5322,
      "Ġsurvival": 5323,
      "Regards": 5324,
      "bers": 5325,
      "Ġeffusion": 5326,
      "Ġsituations": 5327,
      "Ġmetabolism": 5328,
      "Ġschedule": 5329,
      "urg": 5330,
      "Ġpreventing": 5331,
      "Ġorganism": 5332,
      "Ġsunsc": 5333,
      "Ġdementia": 5334,
      "abl": 5335,
      "Ġswab": 5336,
      "Ġmarks": 5337,
      "Ġlocally": 5338,
      "Ġfrust": 5339,
      "Ġfibro": 5340,
      "Ġbalanced": 5341,
      "Ġtonsils": 5342,
      "ocks": 5343,
      "ĠRegards": 5344,
      "ocytes": 5345,
      "Ġscenario": 5346,
      "itus": 5347,
      "tid": 5348,
      "ulmon": 5349,
      "ught": 5350,
      "Ġassessed": 5351,
      "Ġfetus": 5352,
      "Ġpancreatitis": 5353,
      "aks": 5354,
      "Ġuser": 5355,
      "itic": 5356,
      "Ġpromin": 5357,
      "ELL": 5358,
      "Your": 5359,
      "Ġfeb": 5360,
      "Ġagents": 5361,
      "Ġbright": 5362,
      "Ġ95": 5363,
      "Ġpersonality": 5364,
      "fectious": 5365,
      "that": 5366,
      "umin": 5367,
      "Ġwords": 5368,
      "Ġsurgically": 5369,
      "Ġcancerous": 5370,
      "ĠGET": 5371,
      "fortun": 5372,
      "Ġhips": 5373,
      "Ġsweats": 5374,
      "Ġfeedback": 5375,
      "Ġadmin": 5376,
      "ĠSE": 5377,
      "Ġtouching": 5378,
      "Ġcharacter": 5379,
      "Ġpigmentation": 5380,
      "aus": 5381,
      "ishing": 5382,
      "ĠMarch": 5383,
      "Ġmotions": 5384,
      "Ġtechnique": 5385,
      "osterone": 5386,
      "legm": 5387,
      "Ġknowing": 5388,
      "Ġdevelops": 5389,
      "Ġgallstones": 5390,
      "bacco": 5391,
      "You": 5392,
      "Ġpuff": 5393,
      "ctu": 5394,
      "Ġshift": 5395,
      "there": 5396,
      "Ġintestines": 5397,
      "gpt": 5398,
      "Ġreturned": 5399,
      "Ġreass": 5400,
      "Ġ54": 5401,
      "Ġcheckup": 5402,
      "plasia": 5403,
      "So": 5404,
      "Ġaer": 5405,
      "Ġbear": 5406,
      "Ġspo": 5407,
      "ĠYEAR": 5408,
      "oar": 5409,
      "Ġstressor": 5410,
      "ĠRA": 5411,
      "LEASE": 5412,
      "Ġplaces": 5413,
      "Ġaz": 5414,
      "usions": 5415,
      "ĠDAY": 5416,
      "ĠĠĠĠĠĠĠĠĠĠĠĠĠĠĠĠĠĠĠĠĠĠĠĠĠĠĠĠĠĠĠĠ": 5417,
      "Ġaccurate": 5418,
      "Ġshampoo": 5419,
      "ĠChatDoctorInfectious": 5420,
      "Ġcertainly": 5421,
      "Ġgastrointestinal": 5422,
      "Ġrecovered": 5423,
      "Ġstructure": 5424,
      "Ġfetal": 5425,
      "Ġexist": 5426,
      "Ġcholecyst": 5427,
      "Ġsad": 5428,
      "rection": 5429,
      "Ġvary": 5430,
      "ĠHAS": 5431,
      "Ġload": 5432,
      "Ġfaint": 5433,
      "KE": 5434,
      "ĠOf": 5435,
      "related": 5436,
      "Ġcalor": 5437,
      "Ġdespite": 5438,
      "fib": 5439,
      "Ġmach": 5440,
      "Ġast": 5441,
      "ĠSGOT": 5442,
      "Ġapproxim": 5443,
      "Ġfluctu": 5444,
      "Ġkinda": 5445,
      "Ġelimin": 5446,
      "Ġtouched": 5447,
      "Ġangiography": 5448,
      "Ġmoistur": 5449,
      "occ": 5450,
      "Ġlympha": 5451,
      "Ġabsence": 5452,
      "Ġsinuses": 5453,
      "Ġ250": 5454,
      "Ġzinc": 5455,
      "son": 5456,
      "Ġcaff": 5457,
      "????": 5458,
      "Ġacting": 5459,
      "Ġphlegm": 5460,
      "Ġdeny": 5461,
      "Ġperiodontal": 5462,
      "nea": 5463,
      "Ġsupervision": 5464,
      "specific": 5465,
      "Ġinhalers": 5466,
      "ulmonary": 5467,
      "ĠRI": 5468,
      "Ġinfo": 5469,
      "Ġconceiving": 5470,
      "azep": 5471,
      "romyalgia": 5472,
      "Ġsunscreen": 5473,
      "Ġnutritional": 5474,
      "Ġechocard": 5475,
      "Ġurinalysis": 5476,
      "MS": 5477,
      "UB": 5478,
      "Ġbub": 5479,
      "Ġfist": 5480,
      "ushed": 5481,
      "Ġforms": 5482,
      "Ġmoves": 5483,
      "Ġbedtime": 5484,
      "Ġhypothyroidism": 5485,
      "Ġmothers": 5486,
      "KS": 5487,
      "Ġbip": 5488,
      "ached": 5489,
      "Ġ53": 5490,
      "ĠLy": 5491,
      "Ġlup": 5492,
      "Ġminerals": 5493,
      "Ġshaking": 5494,
      "Ġprotect": 5495,
      "ogenic": 5496,
      "Ġlaboratory": 5497,
      "Ġvoice": 5498,
      "IA": 5499,
      "Ġlighthe": 5500,
      "Ġpantoprazole": 5501,
      "Ġplain": 5502,
      "Ġfailed": 5503,
      "Ġhysterectomy": 5504,
      "Hallow": 5505,
      "Ġdest": 5506,
      "Ġnum": 5507,
      "ĠTENS": 5508,
      "Ġenjoy": 5509,
      "UN": 5510,
      "vices": 5511,
      "imal": 5512,
      "Ġspells": 5513,
      "Ġincident": 5514,
      "emic": 5515,
      "Ġbreastfe": 5516,
      "Ġdealing": 5517,
      "Ġrelevant": 5518,
      "PV": 5519,
      "cod": 5520,
      "kn": 5521,
      "Ġassume": 5522,
      "Ġthickness": 5523,
      "aken": 5524,
      "Ġjump": 5525,
      "Ġrhinitis": 5526,
      "Ġtobacco": 5527,
      "omen": 5528,
      "cture": 5529,
      "Ġbloated": 5530,
      "ucid": 5531,
      "Ġherniation": 5532,
      "isms": 5533,
      "Ġclim": 5534,
      "Ġplasma": 5535,
      "ART": 5536,
      "Ġhemorrha": 5537,
      "Ġdiure": 5538,
      "Ġdefinitive": 5539,
      "opathic": 5540,
      "oler": 5541,
      "Ġantibodies": 5542,
      "Ġraise": 5543,
      "atin": 5544,
      "Ġanytime": 5545,
      "rib": 5546,
      "Ġsuppose": 5547,
      "ERE": 5548,
      "vascular": 5549,
      "Ġtall": 5550,
      "till": 5551,
      "omeg": 5552,
      "Ġagent": 5553,
      "Ġmucosa": 5554,
      "hene": 5555,
      "Ġstrep": 5556,
      "Ġstrengthen": 5557,
      "acing": 5558,
      "Ġ58": 5559,
      "Ġconfidence": 5560,
      "Ġirritated": 5561,
      "Ġnipple": 5562,
      "Ġsyndrom": 5563,
      "MENT": 5564,
      "Ġpace": 5565,
      "Ġminimum": 5566,
      "Ġischemic": 5567,
      "Ġdata": 5568,
      "Ġcot": 5569,
      "ths": 5570,
      "Ġspin": 5571,
      "Ġunderstanding": 5572,
      "Ġunfortun": 5573,
      "ĠFROM": 5574,
      "Ġoccurring": 5575,
      "Ġnodule": 5576,
      "Ġservice": 5577,
      "Ġgreatly": 5578,
      "inter": 5579,
      "Ġamong": 5580,
      "rier": 5581,
      "Ġsepar": 5582,
      "Ġexcluded": 5583,
      "Ġspont": 5584,
      "Ġconsume": 5585,
      "Ġsurely": 5586,
      "Ġpolyp": 5587,
      "Yes": 5588,
      "Ġens": 5589,
      "neath": 5590,
      "Ġestimation": 5591,
      "Ġomep": 5592,
      "bid": 5593,
      "iling": 5594,
      "Ġherbal": 5595,
      "Ġblade": 5596,
      "Ġroof": 5597,
      "Ġ2009": 5598,
      "Ġtransfusion": 5599,
      "usive": 5600,
      "Ġelevation": 5601,
      "Ġparameters": 5602,
      "Ġcystic": 5603,
      "Ġvertebral": 5604,
      "Ġattending": 5605,
      "Ġfibromyalgia": 5606,
      "Ġtwist": 5607,
      "TIC": 5608,
      "ANT": 5609,
      "Ġcapsule": 5610,
      "lasty": 5611,
      "Ġlaser": 5612,
      "Ġlightheaded": 5613,
      "light": 5614,
      "Ġsle": 5615,
      "Ġshing": 5616,
      "Ġ56": 5617,
      "Ġcolored": 5618,
      "Ġpractic": 5619,
      "Ġpancreatic": 5620,
      "ĠSHE": 5621,
      "mand": 5622,
      "Ġorally": 5623,
      "hypert": 5624,
      "Ġapparent": 5625,
      "Ġchi": 5626,
      "Ġgastroesophageal": 5627,
      "Ġuncle": 5628,
      "Ġfavor": 5629,
      "Ġflutter": 5630,
      "ask": 5631,
      "Ġability": 5632,
      "Ġdiscs": 5633,
      "Ġmenop": 5634,
      "Ġradiates": 5635,
      "Ġmenstruation": 5636,
      "bling": 5637,
      "Ġ102": 5638,
      "ĠGOT": 5639,
      "Ġwaking": 5640,
      "they": 5641,
      "Ġmarkers": 5642,
      "Ġestabl": 5643,
      "Ġsgpt": 5644,
      "Ġheel": 5645,
      "illary": 5646,
      "ades": 5647,
      "Ġunderneath": 5648,
      "Ġremoving": 5649,
      "Ġindicative": 5650,
      "exp": 5651,
      "ering": 5652,
      "Ġtit": 5653,
      "Ġcig": 5654,
      "Ġcrit": 5655,
      "ese": 5656,
      "urs": 5657,
      "Ġreported": 5658,
      "loxacin": 5659,
      "has": 5660,
      "ĠIBS": 5661,
      "actin": 5662,
      "Ġdifferenti": 5663,
      "pls": 5664,
      "Ġlethar": 5665,
      "Ġinvolving": 5666,
      "Ġrevealed": 5667,
      "ĠRegardsJay": 5668,
      "24": 5669,
      "ock": 5670,
      "Ġcore": 5671,
      "ĠMED": 5672,
      "Ġadverse": 5673,
      "Ġcorticosteroids": 5674,
      "Ġbeating": 5675,
      "Ġsuic": 5676,
      "Ġstrugg": 5677,
      "Ġcorrection": 5678,
      "Ġbag": 5679,
      "Ġlemon": 5680,
      "olone": 5681,
      "Ġelectrolyte": 5682,
      "Ġbronchodilator": 5683,
      "Ġconnected": 5684,
      "Ġbandage": 5685,
      "oul": 5686,
      "Ġdisk": 5687,
      "Ġjud": 5688,
      "Ġcolitis": 5689,
      "Ġrisks": 5690,
      "Ġpol": 5691,
      "Ġgre": 5692,
      "Ġbrought": 5693,
      "Ġneurot": 5694,
      "Ġexplained": 5695,
      "Ġfusion": 5696,
      "Ġanyway": 5697,
      "Ġbraces": 5698,
      "ĠNOW": 5699,
      "Ġlocalized": 5700,
      "ĠWHAT": 5701,
      "Ġafford": 5702,
      "Ġtestosterone": 5703,
      "Ġcompared": 5704,
      "ences": 5705,
      "Ġimplantation": 5706,
      "mill": 5707,
      "ield": 5708,
      "Ġtheres": 5709,
      "Ġmeaning": 5710,
      "Ġmasturbating": 5711,
      "Ġterms": 5712,
      "Ġhypotension": 5713,
      "Ġbipolar": 5714,
      "UE": 5715,
      "isone": 5716,
      "Ġdirection": 5717,
      "Ġphosp": 5718,
      ")-": 5719,
      "BLE": 5720,
      "Ġsearch": 5721,
      "asive": 5722,
      "Ġsept": 5723,
      "Ġdirected": 5724,
      "Ġreduces": 5725,
      "Ġfirm": 5726,
      "Ġunw": 5727,
      "Ġunnec": 5728,
      "Ġenzyme": 5729,
      "Ġbug": 5730,
      "Ġprednisone": 5731,
      "Ġintensity": 5732,
      "harm": 5733,
      "Ġcomplains": 5734,
      "Ġcontinuing": 5735,
      "Ġaltered": 5736,
      "Ġcognitive": 5737,
      "Ġshingles": 5738,
      "Ġbever": 5739,
      "Ġencour": 5740,
      "Ġurethra": 5741,
      "Ġomeprazole": 5742,
      "LA": 5743,
      "Ġexternal": 5744,
      "ĠPUT": 5745,
      "!!!!": 5746,
      "romycin": 5747,
      "cut": 5748,
      "since": 5749,
      "thank": 5750,
      "Ġportion": 5751,
      "Ġmening": 5752,
      "Ġpoll": 5753,
      "Ġclearly": 5754,
      "Ġtips": 5755,
      "CVTS": 5756,
      "Ġintermittent": 5757,
      "Ġsyndrome": 5758,
      "Ġunnecess": 5759,
      "Ġatri": 5760,
      "Ġoutcome": 5761,
      "Ġmotile": 5762,
      "Ġneurosurgeon": 5763,
      "HD": 5764,
      "URE": 5765,
      "Ġ43": 5766,
      "ritious": 5767,
      "ESS": 5768,
      "Ġtoxic": 5769,
      "Ġpet": 5770,
      "ĠDR": 5771,
      "Ġtabs": 5772,
      "ĠAugust": 5773,
      "Ġcomments": 5774,
      "Ġrequirement": 5775,
      "tention": 5776,
      "AND": 5777,
      "Ġprick": 5778,
      "Ġdecreases": 5779,
      "Ġruptured": 5780,
      "Ġmetastasis": 5781,
      "Ġmixed": 5782,
      "reatening": 5783,
      "roma": 5784,
      "abalin": 5785,
      "Ġscaling": 5786,
      "Ġresistant": 5787,
      "Ġelucid": 5788,
      "Ġeosinophil": 5789,
      "iol": 5790,
      "Ġalb": 5791,
      "Ġweekly": 5792,
      "Ġhospitalized": 5793,
      "Ġdeficiencies": 5794,
      "Ġnutritious": 5795,
      "Ġintoler": 5796,
      "Ġremaining": 5797,
      "regards": 5798,
      "Ġcorrected": 5799,
      "ĠAR": 5800,
      "Ġcontag": 5801,
      "OTH": 5802,
      "Ġcapsules": 5803,
      "Ġvenous": 5804,
      "ĠNSAIDs": 5805,
      "Ġectopic": 5806,
      "Ġcop": 5807,
      "Ġann": 5808,
      "Ġmos": 5809,
      "Ġquote": 5810,
      "Ġsons": 5811,
      "Ġbottle": 5812,
      "Ġaggressive": 5813,
      ".?": 5814,
      "ĠIM": 5815,
      "Ġworth": 5816,
      "Ġ47": 5817,
      "Ġheartbe": 5818,
      "ĠPSA": 5819,
      "ACK": 5820,
      "Ġcreate": 5821,
      "Ġchair": 5822,
      "Ġnephrologist": 5823,
      "Ġfungus": 5824,
      "Ġlupus": 5825,
      "Ġretain": 5826,
      "Ġasy": 5827,
      "Ġdepressive": 5828,
      "Ġscreening": 5829,
      "omatic": 5830,
      "odic": 5831,
      "ORM": 5832,
      "Ġpins": 5833,
      "Ġpeptic": 5834,
      "Ġnauseous": 5835,
      "Ġairways": 5836,
      "Ġfixed": 5837,
      "formin": 5838,
      "Ġvaccination": 5839,
      "etine": 5840,
      "opl": 5841,
      "Ġwaist": 5842,
      "Ġscars": 5843,
      "As": 5844,
      "Ġalk": 5845,
      "Ġfollowup": 5846,
      "Ġheavyweight": 5847,
      "Ġherniated": 5848,
      "rusion": 5849,
      "ĠSS": 5850,
      "Ġmold": 5851,
      "Ġpersons": 5852,
      "Ġtriggered": 5853,
      "Ġborder": 5854,
      "Ġhall": 5855,
      "Ġkit": 5856,
      "Ġcommun": 5857,
      "ATE": 5858,
      "Ġangina": 5859,
      "Ġordered": 5860,
      "Ġexcessively": 5861,
      "--------": 5862,
      "aired": 5863,
      "num": 5864,
      "Ġpacks": 5865,
      "ĠSC": 5866,
      "Ġprolactin": 5867,
      "Ġpreparation": 5868,
      "Ġcontrolling": 5869,
      "Ġwise": 5870,
      "Ġjan": 5871,
      "Ġ62": 5872,
      "itted": 5873,
      "OC": 5874,
      "ties": 5875,
      "ĠTIM": 5876,
      "ĠSOME": 5877,
      "Ġadvanced": 5878,
      "Ġolder": 5879,
      "Ġguided": 5880,
      "VT": 5881,
      "Ġangi": 5882,
      "Ġthru": 5883,
      "Ġexercising": 5884,
      "Ġparan": 5885,
      "plz": 5886,
      "Ġobstructive": 5887,
      "viral": 5888,
      "isy": 5889,
      "Ġdu": 5890,
      "itting": 5891,
      "ley": 5892,
      "Ġshouldn": 5893,
      "Ġeveryone": 5894,
      "igestion": 5895,
      "Ġvisiting": 5896,
      "Ġtubal": 5897,
      "Ġsugars": 5898,
      "Ġimpacted": 5899,
      "Ġport": 5900,
      "Ġsuc": 5901,
      "Ġdiver": 5902,
      "oked": 5903,
      "Ġaggravate": 5904,
      "Ġcontagious": 5905,
      "70": 5906,
      "Ive": 5907,
      "RA": 5908,
      "pulmonary": 5909,
      "Ġmagn": 5910,
      "Ġwhic": 5911,
      "usted": 5912,
      "Ġswimming": 5913,
      "acral": 5914,
      "Ġreprod": 5915,
      "ocele": 5916,
      "weeks": 5917,
      "EP": 5918,
      "rine": 5919,
      "Ġery": 5920,
      "Ġtb": 5921,
      "ĠMG": 5922,
      "ĠPCs": 5923,
      "AA": 5924,
      "Ġtoot": 5925,
      "Ġconfusion": 5926,
      "Ġemail": 5927,
      "Ġ2014": 5928,
      "Ġembry": 5929,
      "hile": 5930,
      "ĠAF": 5931,
      "uscular": 5932,
      "Ġ101": 5933,
      "Ġshare": 5934,
      "Ġamounts": 5935,
      "Ġpregabalin": 5936,
      "GI": 5937,
      "logy": 5938,
      "Ġexplan": 5939,
      "Ġfunctional": 5940,
      "Ġstronger": 5941,
      "CTOR": 5942,
      "Ġapproximately": 5943,
      "oplasty": 5944,
      "ĠBM": 5945,
      "tember": 5946,
      "Ġsuppress": 5947,
      "Ġrecurring": 5948,
      "Ġliquids": 5949,
      "Ġhuman": 5950,
      "Ġphotograph": 5951,
      "Ġ>": 5952,
      "anti": 5953,
      "Ġdrain": 5954,
      "Ġtendency": 5955,
      "Ġinvolves": 5956,
      "Ġtet": 5957,
      "Ġmad": 5958,
      "esp": 5959,
      "Ġforamin": 5960,
      "Ġsphin": 5961,
      "Ġpla": 5962,
      "Ġendoc": 5963,
      "Ġphenomen": 5964,
      "ju": 5965,
      "Ġalcoholic": 5966,
      "Ġinserted": 5967,
      "Ġay": 5968,
      "Ġsch": 5969,
      "Ġmand": 5970,
      "Ġouter": 5971,
      "Ġcontent": 5972,
      "Ġscab": 5973,
      "Ġ44": 5974,
      "ĠPP": 5975,
      "Ġgeneralized": 5976,
      "known": 5977,
      "How": 5978,
      "gging": 5979,
      "Ġscanning": 5980,
      "Ġburst": 5981,
      "Ġmainten": 5982,
      "Ġfalse": 5983,
      "Ġunderwent": 5984,
      "Ġban": 5985,
      "arin": 5986,
      "loc": 5987,
      "should": 5988,
      "Ġsettle": 5989,
      "Ġsalivary": 5990,
      "col": 5991,
      "uk": 5992,
      "haps": 5993,
      "Ġlady": 5994,
      "cystic": 5995,
      "Ġ41": 5996,
      "icious": 5997,
      "Ġmetal": 5998,
      "Ġfalls": 5999,
      "Ġcovered": 6000,
      "Ġpale": 6001,
      "Ġignore": 6002,
      "Ġregimen": 6003,
      "gastro": 6004,
      "Ġvia": 6005,
      "Ġindigestion": 6006,
      "Ġeaten": 6007,
      "operative": 6008,
      "even": 6009,
      "vag": 6010,
      "Ġid": 6011,
      "Ġunt": 6012,
      "ĠMO": 6013,
      "iciency": 6014,
      "ifications": 6015,
      "aret": 6016,
      "Ġflare": 6017,
      "Ġpersisting": 6018,
      "ructions": 6019,
      "Ġspondylosis": 6020,
      "Ġnumerous": 6021,
      "ode": 6022,
      "Ġves": 6023,
      "ĠWE": 6024,
      "Ġobserved": 6025,
      "Ġturning": 6026,
      "Ġdissol": 6027,
      "Ġmaintenance": 6028,
      "ext": 6029,
      "Ġwart": 6030,
      "Ġmir": 6031,
      "adol": 6032,
      "ticasone": 6033,
      "Ġseven": 6034,
      "ĠMON": 6035,
      "Ġswitch": 6036,
      "Ġhairs": 6037,
      "Ġinstructions": 6038,
      "IGHT": 6039,
      "pr": 6040,
      "urved": 6041,
      "Ġcongen": 6042,
      "ĠDIS": 6043,
      "Ġshes": 6044,
      "Ġblow": 6045,
      "ĠTHAN": 6046,
      "Ġbeverages": 6047,
      "What": 6048,
      "rical": 6049,
      "Ġsust": 6050,
      "Ġcross": 6051,
      "had": 6052,
      "Ġstitches": 6053,
      "ames": 6054,
      "Ġobtain": 6055,
      "Ġbuttocks": 6056,
      "Ġprophyl": 6057,
      "Ġmorphology": 6058,
      "ĠDecember": 6059,
      "Do": 6060,
      "Ġfun": 6061,
      "Ġswelled": 6062,
      "Ġmembers": 6063,
      "Ġrehabil": 6064,
      "Ġtho": 6065,
      "ĠVERY": 6066,
      "Ġliter": 6067,
      "Ġcaffeine": 6068,
      "Ġsection": 6069,
      "Ġgar": 6070,
      "Ġtreatable": 6071,
      "Ġheals": 6072,
      "ucle": 6073,
      "Ġindividuals": 6074,
      "Ġcotton": 6075,
      "Ġneurotrophic": 6076,
      "Ġanno": 6077,
      "term": 6078,
      "Ġasthmatic": 6079,
      "Ġexpectancy": 6080,
      "ributed": 6081,
      "Ġmachine": 6082,
      "hypertensive": 6083,
      "==": 6084,
      "iary": 6085,
      "Ġdim": 6086,
      "Ġ46": 6087,
      "Ġinsuff": 6088,
      "ovember": 6089,
      "Ġgenitals": 6090,
      "ukemia": 6091,
      "ĠOctober": 6092,
      "da": 6093,
      "from": 6094,
      "here": 6095,
      "Ġmine": 6096,
      "Ġcomputer": 6097,
      "Ġ57": 6098,
      "Ġboost": 6099,
      "Ġcosme": 6100,
      "Ġuncontrolled": 6101,
      "Ġsphincter": 6102,
      "Ġsil": 6103,
      "Ġgod": 6104,
      "Ġwashing": 6105,
      "Ġclos": 6106,
      "Ġoptim": 6107,
      "Ġinformative": 6108,
      "Ġmarch": 6109,
      "Ġdisturbed": 6110,
      "Ġrectal": 6111,
      "ĠOCD": 6112,
      "Ġelucidated": 6113,
      "bc": 6114,
      "resp": 6115,
      "ĠII": 6116,
      "osacral": 6117,
      "Ġmeasuring": 6118,
      "Ġburns": 6119,
      "Ġperfectly": 6120,
      "Ġparen": 6121,
      "iating": 6122,
      "Ġaug": 6123,
      "isk": 6124,
      "Ġquar": 6125,
      "umes": 6126,
      "Ġveg": 6127,
      "Ġovum": 6128,
      "Ġconclusion": 6129,
      "Ġsuitable": 6130,
      "ĠCRP": 6131,
      "Doctor": 6132,
      "Ġretention": 6133,
      "Ġitches": 6134,
      "Ġprep": 6135,
      "Ġket": 6136,
      "Ġreceive": 6137,
      "Ġunwanted": 6138,
      "ella": 6139,
      "Ġvital": 6140,
      "Ġmildly": 6141,
      "Ġmeanwhile": 6142,
      "Ġtransfer": 6143,
      "Ġodd": 6144,
      "Ġtremors": 6145,
      "ĠIC": 6146,
      "Ġgon": 6147,
      "idine": 6148,
      "thy": 6149,
      "Ġturns": 6150,
      "hel": 6151,
      "Ġlunch": 6152,
      "ĠTEST": 6153,
      "Ġbrace": 6154,
      "ĠNovember": 6155,
      "Ġstressful": 6156,
      "Ġmucous": 6157,
      "Ġendometrial": 6158,
      "acerb": 6159,
      "Ġum": 6160,
      "Ġmetformin": 6161,
      "Ġsatur": 6162,
      "Ġprominent": 6163,
      "AIL": 6164,
      "mission": 6165,
      "Ġcausative": 6166,
      "Ġground": 6167,
      "Ġcountry": 6168,
      "Ġhepatic": 6169,
      "Ġlumbosacral": 6170,
      "ient": 6171,
      "ĠWOR": 6172,
      "Ġcatch": 6173,
      "work": 6174,
      "Ġiniti": 6175,
      "umn": 6176,
      "Ġantibody": 6177,
      "axis": 6178,
      "infection": 6179,
      "Ġ.....": 6180,
      "Ġadequately": 6181,
      "ĠDOCTOR": 6182,
      "eutic": 6183,
      "Ġcongenital": 6184,
      "Ġnap": 6185,
      "Ġyours": 6186,
      "Ġexacerb": 6187,
      "ĠCOM": 6188,
      "Ġseriously": 6189,
      "ectile": 6190,
      "ĠSSRI": 6191,
      "rest": 6192,
      "acic": 6193,
      "TIVE": 6194,
      "upp": 6195,
      "Ġpasses": 6196,
      "Ġpleas": 6197,
      "Ġyellowish": 6198,
      "Ġobservation": 6199,
      "ChatDoctore": 6200,
      "Ġol": 6201,
      "ateg": 6202,
      "Ġheartburn": 6203,
      "Ġopt": 6204,
      "Ġpostures": 6205,
      "Ġglans": 6206,
      "Ġgastroenteritis": 6207,
      "Ġproduced": 6208,
      "Ġkgs": 6209,
      "Ġ85": 6210,
      "Ġstudent": 6211,
      "Ġstandard": 6212,
      "Ġrectum": 6213,
      "kind": 6214,
      "Ġalt": 6215,
      "Ġsuggesting": 6216,
      "cocc": 6217,
      "Ġconceived": 6218,
      "Ġdengue": 6219,
      "Ġantidepressant": 6220,
      "Ġane": 6221,
      "lerosis": 6222,
      "Ġ130": 6223,
      "Ġmechanism": 6224,
      "ener": 6225,
      "Ġsecretion": 6226,
      "Ġensure": 6227,
      "**": 6228,
      "sing": 6229,
      "Ġmist": 6230,
      "Ġantihypertensive": 6231,
      "Ġurge": 6232,
      "Ġdonor": 6233,
      "lopian": 6234,
      "Ġpresentation": 6235,
      "Ġdecreasing": 6236,
      "Ġestrogen": 6237,
      "Ġhoney": 6238,
      "Ġleukemia": 6239,
      "Ġsep": 6240,
      "Ġrecord": 6241,
      "Ġpox": 6242,
      "Ġextension": 6243,
      "Ġfermentation": 6244,
      "Ġont": 6245,
      "ids": 6246,
      "Ġairway": 6247,
      "ĠALSO": 6248,
      "USE": 6249,
      "Ġbothering": 6250,
      "Ġfertilization": 6251,
      "aution": 6252,
      "met": 6253,
      "pos": 6254,
      "Ġ;": 6255,
      "Ġbt": 6256,
      "Ġprevention": 6257,
      "Ġperit": 6258,
      "Ġresulted": 6259,
      "Ġsternum": 6260,
      "Ġservices": 6261,
      "CA": 6262,
      "Ġere": 6263,
      "Ġthrowing": 6264,
      "Ġfluc": 6265,
      "Ġspeaking": 6266,
      "Ġdrinks": 6267,
      "GT": 6268,
      "Ġsul": 6269,
      "Ġgent": 6270,
      "Ġsmooth": 6271,
      "FTER": 6272,
      "Ġclotting": 6273,
      "Ġmanifest": 6274,
      "Ġsciatica": 6275,
      "Ġhungry": 6276,
      "Ġantioxid": 6277,
      "Ġcompon": 6278,
      "Ġperhaps": 6279,
      ".......": 6280,
      "Ġidentified": 6281,
      "Ġpeeling": 6282,
      "Ġrehabilitation": 6283,
      "Ġtor": 6284,
      "Ġpharm": 6285,
      "Ġsafer": 6286,
      "Ġpulling": 6287,
      "His": 6288,
      "hache": 6289,
      "Ġeld": 6290,
      "thritis": 6291,
      "Ġstable": 6292,
      "Ġconcerning": 6293,
      "Ġ63": 6294,
      "Ġtrim": 6295,
      "Ġpoop": 6296,
      "Ġshaft": 6297,
      "ĠFSH": 6298,
      "Ġeats": 6299,
      "IDE": 6300,
      "may": 6301,
      "warm": 6302,
      "Ġguy": 6303,
      "ulties": 6304,
      "Ġtroubles": 6305,
      "Ġpillows": 6306,
      "Ġfallopian": 6307,
      "going": 6308,
      "'ll": 6309,
      "Ġ!!": 6310,
      "uria": 6311,
      "mptomatic": 6312,
      "Ġ51": 6313,
      "Ġthickening": 6314,
      "Ġexplanation": 6315,
      "aline": 6316,
      "Ġgly": 6317,
      "Ġ49": 6318,
      "Ġsuffers": 6319,
      "'m": 6320,
      "ah": 6321,
      "Ġcancers": 6322,
      "Ġjer": 6323,
      "arest": 6324,
      "acterial": 6325,
      "Ġnoticeable": 6326,
      "azepam": 6327,
      "icking": 6328,
      "Ġeti": 6329,
      "Ġunknown": 6330,
      "Ġinduction": 6331,
      "Ġpulp": 6332,
      "Ġbehavioral": 6333,
      "Ġayurved": 6334,
      "Ġalle": 6335,
      "Ġcolumn": 6336,
      "Ġreadings": 6337,
      "LOOD": 6338,
      "ARD": 6339,
      "Ġpotential": 6340,
      "ĠLIKE": 6341,
      "CP": 6342,
      "hope": 6343,
      "adine": 6344,
      "Ġabst": 6345,
      "Ġcomprom": 6346,
      "Ġeverytime": 6347,
      "Ġinformed": 6348,
      "Ġmonit": 6349,
      "Ġlimits": 6350,
      "Ġgreater": 6351,
      "ĠADHD": 6352,
      "Ġthrombosis": 6353,
      "Ġpreparations": 6354,
      "ĠTAKE": 6355,
      "Ġbreastfeeding": 6356,
      "Ġbiting": 6357,
      "Ġantic": 6358,
      "hyd": 6359,
      "intments": 6360,
      "Ġprecaution": 6361,
      "Ġrubbing": 6362,
      "atitis": 6363,
      "Ġcamp": 6364,
      "Ġarri": 6365,
      "Ġwatching": 6366,
      "Ġanesthetic": 6367,
      "Ġgut": 6368,
      "Ġcaught": 6369,
      "Ġvig": 6370,
      "Ġsym": 6371,
      "Ġmole": 6372,
      "Ġburs": 6373,
      "Ġdifficulties": 6374,
      "Ġvaries": 6375,
      "Ġhalluc": 6376,
      "could": 6377,
      "ĠPLEASE": 6378,
      "Ġsonogram": 6379,
      "Ġvertebrae": 6380,
      "GN": 6381,
      "MG": 6382,
      "icate": 6383,
      "Ġhv": 6384,
      "ĠOk": 6385,
      "Ġthorax": 6386,
      "Ġstimul": 6387,
      "Ġleaving": 6388,
      "Ġmammog": 6389,
      "Ġambul": 6390,
      "Ġregain": 6391,
      "Ġawhile": 6392,
      "Ġclarify": 6393,
      "Ġbruises": 6394,
      "Ġresponding": 6395,
      "Ġproducing": 6396,
      "Ġinternet": 6397,
      "pha": 6398,
      "Ġbio": 6399,
      "Ġoc": 6400,
      "Ġinqu": 6401,
      "Ġadhes": 6402,
      "Ġteach": 6403,
      "ruary": 6404,
      "Ġfluticasone": 6405,
      "Ġendos": 6406,
      "uterine": 6407,
      "Ġdegeneration": 6408,
      "Ġicing": 6409,
      "WW": 6410,
      "inse": 6411,
      "Ġattached": 6412,
      "avoid": 6413,
      "Ġblocker": 6414,
      "ylori": 6415,
      "Ġdisturbance": 6416,
      "Ġatrial": 6417,
      "law": 6418,
      "Ġswings": 6419,
      "Ġbrisk": 6420,
      "Ġcarried": 6421,
      "Ġhyperplasia": 6422,
      "Ġprotrusion": 6423,
      "Ġdriving": 6424,
      "Ġhydro": 6425,
      "Ġheartbeat": 6426,
      "Ġcip": 6427,
      "Ġfro": 6428,
      "Ġvomited": 6429,
      "Ġconcieve": 6430,
      "ĠwitChatDoctor": 6431,
      "rad": 6432,
      "top": 6433,
      "Ġreact": 6434,
      "Ġbloody": 6435,
      "orrhea": 6436,
      "cos": 6437,
      "zen": 6438,
      "ortic": 6439,
      "Ġ64": 6440,
      "Ġdiffuse": 6441,
      "Ġdifferential": 6442,
      "Ġtraumatic": 6443,
      "Ġphenomenon": 6444,
      "Ġhang": 6445,
      "Ġmov": 6446,
      "Ġfractured": 6447,
      "Ġdeposition": 6448,
      "Ġtherapies": 6449,
      "zz": 6450,
      "Ġforgot": 6451,
      "amy": 6452,
      "anding": 6453,
      "Ġupd": 6454,
      "Ġassure": 6455,
      "Ġhimself": 6456,
      "udes": 6457,
      "Ġburping": 6458,
      "Ġtherapeutic": 6459,
      "ĠMEDIC": 6460,
      "cle": 6461,
      "ĠLH": 6462,
      "Ġdeform": 6463,
      "Ġpenet": 6464,
      "Ġ125": 6465,
      "OUT": 6466,
      "ĠIUD": 6467,
      "Ġcigaret": 6468,
      "gastroesophageal": 6469,
      "rees": 6470,
      "Ġraw": 6471,
      "Ġprom": 6472,
      "Ġlean": 6473,
      "ĠAG": 6474,
      "Ġcomb": 6475,
      "Ġantip": 6476,
      "Ġappt": 6477,
      "ĠPL": 6478,
      "ALL": 6479,
      "Ġforearm": 6480,
      "Ġyounger": 6481,
      "Ġpolyps": 6482,
      "Ġasymptomatic": 6483,
      "bile": 6484,
      "rag": 6485,
      "ito": 6486,
      "Ġinject": 6487,
      "ussion": 6488,
      "Ġmodification": 6489,
      "Ġ160": 6490,
      "Ġendometrium": 6491,
      "glycer": 6492,
      "Ġaneur": 6493,
      "ai": 6494,
      "uinal": 6495,
      "Ġmus": 6496,
      "Ġhers": 6497,
      "Ġerectile": 6498,
      "Ġimmunotherapy": 6499,
      "Ġcollege": 6500,
      "Ġconnection": 6501,
      "was": 6502,
      "Ġfits": 6503,
      "Ġincom": 6504,
      "Ġlasting": 6505,
      "Ġpressing": 6506,
      "ĠOP": 6507,
      "Ġsonography": 6508,
      "Ġpassage": 6509,
      "Ġprogram": 6510,
      "Ġsupplementation": 6511,
      "Ġobsess": 6512,
      "ĠBEEN": 6513,
      "Ġodor": 6514,
      "Ġadminister": 6515,
      "omegaly": 6516,
      "Ġinfar": 6517,
      "ĠPT": 6518,
      "Ġpopped": 6519,
      "Ġmaintaining": 6520,
      "Ġnuts": 6521,
      "Ġpalpitation": 6522,
      "Ġevents": 6523,
      "Ġhemorrhoid": 6524,
      "Ġbusy": 6525,
      ",\"},": 6526,
      "SUL": 6527,
      "onide": 6528,
      "Ġhr": 6529,
      "ithromycin": 6530,
      "Ġasc": 6531,
      "Ġspong": 6532,
      "about": 6533,
      "Ġteen": 6534,
      "ĠPR": 6535,
      "Ġtypically": 6536,
      "Ġharmless": 6537,
      "Ġischemia": 6538,
      "Ġworms": 6539,
      "Ġforte": 6540,
      "ĠAFTER": 6541,
      "ĠBLOOD": 6542,
      "Ġcla": 6543,
      "Ġthrush": 6544,
      "Ġcomplained": 6545,
      "Ġcorrectly": 6546,
      "Ġcovering": 6547,
      "Hey": 6548,
      "mer": 6549,
      "vering": 6550,
      "Ġvit": 6551,
      "Ġawake": 6552,
      "Ġnoticing": 6553,
      "Ġstretc": 6554,
      "ĠWHO": 6555,
      "Ġonto": 6556,
      "lines": 6557,
      "ris": 6558,
      "Ġsession": 6559,
      "0000": 6560,
      "Ġmodifications": 6561,
      "Ġsneeze": 6562,
      "Ġconsciousness": 6563,
      "ector": 6564,
      "Ġax": 6565,
      "Ġthy": 6566,
      "ously": 6567,
      "Ġdecomp": 6568,
      "Ġcharacteri": 6569,
      "Ġpleurisy": 6570,
      "Ġinflu": 6571,
      "raw": 6572,
      "ĠOTC": 6573,
      "Ġinduce": 6574,
      "Ġcup": 6575,
      "Ġmi": 6576,
      "Ġmit": 6577,
      "Ġirritable": 6578,
      "Ġendometriosis": 6579,
      "Ġstimulation": 6580,
      "Ġscientifically": 6581,
      "OG": 6582,
      "jection": 6583,
      "rating": 6584,
      "using": 6585,
      "Ġafterwards": 6586,
      "igence": 6587,
      "Ġfloss": 6588,
      "Ġbenz": 6589,
      "Ġdivertic": 6590,
      "irect": 6591,
      "inge": 6592,
      "Ġluke": 6593,
      "Ġwaste": 6594,
      "Ġphysiological": 6595,
      "jacent": 6596,
      "such": 6597,
      "Ġvaricocele": 6598,
      "Ġslept": 6599,
      "Ġitems": 6600,
      "Ġreliable": 6601,
      "ĠWILL": 6602,
      "Ġslipped": 6603,
      "Ġpartic": 6604,
      "Ġacts": 6605,
      "Ġconstipated": 6606,
      "Ġuncommon": 6607,
      "Ġinguinal": 6608,
      "Ġfoul": 6609,
      "Ġstays": 6610,
      "Ġspr": 6611,
      "toms": 6612,
      "Ġpenicillin": 6613,
      "Ġcorrel": 6614,
      "ocetirizine": 6615,
      "Ġencourage": 6616,
      "ĠSY": 6617,
      "Ġimproves": 6618,
      "Ġlimiting": 6619,
      "Ġsubj": 6620,
      "LL": 6621,
      "Resp": 6622,
      "cobal": 6623,
      "Ġbreaths": 6624,
      "Ġboiled": 6625,
      "due": 6626,
      "elf": 6627,
      "Ġnumbers": 6628,
      "Ġsafely": 6629,
      "Ġreveal": 6630,
      "Ġmessage": 6631,
      "RING": 6632,
      "cg": 6633,
      "free": 6634,
      "mur": 6635,
      "Ġmaster": 6636,
      "threatening": 6637,
      "Ġdiag": 6638,
      "mented": 6639,
      "Ġseed": 6640,
      "Ġsomewhere": 6641,
      "Ġcalamine": 6642,
      "Ġsqueeze": 6643,
      "ĠQU": 6644,
      "Ġgranul": 6645,
      "Ġpollution": 6646,
      "ĠZ": 6647,
      "Ġwakes": 6648,
      "Ġrinse": 6649,
      "reated": 6650,
      "Ġadjacent": 6651,
      "Ġpathological": 6652,
      "Ġsummer": 6653,
      "],": 6654,
      "ret": 6655,
      "Ġwt": 6656,
      "Ġho": 6657,
      "Ġdigestion": 6658,
      "Ġwashed": 6659,
      "max": 6660,
      "maker": 6661,
      "IND": 6662,
      "Ġgram": 6663,
      "Ġcarp": 6664,
      "Ġ:-": 6665,
      "THER": 6666,
      ",,,": 6667,
      "Ġobviously": 6668,
      "Ġmotor": 6669,
      "ctive": 6670,
      "Ġcast": 6671,
      "ĠASA": 6672,
      "ounter": 6673,
      "ĠYEARS": 6674,
      "orosis": 6675,
      "rotid": 6676,
      "Ġnearest": 6677,
      "Ġplant": 6678,
      "ĠOD": 6679,
      "Ġfrid": 6680,
      "Ġperformance": 6681,
      "Ġnutri": 6682,
      "Ġligaments": 6683,
      "16": 6684,
      "Ġpopping": 6685,
      "Ġvariety": 6686,
      "Ġsickness": 6687,
      "Ġreplaced": 6688,
      "ophren": 6689,
      "RY": 6690,
      "ruction": 6691,
      "Ġna": 6692,
      "Ġgained": 6693,
      "Ġtram": 6694,
      "Ġreflex": 6695,
      "Ġmicroscopy": 6696,
      "ruciating": 6697,
      "Ġschiz": 6698,
      "Ġallevi": 6699,
      "Ġlukewarm": 6700,
      "Respected": 6701,
      "Ġprecip": 6702,
      "Ġpermanently": 6703,
      "itude": 6704,
      "ii": 6705,
      "Ġbodies": 6706,
      "Ġbey": 6707,
      "omic": 6708,
      "ĠBACK": 6709,
      "Ġtwitching": 6710,
      "Ġmobility": 6711,
      "Ġanaly": 6712,
      "Ġrealize": 6713,
      "Ġchemicals": 6714,
      "Ġreproductive": 6715,
      "ECT": 6716,
      "ival": 6717,
      "Ġbout": 6718,
      "Ġconsequ": 6719,
      "Ġcontract": 6720,
      "Ġhandle": 6721,
      "Ġfibers": 6722,
      "Ġembolism": 6723,
      "Ġproduces": 6724,
      "Ġobserve": 6725,
      "This": 6726,
      "Ġparenchy": 6727,
      "bre": 6728,
      "cline": 6729,
      "Ġpresents": 6730,
      "Ġmethyl": 6731,
      "Ġpushing": 6732,
      "Ġjuices": 6733,
      "aphrag": 6734,
      "Ġaneurys": 6735,
      "cum": 6736,
      "iasis": 6737,
      "lod": 6738,
      "Ġfield": 6739,
      "Ġoo": 6740,
      "Ġdigestive": 6741,
      "onscious": 6742,
      "Ġseasonal": 6743,
      "Ġdropped": 6744,
      "Ġtoothache": 6745,
      "ped": 6746,
      "ror": 6747,
      "su": 6748,
      "Ġhoping": 6749,
      "Ġovulating": 6750,
      "Ġdaughters": 6751,
      "hens": 6752,
      "Ġmaintained": 6753,
      "Ġshoes": 6754,
      "Ġconsistent": 6755,
      "ĠMRSA": 6756,
      "Ġelder": 6757,
      "Ġtun": 6758,
      "ĠSTI": 6759,
      "Ġunexp": 6760,
      "....\"},": 6761,
      "Ġextensive": 6762,
      "Ġvirt": 6763,
      "Ġexhausted": 6764,
      "Ġbeyond": 6765,
      ")\"}]}": 6766,
      "Ġ.\"}]}": 6767,
      "Ġfiss": 6768,
      "icle": 6769,
      "antly": 6770,
      "Ġcellulitis": 6771,
      "ALLY": 6772,
      "Ġtriple": 6773,
      "Ġcomplicated": 6774,
      "ERI": 6775,
      "Ġgestation": 6776,
      "Ġshr": 6777,
      "Ġfevers": 6778,
      "Ġwheat": 6779,
      "Ġblot": 6780,
      "Ġdrank": 6781,
      "Ġsmoked": 6782,
      "Ġexcruciating": 6783,
      "Ġrecovering": 6784,
      "gued": 6785,
      "Ġdecongestants": 6786,
      "udesonide": 6787,
      "za": 6788,
      "Ġoct": 6789,
      "oterol": 6790,
      "opro": 6791,
      "Ġpocket": 6792,
      "Ġclears": 6793,
      "oxide": 6794,
      "Ġextrem": 6795,
      "Ġthoracic": 6796,
      "Ġphone": 6797,
      "Ġorganisms": 6798,
      "Ġosteoar": 6799,
      "Ġhemorrhage": 6800,
      "ĠHb": 6801,
      "Ġmigraines": 6802,
      "lower": 6803,
      "apsed": 6804,
      "ĠPROBLE": 6805,
      "Ġlanded": 6806,
      "Ġmonitored": 6807,
      "Ġthecal": 6808,
      "Ġknows": 6809,
      "Ġxrays": 6810,
      "Ġtailbone": 6811,
      "Ġjudge": 6812,
      "Ġangioplasty": 6813,
      "75": 6814,
      "UST": 6815,
      "Ġclue": 6816,
      "Ġconsultant": 6817,
      "Ġimproper": 6818,
      "Ġpatency": 6819,
      "Ġsubsequ": 6820,
      "Ġangiogram": 6821,
      "Ġ199": 6822,
      "Ġfeeds": 6823,
      "Ġgentle": 6824,
      "ht": 6825,
      "Ġwan": 6826,
      "Ġimpression": 6827,
      "Ġexpector": 6828,
      "ĠWHI": 6829,
      "Ġfinish": 6830,
      "CER": 6831,
      "actor": 6832,
      "Ġder": 6833,
      "Ġisol": 6834,
      "lling": 6835,
      "etc": 6836,
      "Ġpaining": 6837,
      "Ġceiling": 6838,
      "Ġfainting": 6839,
      "ĠASAP": 6840,
      "tw": 6841,
      "Ġcour": 6842,
      "Ġwed": 6843,
      "Ġthrew": 6844,
      "Ġongoing": 6845,
      "Ġcong": 6846,
      "ĠPH": 6847,
      "Ġmenisc": 6848,
      "Ġattributed": 6849,
      "Ġtermin": 6850,
      "Ġdanger": 6851,
      "vaginal": 6852,
      "bor": 6853,
      "fter": 6854,
      "nes": 6855,
      "Ġdispl": 6856,
      "ender": 6857,
      "Ġteet": 6858,
      "Ġcartil": 6859,
      "Ġ180": 6860,
      "Ġelectrical": 6861,
      "Ġapril": 6862,
      "Ġholder": 6863,
      "Ġintrauterine": 6864,
      "Ġantacids": 6865,
      "Ġlymphaden": 6866,
      ".).": 6867,
      "Ġtorn": 6868,
      "Ġslu": 6869,
      "Ġyo": 6870,
      "odont": 6871,
      "Ġtaper": 6872,
      "cemia": 6873,
      "ĠPA": 6874,
      "ĠPOD": 6875,
      "Ġspecifically": 6876,
      "Ġstaying": 6877,
      "Ġkillers": 6878,
      "his": 6879,
      "Ġmes": 6880,
      "Ġnit": 6881,
      "Ġgang": 6882,
      "verteb": 6883,
      "Ġdiamet": 6884,
      "Ġrelapse": 6885,
      "Ġworkout": 6886,
      "Ġrapidly": 6887,
      "Ġmultivitamins": 6888,
      "oliosis": 6889,
      "Ġcerebral": 6890,
      "Ġcateg": 6891,
      "Ġneither": 6892,
      "Ġplays": 6893,
      "Ġhypertensive": 6894,
      "Ġcombined": 6895,
      "Ġdetermined": 6896,
      "Ġrelatively": 6897,
      "Ġprotru": 6898,
      "ĠONE": 6899,
      "Ġscratching": 6900,
      "ĠMONTH": 6901,
      "SE": 6902,
      "Ġpati": 6903,
      "Ġgab": 6904,
      "Ġbutter": 6905,
      "illed": 6906,
      "Ġcolic": 6907,
      "Ġbelt": 6908,
      "asmodic": 6909,
      "Ġholding": 6910,
      "Ġcorrelation": 6911,
      "Ġlevocetirizine": 6912,
      "Ġlaxity": 6913,
      "Ġpacemaker": 6914,
      "oe": 6915,
      "rog": 6916,
      "Ġhemo": 6917,
      "ĠTREAT": 6918,
      "iles": 6919,
      "Ġ59": 6920,
      "sometimes": 6921,
      "Ġdye": 6922,
      "Ġmeningitis": 6923,
      "Ġborderline": 6924,
      "MY": 6925,
      "mat": 6926,
      "Ġ103": 6927,
      "Ġinterfer": 6928,
      "Ġseverely": 6929,
      "Ġprotocol": 6930,
      "Ġclosely": 6931,
      "Ġbowels": 6932,
      "obic": 6933,
      "Ġdrive": 6934,
      "Ġsecretions": 6935,
      "Ġreversible": 6936,
      "Ġunfortunately": 6937,
      "omal": 6938,
      "etrizine": 6939,
      "aine": 6940,
      "Ġdevice": 6941,
      "Ġapple": 6942,
      "Ġimpos": 6943,
      "Ġimmo": 6944,
      "Ġtran": 6945,
      "Ġfractures": 6946,
      "Ġfatigued": 6947,
      "Ġsett": 6948,
      "Ġstick": 6949,
      "Ġrheumatoid": 6950,
      ".[": 6951,
      "NS": 6952,
      "va": 6953,
      "Ġtens": 6954,
      "ĠPET": 6955,
      "Ġtells": 6956,
      "Ġneurom": 6957,
      "Ġserve": 6958,
      "Ġphysio": 6959,
      "Ġlaparoscopy": 6960,
      "itched": 6961,
      "asy": 6962,
      "olin": 6963,
      "iative": 6964,
      "Ġcoag": 6965,
      "ĠINF": 6966,
      "Ġtonsil": 6967,
      "Ġdots": 6968,
      "Ġportal": 6969,
      "Ġuntreated": 6970,
      "lem": 6971,
      "Ġleuk": 6972,
      "certain": 6973,
      "Ġdemand": 6974,
      "ĠOLD": 6975,
      "Ġrespective": 6976,
      "Ġcalling": 6977,
      "Ġsignificantly": 6978,
      "Ġbleeds": 6979,
      "Ġcarbon": 6980,
      "Ġcortisone": 6981,
      "PS": 6982,
      "itating": 6983,
      "Ġ110": 6984,
      "veness": 6985,
      "Ġosteoporosis": 6986,
      "Ġenhance": 6987,
      "Ġannoying": 6988,
      "Ġdiameter": 6989,
      "lim": 6990,
      "oral": 6991,
      "Ġwip": 6992,
      "Ġdom": 6993,
      "ĠHSG": 6994,
      "Ġconcussion": 6995,
      "Ġsuperf": 6996,
      "Ġintolerance": 6997,
      "Ġgp": 6998,
      "Ġwhom": 6999,
      "Ġloosing": 7000,
      "Ġavoidance": 7001,
      "Ġova": 7002,
      "Ġdiscussed": 7003,
      "Ġcurious": 7004,
      "Ġlocalizing": 7005,
      "Ġdilated": 7006,
      "Ġtru": 7007,
      "entin": 7008,
      "Ġharder": 7009,
      "Ġprivate": 7010,
      "Ġterri": 7011,
      "Ġdiscontinue": 7012,
      "Ġherself": 7013,
      "PA": 7014,
      "Ġtyl": 7015,
      "inence": 7016,
      "Ġglo": 7017,
      "etry": 7018,
      "Ġfold": 7019,
      "Ġresolves": 7020,
      "Ġpalm": 7021,
      "ABLE": 7022,
      "Ġumbil": 7023,
      "Ġosteoarthritis": 7024,
      "18": 7025,
      "Ġpall": 7026,
      "anus": 7027,
      "Ġlith": 7028,
      "uted": 7029,
      "illa": 7030,
      "Ġtrip": 7031,
      "Ġetiology": 7032,
      "Ġau": 7033,
      "Ġfriction": 7034,
      "ĠAV": 7035,
      "venous": 7036,
      "Ġhistopath": 7037,
      "Ġhomeopathy": 7038,
      "Ġpredict": 7039,
      "Ġgrandson": 7040,
      "Ġlaugh": 7041,
      "vertebral": 7042,
      "gment": 7043,
      "xy": 7044,
      "Ġmur": 7045,
      "enol": 7046,
      "uses": 7047,
      "Ġstates": 7048,
      "Ġstability": 7049,
      "rimazole": 7050,
      "Ġmenopause": 7051,
      "Ġayurvedic": 7052,
      "]\"}]}": 7053,
      "hour": 7054,
      "Ġorange": 7055,
      "Ġneut": 7056,
      "Ġmonthly": 7057,
      "Ġhypo": 7058,
      "Ġbenefits": 7059,
      "Ġtransplantation": 7060,
      "Ġphosphat": 7061,
      "Ġcharacterized": 7062,
      "yes": 7063,
      "Ġamp": 7064,
      "Ġnoise": 7065,
      "Ġune": 7066,
      "aked": 7067,
      "ĠLDL": 7068,
      "ropathy": 7069,
      "Ġpulses": 7070,
      "Ġpersonally": 7071,
      "Ġbilious": 7072,
      "Ġhypog": 7073,
      "Ġingred": 7074,
      "Ġesophageal": 7075,
      "care": 7076,
      "arian": 7077,
      "Ġsteri": 7078,
      "Ġclom": 7079,
      "ERG": 7080,
      "Ġdischarged": 7081,
      "Ġconclu": 7082,
      "Ġcran": 7083,
      "Ġsuspic": 7084,
      "ĠFEEL": 7085,
      "Ġfriday": 7086,
      "gin": 7087,
      "Ġmum": 7088,
      "Ġdiaphrag": 7089,
      "Ġresidual": 7090,
      "Ġpartners": 7091,
      "Ġbelie": 7092,
      "Ġachieve": 7093,
      "Ġalbumin": 7094,
      "Ġfluconazole": 7095,
      "Ġimpossible": 7096,
      "__": 7097,
      "dear": 7098,
      "pill": 7099,
      "inflammation": 7100,
      "Ġbiliary": 7101,
      "Ġnutrients": 7102,
      "Ġneuromuscular": 7103,
      "hex": 7104,
      "hetic": 7105,
      "ager": 7106,
      "Ġrt": 7107,
      "Ġredd": 7108,
      "Ġ68": 7109,
      "Ġnodules": 7110,
      "Ġpalate": 7111,
      "Ġdiligence": 7112,
      "conut": 7113,
      "Ġhumid": 7114,
      "Ġchirop": 7115,
      "Ġembryo": 7116,
      "Ġgout": 7117,
      "Ġstem": 7118,
      "ractor": 7119,
      "Ġbothers": 7120,
      "Ġguidelines": 7121,
      "Ġstayed": 7122,
      "Ġvaccinated": 7123,
      "ORMAL": 7124,
      "opt": 7125,
      "Ġclon": 7126,
      "Ġsaf": 7127,
      "Ġ66": 7128,
      "Ġ67": 7129,
      "Ġdefects": 7130,
      "Ġparalysis": 7131,
      "Ġfrag": 7132,
      "Ġforeign": 7133,
      "Ġdiscontinu": 7134,
      "ME": 7135,
      "OLO": 7136,
      "feel": 7137,
      "iced": 7138,
      "erely": 7139,
      "Ġextend": 7140,
      "ĠLOW": 7141,
      "Ġmari": 7142,
      "Ġgrows": 7143,
      "Ġinvasive": 7144,
      "Ġfibrous": 7145,
      "Ġmosqu": 7146,
      "MA": 7147,
      "rof": 7148,
      "ĠHPV": 7149,
      "Ġcoc": 7150,
      "Ġawful": 7151,
      "Ġdysp": 7152,
      "Ġpatience": 7153,
      "non": 7154,
      "Ġ??": 7155,
      "Ġtil": 7156,
      "idge": 7157,
      "Ġregurg": 7158,
      "oids": 7159,
      "Ġsmelling": 7160,
      "Ġmornings": 7161,
      "ĠTHERE": 7162,
      "Ġfrontal": 7163,
      "Ġanemic": 7164,
      "idd": 7165,
      "Ġvan": 7166,
      "abdom": 7167,
      "Ġinsp": 7168,
      "Ġtesticular": 7169,
      "ĠTIME": 7170,
      "car": 7171,
      "idy": 7172,
      "ception": 7173,
      "iring": 7174,
      "Ġdiv": 7175,
      "opat": 7176,
      "Ġclav": 7177,
      "Ġsave": 7178,
      "Ġtemple": 7179,
      "Ġpushed": 7180,
      "Ġelectric": 7181,
      "Ġpubic": 7182,
      "Ġepidural": 7183,
      "NE": 7184,
      "Ġaim": 7185,
      "Ġtick": 7186,
      "Ġsom": 7187,
      "Ġfeature": 7188,
      "Ġplastic": 7189,
      "Ġinjected": 7190,
      "Ġplacent": 7191,
      "formoterol": 7192,
      "Ġrestricted": 7193,
      "Ġforaminal": 7194,
      "Ġschizophren": 7195,
      "bec": 7196,
      "ert": 7197,
      "Ġquad": 7198,
      "Ġtriglycer": 7199,
      "LOW": 7200,
      "Ġfacet": 7201,
      "Ġdarker": 7202,
      "Ġsuperficial": 7203,
      "hrs": 7204,
      "Ġseries": 7205,
      "Ġpm": 7206,
      "Ġreocc": 7207,
      "Ġeight": 7208,
      "ety": 7209,
      "oday": 7210,
      "Ġdiap": 7211,
      "Ġled": 7212,
      "Ġfemal": 7213,
      "apentin": 7214,
      "Ġpierc": 7215,
      "ĠSeptember": 7216,
      "Ġobjects": 7217,
      "Ġplaque": 7218,
      "'d": 7219,
      "TING": 7220,
      "first": 7221,
      "ĠHi": 7222,
      "uling": 7223,
      "Ġchocol": 7224,
      "ĠOUT": 7225,
      "Ġconsuming": 7226,
      "Ġsmokes": 7227,
      "ughter": 7228,
      "Ġprobiotics": 7229,
      "Ġsimult": 7230,
      "juana": 7231,
      "rex": 7232,
      "Ġcoconut": 7233,
      "athers": 7234,
      "Ġclotrimazole": 7235,
      "Ġmajority": 7236,
      "Ġattemp": 7237,
      "Ġparanoid": 7238,
      "Ġmelan": 7239,
      "oneph": 7240,
      "ilities": 7241,
      "Ġarising": 7242,
      "iaz": 7243,
      "Ġreached": 7244,
      "Ġmagnes": 7245,
      "No": 7246,
      "Ġ@": 7247,
      "Ġanimal": 7248,
      "Ġovernight": 7249,
      "Ġmeasured": 7250,
      "Ġdegrees": 7251,
      "Ġpaper": 7252,
      "Ġpoisoning": 7253,
      "Ġtramadol": 7254,
      "Ġmethylcobal": 7255,
      "And": 7256,
      "sis": 7257,
      "Ġbac": 7258,
      "urt": 7259,
      "ĠED": 7260,
      "Ġforming": 7261,
      "Ġ2008": 7262,
      "Ġjuly": 7263,
      "Ġautomatic": 7264,
      "anx": 7265,
      "Ġjune": 7266,
      "Ġantigen": 7267,
      "perid": 7268,
      "Ġresolution": 7269,
      "Ġlayer": 7270,
      "Ġoccasions": 7271,
      "Ġcondoms": 7272,
      "bes": 7273,
      "ora": 7274,
      "Ġwinter": 7275,
      "rip": 7276,
      "Ġ61": 7277,
      "Ġaccess": 7278,
      "Ġinterested": 7279,
      "Ġovulate": 7280,
      "Ġinsist": 7281,
      "ĠGGT": 7282,
      "Ġfatal": 7283,
      "arring": 7284,
      "Ġwheeze": 7285,
      "Ġsatisfaction": 7286,
      "Ġmetastatic": 7287,
      "cutaneous": 7288,
      "KD": 7289,
      "Ġpy": 7290,
      "ational": 7291,
      "ĠBD": 7292,
      "Ġteam": 7293,
      "Ġmonday": 7294,
      "Ġprotective": 7295,
      "Ġblockers": 7296,
      "Ġhypers": 7297,
      "Ġparox": 7298,
      "ancies": 7299,
      "Ġunnecessarily": 7300,
      "Ġaid": 7301,
      "heal": 7302,
      "Ġbang": 7303,
      "Ġpure": 7304,
      "Ġlub": 7305,
      "thyroid": 7306,
      "Ġscoliosis": 7307,
      "Ġregener": 7308,
      "ĠCO": 7309,
      "adequ": 7310,
      "Ġcarrier": 7311,
      "Ġdeposits": 7312,
      "Ġneuralgia": 7313,
      "Ġspontaneously": 7314,
      "Ġfluttering": 7315,
      "Ġinsufficiency": 7316,
      "ients": 7317,
      "ars": 7318,
      "osite": 7319,
      "Ġlives": 7320,
      "Ġgolf": 7321,
      "Ġspend": 7322,
      "epilep": 7323,
      "Ġmarker": 7324,
      "Ġobsession": 7325,
      "Ġhallucin": 7326,
      "200": 7327,
      "born": 7328,
      "Ġdup": 7329,
      "Ġointments": 7330,
      "aring": 7331,
      "acc": 7332,
      "Ġalarm": 7333,
      "Ġblocks": 7334,
      "Ġfocal": 7335,
      "Ġmono": 7336,
      "ĠKN": 7337,
      "Ġaggravated": 7338,
      "Ġazithromycin": 7339,
      "Ġcalorie": 7340,
      "ĠBMI": 7341,
      "Ġmeniscus": 7342,
      "Ġmarijuana": 7343,
      "mar": 7344,
      "ococc": 7345,
      "Ġana": 7346,
      "rocin": 7347,
      "urning": 7348,
      "illation": 7349,
      "Ġdehyd": 7350,
      "Ġsensory": 7351,
      "Ġthinning": 7352,
      "Ġmassive": 7353,
      "ĠINR": 7354,
      "Ġreceiving": 7355,
      "ocyte": 7356,
      "Ġantidepressants": 7357,
      "Ġphotographs": 7358,
      "Ġerect": 7359,
      "bo": 7360,
      "onitis": 7361,
      "Ġcuff": 7362,
      "Ġtow": 7363,
      "ĠIG": 7364,
      "Ġnost": 7365,
      "Ġstream": 7366,
      "agnosed": 7367,
      "Ġpuls": 7368,
      "Ġmicroscopic": 7369,
      "ĠFebruary": 7370,
      "Ġincomplete": 7371,
      "Ġmosquito": 7372,
      "Ġtone": 7373,
      "Ġhiat": 7374,
      "Ġleaking": 7375,
      "Ġclick": 7376,
      "cribed": 7377,
      "Ġrestless": 7378,
      "Ġideal": 7379,
      "Ġhematologist": 7380,
      "ĠSUG": 7381,
      "Ġleaves": 7382,
      "Ġunderwear": 7383,
      "Ġcartilage": 7384,
      "Ġfi": 7385,
      "Ġinability": 7386,
      "ggers": 7387,
      "ĠSA": 7388,
      "Ġusage": 7389,
      "Ġcontext": 7390,
      "Ġbrand": 7391,
      "izes": 7392,
      "rupt": 7393,
      "!!~": 7394,
      "Ġaddress": 7395,
      "Ġorganic": 7396,
      "Ġaneurysm": 7397,
      "48": 7398,
      "ĠIUI": 7399,
      "Ġlines": 7400,
      "Ġcheese": 7401,
      "ĠBY": 7402,
      "Ġmentioning": 7403,
      "Ġpolycystic": 7404,
      "Ġlatest": 7405,
      "Ġcholecystectomy": 7406,
      "Ġtunnel": 7407,
      "Ġrespectively": 7408,
      "Ġauth": 7409,
      "PL": 7410,
      "lves": 7411,
      "will": 7412,
      "Ġtears": 7413,
      "Ġacqu": 7414,
      "Ġunrelated": 7415,
      "Ġmail": 7416,
      "Ġtrave": 7417,
      "Ġpinching": 7418,
      "Ġintervals": 7419,
      "Ġgabapentin": 7420,
      "Ġreddish": 7421,
      "Ġfemales": 7422,
      "IF": 7423,
      "pf": 7424,
      "your": 7425,
      "Ġbic": 7426,
      "Ġatrophy": 7427,
      "ologies": 7428,
      "Ġworkup": 7429,
      "TIS": 7430,
      "Ġdenture": 7431,
      "Ġstraining": 7432,
      "oxy": 7433,
      "Ġdeeply": 7434,
      "Ġeasier": 7435,
      "Ġejaculated": 7436,
      "Ġendocrin": 7437,
      "Ġprophylaxis": 7438,
      "dic": 7439,
      "enic": 7440,
      "actic": 7441,
      "Ġadding": 7442,
      "Ġinterf": 7443,
      "Ġcathe": 7444,
      "Ġoriginal": 7445,
      "Ġcircumc": 7446,
      "Ġwarf": 7447,
      "Ġvirtual": 7448,
      "VING": 7449,
      "bet": 7450,
      "don": 7451,
      "Ġanat": 7452,
      "Ġscabies": 7453,
      "Ġwanting": 7454,
      "Ġfinds": 7455,
      "!!\"},": 7456,
      "Ġlabs": 7457,
      "ĠTHEY": 7458,
      "Ġpredis": 7459,
      "Ġgarlic": 7460,
      "good": 7461,
      "la": 7462,
      "oking": 7463,
      "tub": 7464,
      "Ġail": 7465,
      "Ġmature": 7466,
      "Ġracing": 7467,
      "Ġproved": 7468,
      "standing": 7469,
      "Ġantibacterial": 7470,
      "Ġflap": 7471,
      "Ġconsistency": 7472,
      "Ġventil": 7473,
      "Ġtetanus": 7474,
      "Ġabstinence": 7475,
      "Ġendoscopic": 7476,
      "Ġwks": 7477,
      "Ġstents": 7478,
      "ĠHCV": 7479,
      "Ġartif": 7480,
      "Ġdescribing": 7481,
      "ITY": 7482,
      "Ġfibrillation": 7483,
      "Ġclaim": 7484,
      "odontist": 7485,
      "Ġfed": 7486,
      "left": 7487,
      "Ġloud": 7488,
      "Ġrating": 7489,
      "Ġworris": 7490,
      "Ġupto": 7491,
      "cked": 7492,
      "Ġmoti": 7493,
      "Ġwritten": 7494,
      "Ġappearing": 7495,
      "Ġurgently": 7496,
      "Ġshivering": 7497,
      "Ġaugment": 7498,
      "Ġworrisome": 7499,
      "Ġrush": 7500,
      "!!!": 7501,
      "Ġinstru": 7502,
      "Ġbuy": 7503,
      "Ġcalcification": 7504,
      "Ġmorphine": 7505,
      "Ġdecayed": 7506,
      "Ġcircumst": 7507,
      "Ġcloser": 7508,
      "Ġtylenol": 7509,
      "17": 7510,
      "500": 7511,
      "fo": 7512,
      "Ġtread": 7513,
      "Ġhate": 7514,
      "Ġimag": 7515,
      "Ġbland": 7516,
      "Ġobtained": 7517,
      "Ġparenchymal": 7518,
      "Ġtoward": 7519,
      "ĠAP": 7520,
      "Ġspent": 7521,
      "Ġscare": 7522,
      "atio": 7523,
      "Ġboils": 7524,
      "Ġbuttock": 7525,
      "Ġworsens": 7526,
      "Ġtolerate": 7527,
      "Ġventricular": 7528,
      "Ġwanna": 7529,
      "only": 7530,
      "ili": 7531,
      "Ġscrew": 7532,
      "Ġsclerosis": 7533,
      "Ġsinc": 7534,
      "Ġrecommendations": 7535,
      "Ġrealized": 7536,
      "Ġsulf": 7537,
      "ger": 7538,
      "Ġath": 7539,
      "sient": 7540,
      "ensitivity": 7541,
      "Ġkinds": 7542,
      "ocetrizine": 7543,
      "Ġapnea": 7544,
      "ĠRIGHT": 7545,
      "Ġfistula": 7546,
      "Ġmitral": 7547,
      "Ġnostril": 7548,
      "mi": 7549,
      "atal": 7550,
      "atation": 7551,
      "aching": 7552,
      "ĠPatient": 7553,
      "Ġlowering": 7554,
      "Ġpenile": 7555,
      "Ġsuspicious": 7556,
      "obia": 7557,
      "Ġembarr": 7558,
      "Ġechocardiography": 7559,
      "Ġbouts": 7560,
      "Ġfathers": 7561,
      "Ġlic": 7562,
      "Ġgently": 7563,
      "Ġcontamin": 7564,
      "Ġflight": 7565,
      "Ġeruption": 7566,
      "surg": 7567,
      "Ġnipples": 7568,
      "There": 7569,
      "Ġleakage": 7570,
      "Ġcosmetic": 7571,
      "OK": 7572,
      "yed": 7573,
      "oups": 7574,
      "Ġbent": 7575,
      "thyroidism": 7576,
      "Ġmobile": 7577,
      "Ġcardi": 7578,
      "Ġprevents": 7579,
      "Ġmiles": 7580,
      "Ġcontraction": 7581,
      "Ġsqueezing": 7582,
      "ribute": 7583,
      "19": 7584,
      "kgs": 7585,
      "Ġgrind": 7586,
      "Ġdrained": 7587,
      "Ġsignal": 7588,
      "Ġbald": 7589,
      "Ġedge": 7590,
      "Ġducts": 7591,
      "ĠNEED": 7592,
      "Ġtrusting": 7593,
      "TER": 7594,
      "onin": 7595,
      "Ġbud": 7596,
      "ĠPRE": 7597,
      "Ġprobiotic": 7598,
      "Ġnews": 7599,
      "Ġ1000": 7600,
      "Ġdisturbing": 7601,
      "Ġphary": 7602,
      "Ġdiaphragm": 7603,
      "Ġmagnesium": 7604,
      "Please": 7605,
      "worm": 7606,
      "Ġpaint": 7607,
      "Ġexper": 7608,
      "HelloWelcome": 7609,
      "Ġtrace": 7610,
      "Ġsites": 7611,
      "Ġglut": 7612,
      "Ġbike": 7613,
      "oconazole": 7614,
      "Ġtriggers": 7615,
      "Ġsmells": 7616,
      "Ġpuncture": 7617,
      "Ġmandatory": 7618,
      "orous": 7619,
      "rometry": 7620,
      "Ġspan": 7621,
      "ĠCONT": 7622,
      "45": 7623,
      "Ġwouldn": 7624,
      "Ġchoose": 7625,
      "Ġbeneath": 7626,
      "Ġaccidentally": 7627,
      "Ġworsened": 7628,
      "Ġpartially": 7629,
      "Ġdiuretics": 7630,
      "Ġcamphene": 7631,
      "Ġhypogly": 7632,
      "Ġinterfere": 7633,
      "hr": 7634,
      "ls": 7635,
      "mis": 7636,
      "hesis": 7637,
      "Ġpool": 7638,
      "Ġ:(": 7639,
      "ngitis": 7640,
      "Ġillnesses": 7641,
      "kindly": 7642,
      "HE": 7643,
      "lusive": 7644,
      "erve": 7645,
      "Ġcompuls": 7646,
      "Ġtexture": 7647,
      "Ġnecessarily": 7648,
      "Ġopport": 7649,
      "Ġeliminate": 7650,
      "ĠWHICH": 7651,
      "Ġcatheter": 7652,
      "budesonide": 7653,
      "Ġwid": 7654,
      "icians": 7655,
      "Ġviruses": 7656,
      "Ġpalms": 7657,
      "Ġconduct": 7658,
      "Ġlubric": 7659,
      "adequate": 7660,
      "Ġembarrass": 7661,
      "PF": 7662,
      "olol": 7663,
      "abs": 7664,
      "....\"}]}": 7665,
      "Ġdefic": 7666,
      "Ġirritating": 7667,
      "Ġblurred": 7668,
      "ĠDAYS": 7669,
      "Ġmasterb": 7670,
      "Ġelderly": 7671,
      "?)": 7672,
      "ipping": 7673,
      "Ġrear": 7674,
      "Ġrang": 7675,
      "Ġtestes": 7676,
      "Ġshed": 7677,
      "Ġconsumed": 7678,
      "Ġ98": 7679,
      "Ġbox": 7680,
      "Ġeduc": 7681,
      "ĠWHEN": 7682,
      "Ġopportun": 7683,
      "oz": 7684,
      "ashes": 7685,
      "Ġviol": 7686,
      "ĠWEE": 7687,
      "Ġextended": 7688,
      "Ġacidic": 7689,
      "Ġprecise": 7690,
      "Ġpicked": 7691,
      "Ġgingival": 7692,
      "Ġcitrate": 7693,
      "hexidine": 7694,
      "aff": 7695,
      "fall": 7696,
      "Ġut": 7697,
      "Ġcum": 7698,
      "Ġstaph": 7699,
      "ĠDVT": 7700,
      "elly": 7701,
      "tical": 7702,
      "gged": 7703,
      "ĠOB": 7704,
      "ĠADD": 7705,
      "ĠTMJ": 7706,
      "Ġquarter": 7707,
      "Ġalleviate": 7708,
      "Ġschizophrenia": 7709,
      "Ab": 7710,
      "uro": 7711,
      "llow": 7712,
      "Ġride": 7713,
      "Ġneedful": 7714,
      "Ġcloth": 7715,
      "ĠANA": 7716,
      "OUS": 7717,
      "Ġsyncope": 7718,
      "Ġintravenous": 7719,
      "inary": 7720,
      "Ġsear": 7721,
      "hest": 7722,
      "Ġbread": 7723,
      "Ġscarring": 7724,
      "Ġjogging": 7725,
      "Ġresolving": 7726,
      "OUND": 7727,
      "Ġcutting": 7728,
      "Ġabsorption": 7729,
      "Ġfunny": 7730,
      "Ġobsessive": 7731,
      "Ġendocrinologist": 7732,
      "Ġdream": 7733,
      "ĠDNA": 7734,
      "Ġantiviral": 7735,
      "Ġdebr": 7736,
      "Ġloos": 7737,
      "Ġpresently": 7738,
      "Ġimpair": 7739,
      "Ġassuming": 7740,
      "ERD": 7741,
      "Ġinsight": 7742,
      "Ġbronchi": 7743,
      "Ġhyperthyroidism": 7744,
      "Ġoxid": 7745,
      "Ġscrotal": 7746,
      "SION": 7747,
      "Ġepididy": 7748,
      "Ġlactose": 7749,
      "Ġketoconazole": 7750,
      "Ġupdate": 7751,
      "iazep": 7752,
      "peridone": 7753,
      "vast": 7754,
      "Ġgaining": 7755,
      "Ġshut": 7756,
      "Ġspit": 7757,
      "ĠBAD": 7758,
      "Ġunwell": 7759,
      "Ġdesire": 7760,
      "entially": 7761,
      "Ġexpecting": 7762,
      "Ġsticky": 7763,
      "Ġinsertion": 7764,
      "Ġsedim": 7765,
      "poon": 7766,
      "Ġcarrying": 7767,
      "Ġalkaline": 7768,
      "Ġhemorrhoids": 7769,
      "Ġteething": 7770,
      "Ġregurgitation": 7771,
      "OID": 7772,
      "uz": 7773,
      "eter": 7774,
      "oden": 7775,
      "Ġdisloc": 7776,
      "Ġsoothing": 7777,
      "Ġexaminations": 7778,
      "Ġblades": 7779,
      "Ġshake": 7780,
      "icked": 7781,
      "Ġdesper": 7782,
      "Ġknew": 7783,
      "Ġpeels": 7784,
      "Ġpalliative": 7785,
      "Ġtan": 7786,
      "Ġmask": 7787,
      "otin": 7788,
      "Ġhon": 7789,
      "ulatory": 7790,
      "Ġarise": 7791,
      "rape": 7792,
      "Ġmentally": 7793,
      "Ġnarrow": 7794,
      "ĠSHOULD": 7795,
      "Ġsqueezed": 7796,
      "ĠABOUT": 7797,
      "Ġcharacteristic": 7798,
      "vial": 7799,
      "Ġachy": 7800,
      "Ġstatic": 7801,
      "Ġabuse": 7802,
      "orta": 7803,
      "Ġprobability": 7804,
      "Ġspreads": 7805,
      "Ġbrownish": 7806,
      "Ġautomatically": 7807,
      "CL": 7808,
      "ortions": 7809,
      "Ġft": 7810,
      "Ġscream": 7811,
      "ostatic": 7812,
      "Ġunits": 7813,
      "Ġmanner": 7814,
      "Ġirre": 7815,
      "Ġcontractions": 7816,
      "Ġvaricose": 7817,
      "ĠSept": 7818,
      "Ġindeed": 7819,
      "Ġseparate": 7820,
      "Ġlethargic": 7821,
      "Ġpleasure": 7822,
      "Ġwarfarin": 7823,
      "both": 7824,
      "Ġcep": 7825,
      "enia": 7826,
      "Ġaging": 7827,
      "Ġpinch": 7828,
      "Ġscratched": 7829,
      "Ġpleura": 7830,
      "Ġglasses": 7831,
      "ausal": 7832,
      "anxiety": 7833,
      "lip": 7834,
      "Ġpract": 7835,
      "Ġnet": 7836,
      "omnia": 7837,
      "Ġconj": 7838,
      "Ġratio": 7839,
      "Ġablation": 7840,
      "ĠCM": 7841,
      "ĠLAST": 7842,
      "Ġattach": 7843,
      "Ġsunlight": 7844,
      "Ġrepeatedly": 7845,
      "Ġunconscious": 7846,
      "Ġattempt": 7847,
      "Ġadministered": 7848,
      "because": 7849,
      "Ġtha": 7850,
      "Ġclothing": 7851,
      "ĠCP": 7852,
      "Ġintro": 7853,
      "Ġhistamine": 7854,
      "Ġ104": 7855,
      "Ġbreaking": 7856,
      "Ġthinner": 7857,
      "oxidil": 7858,
      "Ġapparently": 7859,
      "Ġcomponent": 7860,
      "Ġcoagulation": 7861,
      "ait": 7862,
      "vive": 7863,
      "odiazep": 7864,
      "ĠDE": 7865,
      "Ġbridge": 7866,
      "Ġcorner": 7867,
      "ĠUP": 7868,
      "Ġneglect": 7869,
      "amycin": 7870,
      "ĠPROBLEM": 7871,
      "LI": 7872,
      "high": 7873,
      "Ġcous": 7874,
      "amic": 7875,
      "Ġdoxy": 7876,
      "Ġcompany": 7877,
      "Ġkey": 7878,
      "Ġpotato": 7879,
      "Ġcircle": 7880,
      "Ġinferential": 7881,
      "Ġdeliver": 7882,
      "Ġmammogram": 7883,
      "Ġadhesions": 7884,
      "CI": 7885,
      "hew": 7886,
      "Ġbc": 7887,
      "Ġfol": 7888,
      "Ġpit": 7889,
      "idney": 7890,
      "ĠTR": 7891,
      "Ġcontrain": 7892,
      "Ġhered": 7893,
      "Ġpostp": 7894,
      "ĠANTI": 7895,
      "Ġerad": 7896,
      "Ġconsists": 7897,
      "Ġmoisturizer": 7898,
      "MRI": 7899,
      "Ġaugust": 7900,
      "Ġtree": 7901,
      "Ġwi": 7902,
      "Ġdir": 7903,
      "uration": 7904,
      "Ġcanker": 7905,
      "Ġneur": 7906,
      "adays": 7907,
      "Ġscale": 7908,
      "ĠNov": 7909,
      "ORT": 7910,
      "Ġpatent": 7911,
      "RESS": 7912,
      "Ġspirometry": 7913,
      "Ġdecompression": 7914,
      "Ġfissure": 7915,
      "sm": 7916,
      "Ġruling": 7917,
      "ĠCOU": 7918,
      "Ġimpinge": 7919,
      "lained": 7920,
      "Ġremission": 7921,
      "Ġindex": 7922,
      "daughter": 7923,
      "Ġsimultaneously": 7924,
      "Ġcircumstances": 7925,
      "HA": 7926,
      "Ġtown": 7927,
      "Ġhom": 7928,
      "Ġsund": 7929,
      "hane": 7930,
      "Ġspider": 7931,
      "itish": 7932,
      "Ġpole": 7933,
      "Ġtoothp": 7934,
      "Ġsalad": 7935,
      "Ġsweet": 7936,
      "Ġsemi": 7937,
      "Ġdestro": 7938,
      "Ġsuspicion": 7939,
      "rant": 7940,
      "xo": 7941,
      "Ġpipe": 7942,
      "aches": 7943,
      "ript": 7944,
      "Ġvib": 7945,
      "Ġcoughs": 7946,
      "Ġindirect": 7947,
      "ONG": 7948,
      "Ġfallen": 7949,
      "Ġroute": 7950,
      "Ġbenzodiazep": 7951,
      "Ġtransient": 7952,
      "Ġtreadmill": 7953,
      "yc": 7954,
      "Ġsand": 7955,
      "Ġwine": 7956,
      "itute": 7957,
      "Ġwhose": 7958,
      "Ġsurvive": 7959,
      "Ġ78": 7960,
      "raline": 7961,
      "Ġskip": 7962,
      "Ġpalsy": 7963,
      "Ġdiagon": 7964,
      "Take": 7965,
      "nx": 7966,
      "Ġaorta": 7967,
      "Ġfire": 7968,
      "Ġdensity": 7969,
      "Ġekg": 7970,
      "etings": 7971,
      "oxetine": 7972,
      "Ġtrial": 7973,
      "Ġretin": 7974,
      "Ġmembr": 7975,
      "Ġweighs": 7976,
      "Ġopposite": 7977,
      "Ġaddiction": 7978,
      "Ġsymtoms": 7979,
      "Ġchiropractor": 7980,
      "Ġhallucinations": 7981,
      "Can": 7982,
      "Ġq": 7983,
      "Ġgidd": 7984,
      "Ġunit": 7985,
      "ĠNORMAL": 7986,
      "ATED": 7987,
      "ĠPCOS": 7988,
      "Ġdiverticulitis": 7989,
      "Ġ~": 7990,
      "inced": 7991,
      "tible": 7992,
      "Ġnt": 7993,
      "ĠTW": 7994,
      "Ġprompt": 7995,
      "Ġcontents": 7996,
      "izers": 7997,
      "ibular": 7998,
      "Ġextract": 7999
    },
    "merges": [
      [
        "o",
        "n"
      ],
      [
        "e",
        "r"
      ],
      [
        "Ġ",
        "a"
      ],
      [
        "Ġ",
        "t"
      ],
      [
        "i",
        "n"
      ],
      [
        "Ġ",
        "s"
      ],
      [
        "h",
        "e"
      ],
      [
        "er",
        "s"
      ],
      [
        "ers",
        "on"
      ],
      [
        "o",
        "u"
      ],
      [
        "P",
        "erson"
      ],
      [
        "r",
        "e"
      ],
      [
        "Ġ",
        "Person"
      ],
      [
        "i",
        "s"
      ],
      [
        "Ġ",
        "c"
      ],
      [
        "o",
        "r"
      ],
      [
        "Ġ",
        "w"
      ],
      [
        "Ġ",
        "b"
      ],
      [
        "Ġa",
        "n"
      ],
      [
        "h",
        "a"
      ],
      [
        "Ġ",
        "m"
      ],
      [
        "e",
        "n"
      ],
      [
        "e",
        "s"
      ],
      [
        "Ġ",
        "f"
      ],
      [
        "Ġ",
        "d"
      ],
      [
        "Ġ",
        "p"
      ],
      [
        "i",
        "t"
      ],
      [
        "l",
        "e"
      ],
      [
        "Ġ",
        "\""
      ],
      [
        "Ġt",
        "he"
      ],
      [
        "Ġ",
        "y"
      ],
      [
        "in",
        "g"
      ],
      [
        "Ġt",
        "o"
      ],
      [
        "Ġ",
        "I"
      ],
      [
        "t",
        "i"
      ],
      [
        "Ġan",
        "d"
      ],
      [
        "e",
        "d"
      ],
      [
        "a",
        "n"
      ],
      [
        "Ġy",
        "ou"
      ],
      [
        "Ġ",
        "o"
      ],
      [
        "\"",
        ":"
      ],
      [
        "r",
        "o"
      ],
      [
        "a",
        "l"
      ],
      [
        "Ġ",
        "ha"
      ],
      [
        "Ġ",
        "n"
      ],
      [
        "a",
        "s"
      ],
      [
        "Ġ",
        "in"
      ],
      [
        "en",
        "t"
      ],
      [
        "v",
        "e"
      ],
      [
        "u",
        "s"
      ],
      [
        "Ġo",
        "f"
      ],
      [
        "a",
        "r"
      ],
      [
        "Ġ",
        "l"
      ],
      [
        "a",
        "t"
      ],
      [
        "Ġ",
        "is"
      ],
      [
        "l",
        "l"
      ],
      [
        "Ġb",
        "e"
      ],
      [
        "ti",
        "on"
      ],
      [
        "Ġ",
        "g"
      ],
      [
        "i",
        "c"
      ],
      [
        "{",
        "\""
      ],
      [
        "on",
        "t"
      ],
      [
        "o",
        "m"
      ],
      [
        "Ġt",
        "h"
      ],
      [
        "Ġ",
        "re"
      ],
      [
        "c",
        "t"
      ],
      [
        "Ġf",
        "or"
      ],
      [
        "Ġ",
        "e"
      ],
      [
        "Ġ",
        "i"
      ],
      [
        "o",
        "t"
      ],
      [
        "Ġ",
        "h"
      ],
      [
        "l",
        "y"
      ],
      [
        "Ġyou",
        "r"
      ],
      [
        "Ġ",
        "he"
      ],
      [
        "Ġ",
        "it"
      ],
      [
        "Ġha",
        "ve"
      ],
      [
        "l",
        "d"
      ],
      [
        "a",
        "y"
      ],
      [
        "c",
        "ont"
      ],
      [
        "ro",
        "le"
      ],
      [
        "cont",
        "ent"
      ],
      [
        "\"",
        ","
      ],
      [
        "\"",
        "}"
      ],
      [
        "Ġ",
        "{\""
      ],
      [
        "is",
        "t"
      ],
      [
        "Ġm",
        "y"
      ],
      [
        "e",
        "t"
      ],
      [
        "o",
        "w"
      ],
      [
        "Ġ",
        "on"
      ],
      [
        "i",
        "d"
      ],
      [
        "o",
        "s"
      ],
      [
        "g",
        "h"
      ],
      [
        "u",
        "r"
      ],
      [
        "ha",
        "t"
      ],
      [
        "a",
        "in"
      ],
      [
        "es",
        "s"
      ],
      [
        "a",
        "g"
      ],
      [
        "u",
        "l"
      ],
      [
        "v",
        "er"
      ],
      [
        "t",
        "h"
      ],
      [
        "Ġc",
        "an"
      ],
      [
        "o",
        "d"
      ],
      [
        "k",
        "e"
      ],
      [
        "it",
        "h"
      ],
      [
        "ct",
        "or"
      ],
      [
        "an",
        "t"
      ],
      [
        "o",
        "ctor"
      ],
      [
        "Ġw",
        "ith"
      ],
      [
        "a",
        "tion"
      ],
      [
        "Ġs",
        "t"
      ],
      [
        "a",
        "c"
      ],
      [
        "ou",
        "ld"
      ],
      [
        ".",
        "."
      ],
      [
        "u",
        "t"
      ],
      [
        "q",
        "u"
      ],
      [
        "e",
        "e"
      ],
      [
        "Ġ",
        "or"
      ],
      [
        "Ġa",
        "s"
      ],
      [
        "Ġc",
        "on"
      ],
      [
        "Ġ",
        "u"
      ],
      [
        "Ġt",
        "hat"
      ],
      [
        "Ġl",
        "i"
      ],
      [
        "Ġa",
        "re"
      ],
      [
        "Ġn",
        "ot"
      ],
      [
        "Ġth",
        "is"
      ],
      [
        "Ġ",
        "D"
      ],
      [
        "e",
        "c"
      ],
      [
        "as",
        "s"
      ],
      [
        "Ġ",
        "r"
      ],
      [
        "es",
        "t"
      ],
      [
        "m",
        "p"
      ],
      [
        "i",
        "ll"
      ],
      [
        "Ġs",
        "u"
      ],
      [
        "ha",
        "n"
      ],
      [
        "n",
        "d"
      ],
      [
        "Ġ",
        "T"
      ],
      [
        "i",
        "gh"
      ],
      [
        "Ġp",
        "ain"
      ],
      [
        "Ġ",
        "["
      ],
      [
        "Ġ",
        "qu"
      ],
      [
        "ou",
        "t"
      ],
      [
        "Ġp",
        "ro"
      ],
      [
        "a",
        "m"
      ],
      [
        "l",
        "o"
      ],
      [
        "t",
        "er"
      ],
      [
        "ag",
        "es"
      ],
      [
        ".",
        "\"}"
      ],
      [
        "b",
        "le"
      ],
      [
        "ist",
        "ant"
      ],
      [
        "Ġa",
        "l"
      ],
      [
        "us",
        "er"
      ],
      [
        "Ġn",
        "e"
      ],
      [
        "ess",
        "ages"
      ],
      [
        "m",
        "essages"
      ],
      [
        "]",
        "}"
      ],
      [
        "ass",
        "istant"
      ],
      [
        "Ġ[",
        "{\""
      ],
      [
        "a",
        "d"
      ],
      [
        "e",
        "ll"
      ],
      [
        "Ġt",
        "a"
      ],
      [
        "ĠD",
        "octor"
      ],
      [
        "Ġc",
        "a"
      ],
      [
        "s",
        "t"
      ],
      [
        "Ġm",
        "e"
      ],
      [
        "Ġw",
        "h"
      ],
      [
        "Ġd",
        "o"
      ],
      [
        "Ġp",
        "re"
      ],
      [
        "igh",
        "t"
      ],
      [
        "p",
        "p"
      ],
      [
        "om",
        "e"
      ],
      [
        "Ġe",
        "x"
      ],
      [
        "Ġs",
        "h"
      ],
      [
        "c",
        "e"
      ],
      [
        "c",
        "h"
      ],
      [
        "i",
        "m"
      ],
      [
        "Ġw",
        "ill"
      ],
      [
        "k",
        "s"
      ],
      [
        "i",
        "on"
      ],
      [
        "i",
        "r"
      ],
      [
        "Ġa",
        "b"
      ],
      [
        "er",
        "e"
      ],
      [
        "re",
        "at"
      ],
      [
        "Ġd",
        "i"
      ],
      [
        "Ġw",
        "as"
      ],
      [
        "l",
        "p"
      ],
      [
        "m",
        "ent"
      ],
      [
        "Ġhe",
        "lp"
      ],
      [
        "Ġ",
        "le"
      ],
      [
        "us",
        "e"
      ],
      [
        "Ġb",
        "ut"
      ],
      [
        "Ġ",
        "k"
      ],
      [
        "Ġg",
        "et"
      ],
      [
        "Ġi",
        "f"
      ],
      [
        "on",
        "e"
      ],
      [
        "Ġa",
        "m"
      ],
      [
        "Ġg",
        "o"
      ],
      [
        "Ġ",
        "1"
      ],
      [
        "e",
        "ar"
      ],
      [
        "Ġd",
        "ay"
      ],
      [
        "Ġli",
        "ke"
      ],
      [
        "Ġan",
        "y"
      ],
      [
        "Ġ",
        "2"
      ],
      [
        "as",
        "t"
      ],
      [
        "r",
        "i"
      ],
      [
        ".\"}",
        "]}"
      ],
      [
        "o",
        "l"
      ],
      [
        "in",
        "e"
      ],
      [
        "th",
        "er"
      ],
      [
        "o",
        "re"
      ],
      [
        "s",
        "e"
      ],
      [
        "Ġha",
        "s"
      ],
      [
        "ul",
        "t"
      ],
      [
        "\"}",
        ","
      ],
      [
        "Ġha",
        "d"
      ],
      [
        "Ġin",
        "f"
      ],
      [
        "u",
        "re"
      ],
      [
        "er",
        "y"
      ],
      [
        "as",
        "e"
      ],
      [
        "Ġa",
        "t"
      ],
      [
        "ar",
        "t"
      ],
      [
        "Ġ",
        "A"
      ],
      [
        "Ġ",
        "v"
      ],
      [
        "s",
        "o"
      ],
      [
        "ro",
        "m"
      ],
      [
        "ti",
        "c"
      ],
      [
        "ver",
        "y"
      ],
      [
        "u",
        "e"
      ],
      [
        "Ġs",
        "p"
      ],
      [
        "f",
        "f"
      ],
      [
        "i",
        "l"
      ],
      [
        "u",
        "m"
      ],
      [
        "or",
        "m"
      ],
      [
        "H",
        "i"
      ],
      [
        "o",
        "p"
      ],
      [
        "Ġt",
        "reat"
      ],
      [
        "Ġne",
        "ed"
      ],
      [
        "Ġsh",
        "ould"
      ],
      [
        "Ġ",
        "("
      ],
      [
        "at",
        "e"
      ],
      [
        "Ġd",
        "is"
      ],
      [
        "Ġc",
        "om"
      ],
      [
        "Ġf",
        "rom"
      ],
      [
        "Ġw",
        "or"
      ],
      [
        "ou",
        "gh"
      ],
      [
        "Ġm",
        "ay"
      ],
      [
        "Ġs",
        "e"
      ],
      [
        "c",
        "er"
      ],
      [
        "Ġal",
        "so"
      ],
      [
        "ac",
        "k"
      ],
      [
        "Ġs",
        "ome"
      ],
      [
        "Ġf",
        "e"
      ],
      [
        "Ġw",
        "ould"
      ],
      [
        "an",
        "d"
      ],
      [
        "Ġa",
        "g"
      ],
      [
        "Ġs",
        "o"
      ],
      [
        "Ġs",
        "y"
      ],
      [
        "Ġth",
        "ere"
      ],
      [
        "k",
        "ing"
      ],
      [
        "er",
        "i"
      ],
      [
        "Ġb",
        "lo"
      ],
      [
        "Ġa",
        "ll"
      ],
      [
        "al",
        "ly"
      ],
      [
        "ic",
        "h"
      ],
      [
        "Ġa",
        "d"
      ],
      [
        "Ġqu",
        "ery"
      ],
      [
        "Ġd",
        "octor"
      ],
      [
        "Ġbe",
        "en"
      ],
      [
        "ĠI",
        "f"
      ],
      [
        "s",
        "s"
      ],
      [
        "ec",
        "tion"
      ],
      [
        "Ġt",
        "im"
      ],
      [
        "Ġm",
        "ed"
      ],
      [
        "han",
        "ks"
      ],
      [
        "Ġ",
        "j"
      ],
      [
        "Ġu",
        "nd"
      ],
      [
        "Ġy",
        "ear"
      ],
      [
        "Ġw",
        "e"
      ],
      [
        "e",
        "p"
      ],
      [
        "Ġwh",
        "ich"
      ],
      [
        "Ġa",
        "f"
      ],
      [
        "r",
        "y"
      ],
      [
        "Ġta",
        "ke"
      ],
      [
        "ot",
        "h"
      ],
      [
        "Ġt",
        "est"
      ],
      [
        "Ġp",
        "os"
      ],
      [
        "Ġn",
        "o"
      ],
      [
        "en",
        "d"
      ],
      [
        "Ġk",
        "n"
      ],
      [
        "Ġb",
        "y"
      ],
      [
        "u",
        "n"
      ],
      [
        "Ġ",
        "out"
      ],
      [
        "Ġf",
        "o"
      ],
      [
        "Ġthe",
        "n"
      ],
      [
        "ee",
        "l"
      ],
      [
        "Ġblo",
        "od"
      ],
      [
        "ĠI",
        "t"
      ],
      [
        "Ġaf",
        "ter"
      ],
      [
        "t",
        "om"
      ],
      [
        "Ġ",
        "M"
      ],
      [
        "g",
        "g"
      ],
      [
        "s",
        "ult"
      ],
      [
        "Ġ",
        "3"
      ],
      [
        "Ġw",
        "he"
      ],
      [
        "at",
        "ed"
      ],
      [
        "Ġf",
        "eel"
      ],
      [
        "Ġmed",
        "ic"
      ],
      [
        "e",
        "ct"
      ],
      [
        "Ġ",
        "S"
      ],
      [
        "es",
        "tion"
      ],
      [
        "Ġab",
        "out"
      ],
      [
        "Ġa",
        "c"
      ],
      [
        "ble",
        "m"
      ],
      [
        "Ġc",
        "he"
      ],
      [
        "id",
        "e"
      ],
      [
        "Ġpro",
        "blem"
      ],
      [
        "v",
        "ing"
      ],
      [
        "us",
        "t"
      ],
      [
        "g",
        "n"
      ],
      [
        "mp",
        "tom"
      ],
      [
        "Ġtreat",
        "ment"
      ],
      [
        "s",
        "w"
      ],
      [
        "Ġb",
        "ack"
      ],
      [
        "Ġsy",
        "mptom"
      ],
      [
        "Ġan",
        "sw"
      ],
      [
        "Ġ",
        "us"
      ],
      [
        "Ġc",
        "ont"
      ],
      [
        "ou",
        "nd"
      ],
      [
        "a",
        "b"
      ],
      [
        "ĠT",
        "he"
      ],
      [
        "Ġh",
        "er"
      ],
      [
        "r",
        "a"
      ],
      [
        "Ġinf",
        "ection"
      ],
      [
        "Ġn",
        "ow"
      ],
      [
        "Ġday",
        "s"
      ],
      [
        "or",
        "t"
      ],
      [
        "H",
        "ell"
      ],
      [
        "Ġw",
        "hat"
      ],
      [
        "Hell",
        "o"
      ],
      [
        "on",
        "g"
      ],
      [
        "Ġ",
        "very"
      ],
      [
        "Ġw",
        "ee"
      ],
      [
        "Ġcon",
        "cer"
      ],
      [
        "i",
        "ve"
      ],
      [
        "Ġwhe",
        "n"
      ],
      [
        "Ġconcer",
        "n"
      ],
      [
        "Ġd",
        "ue"
      ],
      [
        "ont",
        "h"
      ],
      [
        "Ġhe",
        "al"
      ],
      [
        "Ġu",
        "p"
      ],
      [
        "Ġs",
        "ee"
      ],
      [
        "Ġkn",
        "ow"
      ],
      [
        "Ġqu",
        "estion"
      ],
      [
        "it",
        "y"
      ],
      [
        "Ġsu",
        "gg"
      ],
      [
        "Ġsymptom",
        "s"
      ],
      [
        "Ġan",
        "ti"
      ],
      [
        "Ġm",
        "onth"
      ],
      [
        "Ġs",
        "he"
      ],
      [
        "h",
        "y"
      ],
      [
        "Ġansw",
        "er"
      ],
      [
        "ic",
        "al"
      ],
      [
        "Ġm",
        "ore"
      ],
      [
        "Ġ",
        "B"
      ],
      [
        "Ġf",
        "ur"
      ],
      [
        "orm",
        "al"
      ],
      [
        "Ġtim",
        "e"
      ],
      [
        "Ġfur",
        "ther"
      ],
      [
        "Ġre",
        "l"
      ],
      [
        "ou",
        "r"
      ],
      [
        "Ġc",
        "ould"
      ],
      [
        "al",
        "l"
      ],
      [
        "Ġca",
        "use"
      ],
      [
        "..",
        "."
      ],
      [
        ".\"}",
        ","
      ],
      [
        "s",
        "i"
      ],
      [
        "Ġ",
        "H"
      ],
      [
        "t",
        "ing"
      ],
      [
        "Ġre",
        "c"
      ],
      [
        "Ġd",
        "e"
      ],
      [
        "Ġad",
        "v"
      ],
      [
        "g",
        "e"
      ],
      [
        "ti",
        "ve"
      ],
      [
        "Ġgo",
        "od"
      ],
      [
        "Ġc",
        "l"
      ],
      [
        "Ġheal",
        "th"
      ],
      [
        "Ġd",
        "one"
      ],
      [
        "ou",
        "s"
      ],
      [
        "?",
        "\"},"
      ],
      [
        "ar",
        "d"
      ],
      [
        "re",
        "ss"
      ],
      [
        "lo",
        "g"
      ],
      [
        "Ġst",
        "art"
      ],
      [
        "a",
        "p"
      ],
      [
        "\"}",
        "]}"
      ],
      [
        "c",
        "y"
      ],
      [
        "n",
        "t"
      ],
      [
        "Ġa",
        "pp"
      ],
      [
        "Ġha",
        "ving"
      ],
      [
        "f",
        "t"
      ],
      [
        "Ġcon",
        "sult"
      ],
      [
        "v",
        "en"
      ],
      [
        "Ġa",
        "r"
      ],
      [
        "Ġcom",
        "p"
      ],
      [
        "Ġ",
        "5"
      ],
      [
        "Ġsugg",
        "est"
      ],
      [
        "Ġyear",
        "s"
      ],
      [
        "Ġs",
        "c"
      ],
      [
        "Ġn",
        "ormal"
      ],
      [
        "is",
        "e"
      ],
      [
        "Ġc",
        "h"
      ],
      [
        "ĠT",
        "hanks"
      ],
      [
        "i",
        "o"
      ],
      [
        "Ġbe",
        "c"
      ],
      [
        "Ġo",
        "ther"
      ],
      [
        "Ġj",
        "ust"
      ],
      [
        "h",
        "ing"
      ],
      [
        "os",
        "e"
      ],
      [
        "Ġs",
        "ur"
      ],
      [
        "Ġl",
        "o"
      ],
      [
        "ers",
        "t"
      ],
      [
        "os",
        "t"
      ],
      [
        "Ġ",
        "4"
      ],
      [
        "u",
        "c"
      ],
      [
        "Ġund",
        "erst"
      ],
      [
        "Ġo",
        "ld"
      ],
      [
        "it",
        "ion"
      ],
      [
        "in",
        "d"
      ],
      [
        "Ġca",
        "us"
      ],
      [
        "ic",
        "e"
      ],
      [
        "p",
        "er"
      ],
      [
        "or",
        "y"
      ],
      [
        "Ġre",
        "g"
      ],
      [
        "am",
        "in"
      ],
      [
        "ag",
        "e"
      ],
      [
        "Ġ",
        "C"
      ],
      [
        "ation",
        "s"
      ],
      [
        "m",
        "o"
      ],
      [
        "f",
        "ul"
      ],
      [
        "ag",
        "n"
      ],
      [
        "en",
        "s"
      ],
      [
        "Ġl",
        "ow"
      ],
      [
        "Ġr",
        "ight"
      ],
      [
        "Ġs",
        "w"
      ],
      [
        "it",
        "e"
      ],
      [
        "Ġpre",
        "gn"
      ],
      [
        "er",
        "g"
      ],
      [
        "Ġin",
        "c"
      ],
      [
        "Ġh",
        "is"
      ],
      [
        "Ġunderst",
        "and"
      ],
      [
        "Ġt",
        "w"
      ],
      [
        "Ġdi",
        "agn"
      ],
      [
        "Ġon",
        "e"
      ],
      [
        "Ġb",
        "r"
      ],
      [
        "Ġ",
        "."
      ],
      [
        "a",
        "ct"
      ],
      [
        "Ġ",
        "Ġ"
      ],
      [
        "l",
        "u"
      ],
      [
        "Ġth",
        "r"
      ],
      [
        "a",
        "use"
      ],
      [
        "ĠS",
        "o"
      ],
      [
        "Ġpos",
        "si"
      ],
      [
        "Ġp",
        "l"
      ],
      [
        "Ġu",
        "n"
      ],
      [
        "i",
        "f"
      ],
      [
        "Ġl",
        "ast"
      ],
      [
        "Ġthe",
        "y"
      ],
      [
        "le",
        "d"
      ],
      [
        "Ġpre",
        "s"
      ],
      [
        "Ġ",
        "-"
      ],
      [
        "Ġs",
        "ide"
      ],
      [
        "ul",
        "ar"
      ],
      [
        "han",
        "k"
      ],
      [
        "Ġo",
        "ver"
      ],
      [
        "os",
        "is"
      ],
      [
        "i",
        "a"
      ],
      [
        "Ġbe",
        "t"
      ],
      [
        "Ġha",
        "pp"
      ],
      [
        "Ġthe",
        "se"
      ],
      [
        "o",
        "id"
      ],
      [
        "n",
        "ess"
      ],
      [
        "Ġfo",
        "ll"
      ],
      [
        "am",
        "e"
      ],
      [
        "Ġmonth",
        "s"
      ],
      [
        "ar",
        "y"
      ],
      [
        "u",
        "mp"
      ],
      [
        "it",
        "is"
      ],
      [
        "Ġthr",
        "ough"
      ],
      [
        "i",
        "z"
      ],
      [
        "Ġca",
        "re"
      ],
      [
        "Ġon",
        "ly"
      ],
      [
        "i",
        "e"
      ],
      [
        "i",
        "ly"
      ],
      [
        "t",
        "s"
      ],
      [
        "o",
        "log"
      ],
      [
        "Ġle",
        "ft"
      ],
      [
        "Ġre",
        "p"
      ],
      [
        "i",
        "es"
      ],
      [
        "n",
        "e"
      ],
      [
        "Ġdis",
        "c"
      ],
      [
        "Ġdis",
        "e"
      ],
      [
        "d",
        "ition"
      ],
      [
        "ĠI",
        "n"
      ],
      [
        "Ġs",
        "ti"
      ],
      [
        "Ġm",
        "an"
      ],
      [
        "Ġp",
        "eri"
      ],
      [
        "t",
        "e"
      ],
      [
        "d",
        "om"
      ],
      [
        "Ġhe",
        "art"
      ],
      [
        "ff",
        "er"
      ],
      [
        "Ġs",
        "a"
      ],
      [
        "Ġ",
        "ur"
      ],
      [
        "Ġd",
        "a"
      ],
      [
        "n",
        "ing"
      ],
      [
        "Ġp",
        "hy"
      ],
      [
        "d",
        "er"
      ],
      [
        "re",
        "d"
      ],
      [
        "Ġwor",
        "ry"
      ],
      [
        "Ġche",
        "st"
      ],
      [
        "oth",
        "er"
      ],
      [
        "Ġm",
        "a"
      ],
      [
        "Ġs",
        "in"
      ],
      [
        "v",
        "ed"
      ],
      [
        "Ġi",
        "mp"
      ],
      [
        "c",
        "k"
      ],
      [
        "Ġex",
        "p"
      ],
      [
        "in",
        "k"
      ],
      [
[...]
