<pad>	0
<unk>	0
<bos>	0
<eos>	0
<user>	0
<assistant>	0
<system>	0
<mask>	0
▁t	-0
▁a	-1
in	-2
he	-3
on	-4
▁s	-5
re	-6
ou	-7
er	-8
▁c	-9
is	-10
or	-11
ha	-12
▁w	-13
▁b	-14
▁an	-15
▁m	-16
▁f	-17
▁the	-18
it	-19
▁d	-20
▁p	-21
en	-22
ing	-23
ti	-24
es	-25
▁I	-26
ed	-27
▁to	-28
▁and	-29
▁o	-30
▁y	-31
al	-32
▁you	-33
an	-34
▁in	-35
▁ha	-36
le	-37
▁n	-38
ve	-39
om	-40
▁of	-41
ar	-42
as	-43
at	-44
ll	-45
▁l	-46
▁is	-47
ic	-48
tion	-49
▁be	-50
▁g	-51
us	-52
ot	-53
hat	-54
▁re	-55
▁he	-56
ct	-57
ly	-58
▁e	-59
▁for	-60
▁i	-61
ro	-62
ay	-63
▁T	-64
▁th	-65
ld	-66
▁your	-67
▁have	-68
ent	-69
▁it	-70
et	-71
ow	-72
▁H	-73
id	-74
os	-75
▁h	-76
ur	-77
▁on	-78
▁my	-79
gh	-80
ul	-81
od	-82
ain	-83
ke	-84
▁con	-85
ver	-86
▁can	-87
ation	-88
ac	-89
ith	-90
▁C	-91
▁with	-92
▁D	-93
▁st	-94
ut	-95
▁A	-96
ould	-97
ctor	-98
▁or	-99
st	-100
..	-101
qu	-102
octor	-103
op	-104
ee	-105
mp	-106
▁that	-107
▁are	-108
th	-109
un	-110
ec	-111
▁as	-112
her	-113
ter	-114
▁li	-115
▁S	-116
▁r	-117
▁this	-118
▁not	-119
am	-120
ill	-121
ol	-122
est	-123
ome	-124
igh	-125
ood	-126
ble	-127
▁su	-128
out	-129
▁pain	-130
ad	-131
▁al	-132
ell	-133
han	-134
ce	-135
▁qu	-136
▁pro	-137
▁ne	-138
▁"	-139
ist	-140
ir	-141
▁ca	-142
ion	-143
res	-144
ch	-145
▁ta	-146
▁M	-147
ment	-148
ase	-149
▁me	-150
reat	-151
▁ex	-152
ight	-153
se	-154
pp	-155
im	-156
▁do	-157
▁wh	-158
▁di	-159
▁W	-160
▁Doctor	-161
▁ab	-162
use	-163
▁sh	-164
ks	-165
gn	-166
▁Chat	-167
ge	-168
il	-169
one	-170
▁fr	-171
ine	-172
▁will	-173
▁le	-174
▁k	-175
ear	-176
▁The	-177
der	-178
▁but	-179
lp	-180
▁was	-181
▁2	-182
ther	-183
▁get	-184
um	-185
▁1	-186
▁if	-187
so	-188
▁help	-189
ast	-190
ess	-191
▁am	-192
tic	-193
▁P	-194
nd	-195
▁un	-196
ult	-197
orm	-198
▁inf	-199
ore	-200
▁sy	-201
▁day	-202
▁like	-203
▁(	-204
▁any	-205
ff	-206
ri	-207
▁has	-208
art	-209
▁bl	-210
▁had	-211
▁v	-212
ery	-213
ure	-214
▁B	-215
▁at	-216
▁Y	-217
▁dis	-218
ate	-219
ue	-220
▁sp	-221
▁may	-222
very	-223
▁treat	-224
ally	-225
ough	-226
▁com	-227
▁from	-228
tom	-229
▁we	-230
cer	-231
▁Hi	-232
▁se	-233
▁need	-234
ant	-235
▁should	-236
▁also	-237
▁You	-238
▁wor	-239
up	-240
ope	-241
▁fe	-242
mptom	-243
og	-244
ra	-245
and	-246
▁de	-247
hen	-248
king	-249
▁per	-250
ack	-251
▁some	-252
ich	-253
▁symptom	-254
fter	-255
▁so	-256
ry	-257
edic	-258
ress	-259
▁all	-260
▁there	-261
▁ad	-262
▁been	-263
▁doctor	-264
▁If	-265
ect	-266
ection	-267
▁would	-268
▁pre	-269
▁query	-270
▁which	-271
sult	-272
hanks	-273
▁by	-274
▁j	-275
▁It	-276
ab	-277
▁tim	-278
▁year	-279
▁no	-280
▁F	-281
▁blood	-282
ated	-283
ide	-284
hy	-285
▁under	-286
red	-287
▁test	-288
all	-289
ost	-290
▁take	-291
▁kn	-292
eel	-293
ia	-294
▁-	-295
end	-296
▁out	-297
▁medic	-298
▁then	-299
gg	-300
▁after	-301
▁3	-302
▁ac	-303
ust	-304
▁treatment	-305
blem	-306
nt	-307
ound	-308
▁about	-309
▁problem	-310
▁us	-311
ving	-312
ity	-313
▁go	-314
▁che	-315
▁feel	-316
ort	-317
ive	-318
per	-319
estion	-320
▁symptoms	-321
▁L	-322
cy	-323
▁mon	-324
▁cont	-325
▁Hope	-326
▁back	-327
ong	-328
ormal	-329
sw	-330
ep	-331
▁infection	-332
▁her	-333
ical	-334
▁answ	-335
▁now	-336
▁G	-337
▁days	-338
lease	-339
▁ag	-340
▁E	-341
▁Hell	-342
▁heal	-343
▁O	-344
▁Hello	-345
▁N	-346
▁Thanks	-347
▁when	-348
▁what	-349
▁up	-350
hing	-351
▁wee	-352
▁due	-353
▁very	-354
▁know	-355
ition	-356
urther	-357
si	-358
ake	-359
▁cause	-360
ati	-361
▁see	-362
▁anti	-363
cern	-364
oll	-365
▁more	-366
ous	-367
▁concern	-368
▁month	-369
...	-370
▁question	-371
▁she	-372
oid	-373
ies	-374
ard	-375
▁rel	-376
our	-377
▁rec	-378
ft	-379
lu	-380
▁R	-381
▁sugg	-382
▁5	-383
▁time	-384
▁pos	-385
▁further	-386
▁could	-387
ven	-388
▁ch	-389
▁cl	-390
▁health	-391
▁other	-392
oc	-393
ind	-394
el	-395
ise	-396
▁In	-397
▁done	-398
▁ar	-399
amin	-400
▁app	-401
vel	-402
▁inc	-403
▁start	-404
act	-405
▁comp	-406
ary	-407
▁adv	-408
olog	-409
▁good	-410
ations	-411
gnos	-412
age	-413
▁having	-414
▁sc	-415
▁caus	-416
▁My	-417
▁years	-418
▁si	-419
uc	-420
▁normal	-421
▁bec	-422
▁consult	-423
dition	-424
▁dia	-425
ail	-426
ause	-427
▁sur	-428
▁4	-429
ory	-430
▁br	-431
ice	-432
▁suggest	-433
ens	-434
▁one	-435
▁just	-436
▁old	-437
itis	-438
ting	-439
if	-440
other	-441
ite	-442
ne	-443
▁diagnos	-444
ular	-445
▁these	-446
▁underst	-447
ose	-448
▁thr	-449
▁low	-450
mo	-451
▁Th	-452
▁dise	-453
ap	-454
▁sw	-455
▁pregn	-456
▁tw	-457
▁right	-458
▁.	-459
oth	-460
ful	-461
▁So	-462
▁pl	-463
able	-464
▁they	-465
▁his	-466
mon	-467
ness	-468
▁man	-469
▁understand	-470
io	-471
▁last	-472
yp	-473
ie	-474
▁reg	-475
▁answer	-476
▁foll	-477
▁pres	-478
▁possi	-479
▁over	-480
▁U	-481
▁side	-482
ily	-483
▁bet	-484
ince	-485
ffect	-486
▁through	-487
em	-488
ts	-489
ump	-490
▁condition	-491
ame	-492
▁care	-493
▁months	-494
▁This	-495
te	-496
▁heart	-497
ial	-498
▁rep	-499
▁only	-500
▁happ	-501
tim	-502
tive	-503
ile	-504
dom	-505
ild	-506
void	-507
erg	-508
▁disc	-509
▁ur	-510
▁imp	-511
▁left	-512
ved	-513
▁peri	-514
ves	-515
▁sa	-516
▁He	-517
▁don	-518
ink	-519
▁lo	-520
▁disease	-521
▁chan	-522
▁red	-523
▁chest	-524
ning	-525
ually	-526
▁da	-527
iotic	-528
▁than	-529
day	-530
▁im	-531
▁phy	-532
biotic	-533
ater	-534
▁worry	-535
come	-536
▁What	-537
▁its	-538
▁int	-539
▁sti	-540
ach	-541
▁op	-542
irst	-543
ms	-544
).	-545
les	-546
▁follow	-547
▁period	-548
▁because	-549
usc	-550
ici	-551
cri	-552
▁use	-553
▁6	-554
▁does	-555
▁ago	-556
▁mo	-557
ancy	-558
00	-559
sy	-560
▁pr	-561
▁en	-562
▁Take	-563
▁weeks	-564
ish	-565
▁res	-566
ody	-567
inal	-568
are	-569
ered	-570
ber	-571
▁taking	-572
cc	-573
▁surg	-574
rol	-575
iz	-576
▁kid	-577
▁still	-578
fore	-579
▁too	-580
▁cou	-581
▁examin	-582
way	-583
▁Please	-584
hes	-585
▁antibiotic	-586
kin	-587
atient	-588
▁week	-589
ag	-590
▁level	-591
....	-592
ree	-593
▁every	-594
▁musc	-595
▁te	-596
▁gen	-597
own	-598
ologist	-599
▁&	-600
▁,	-601
uch	-602
▁high	-603
▁how	-604
▁case	-605
ans	-606
▁got	-607
sist	-608
▁head	-609
▁patient	-610
▁well	-611
▁most	-612
▁det	-613
▁abdom	-614
row	-615
ction	-616
ak	-617
▁pregnancy	-618
▁fever	-619
▁body	-620
▁u	-621
▁please	-622
ating	-623
▁phys	-624
rap	-625
▁As	-626
ance	-627
▁press	-628
▁since	-629
▁few	-630
▁two	-631
▁cancer	-632
▁An	-633
▁co	-634
erm	-635
▁sm	-636
ig	-637
ung	-638
ases	-639
▁diff	-640
▁did	-641
ious	-642
▁mg	-643
▁better	-644
▁first	-645
ace	-646
ual	-647
▁cy	-648
▁such	-649
▁7	-650
lf	-651
ever	-652
▁whe	-653
▁tr	-654
▁suff	-655
ney	-656
▁who	-657
val	-658
▁food	-659
ud	-660
▁liver	-661
ond	-662
▁Al	-663
▁ear	-664
int	-665
▁him	-666
▁again	-667
▁sign	-668
ency	-669
▁area	-670
▁might	-671
▁gi	-672
▁hist	-673
▁before	-674
ray	-675
▁/	-676
▁typ	-677
fe	-678
▁occ	-679
ried	-680
▁possible	-681
▁?	-682
lud	-683
▁started	-684
ased	-685
▁pressure	-686
ip	-687
eop	-688
▁much	-689
▁lower	-690
▁answered	-691
ken	-692
▁even	-693
ass	-694
▁diagnosis	-695
▁down	-696
▁skin	-697
▁But	-698
▁breat	-699
▁long	-700
erc	-701
ron	-702
ck	-703
▁lump	-704
▁incre	-705
▁tests	-706
▁problems	-707
▁times	-708
▁result	-709
iting	-710
▁allerg	-711
▁think	-712
▁inj	-713
▁surgery	-714
ific	-715
▁inform	-716
▁dep	-717
▁advise	-718
crib	-719
▁kidney	-720
itt	-721
▁10	-722
▁history	-723
▁requ	-724
uring	-725
▁went	-726
omet	-727
▁getting	-728
rop	-729
ule	-730
▁give	-731
ib	-732
▁ind	-733
osis	-734
▁try	-735
ers	-736
▁nec	-737
ull	-738
ges	-739
ras	-740
▁wr	-741
elling	-742
▁hope	-743
▁causes	-744
▁acc	-745
ci	-746
▁common	-747
ital	-748
eople	-749
lam	-750
▁men	-751
thing	-752
▁many	-753
▁min	-754
▁comple	-755
rent	-756
▁loo	-757
▁cough	-758
▁gone	-759
ently	-760
pl	-761
▁leg	-762
▁examination	-763
▁def	-764
times	-765
▁helps	-766
ative	-767
▁want	-768
RI	-769
▁relie	-770
ord	-771
▁requi	-772
vere	-773
▁exerc	-774
▁information	-775
▁sex	-776
unction	-777
iss	-778
▁For	-779
ten	-780
▁said	-781
ien	-782
ren	-783
▁stress	-784
▁small	-785
tc	-786
ax	-787
▁age	-788
▁cle	-789
ines	-790
▁going	-791
▁There	-792
leep	-793
▁num	-794
▁using	-795
▁child	-796
ings	-797
▁spec	-798
▁work	-799
▁night	-800
▁suffer	-801
▁report	-802
▁people	-803
▁har	-804
▁proper	-805
▁find	-806
▁were	-807
▁severe	-808
low	-809
▁hur	-810
ys	-811
▁ner	-812
▁dr	-813
▁etc	-814
▁avoid	-815
▁ve	-816
▁cons	-817
ple	-818
▁diet	-819
▁includ	-820
▁sha	-821
▁stop	-822
▁hour	-823
▁check	-824
ick	-825
action	-826
▁show	-827
▁tooth	-828
iet	-829
▁How	-830
▁9	-831
elcome	-832
eth	-833
▁related	-834
▁ext	-835
requ	-836
til	-837
bs	-838
▁supp	-839
▁occur	-840
▁around	-841
▁po	-842
▁cell	-843
▁rule	-844
▁Is	-845
sych	-846
▁same	-847
▁ult	-848
▁affect	-849
▁vis	-850
bil	-851
▁remo	-852
ale	-853
▁Do	-854
▁detail	-855
ont	-856
ected	-857
▁She	-858
▁hy	-859
eg	-860
▁usually	-861
▁urine	-862
▁stom	-863
▁col	-864
lamm	-865
▁clin	-866
tig	-867
velop	-868
▁weight	-869
ician	-870
▁ask	-871
▁really	-872
ub	-873
▁sleep	-874
▁happy	-875
▁post	-876
▁feeling	-877
order	-878
▁antibiotics	-879
▁gr	-880
▁during	-881
▁effect	-882
ath	-883
rasound	-884
med	-885
▁frequ	-886
▁K	-887
▁daily	-888
atory	-889
tain	-890
vid	-891
▁conf	-892
▁them	-893
▁x	-894
▁ser	-895
▁develop	-896
▁stomach	-897
▁inter	-898
▁say	-899
omething	-900
li	-901
ason	-902
ER	-903
▁taken	-904
lo	-905
▁best	-906
▁prescrib	-907
osp	-908
▁something	-909
▁fat	-910
▁dec	-911
▁ke	-912
▁anx	-913
▁swelling	-914
▁both	-915
▁Welcome	-916
▁mor	-917
uation	-918
▁8	-919
iety	-920
▁sit	-921
▁stud	-922
cess	-923
▁though	-924
rect	-925
▁regular	-926
▁V	-927
▁exper	-928
eding	-929
▁Your	-930
▁complete	-931
▁ble	-932
▁abdomen	-933
▁pill	-934
vent	-935
▁bad	-936
▁medication	-937
▁par	-938
▁water	-939
ards	-940
▁20	-941
▁Wish	-942
ourse	-943
▁off	-944
▁contin	-945
▁flu	-946
ures	-947
▁assist	-948
▁found	-949
IN	-950
▁prot	-951
▁eval	-952
▁Let	-953
▁vir	-954
read	-955
▁sure	-956
▁ins	-957
▁part	-958
▁given	-959
vestig	-960
ave	-961
▁call	-962
▁medicine	-963
▁ov	-964
▁disorder	-965
econd	-966
xt	-967
▁ro	-968
▁past	-969
▁scan	-970
▁table	-971
▁lot	-972
▁seems	-973
▁reason	-974
▁patients	-975
▁psych	-976
▁lung	-977
otherap	-978
▁suffering	-979
▁str	-980
ove	-981
▁resp	-982
▁muscle	-983
ised	-984
▁sol	-985
▁helpful	-986
▁type	-987
▁while	-988
inion	-989
co	-990
▁bab	-991
▁Also	-992
ittle	-993
▁sens	-994
▁bre	-995
▁lead	-996
▁ultrasound	-997
omm	-998
▁investig	-999
▁count	-1000
str	-1001
▁opinion	-1002
we	-1003
▁Avoid	-1004
▁therap	-1005
.5	-1006
rs	-1007
▁neck	-1008
▁told	-1009
geon	-1010
normal	-1011
▁little	-1012
▁tra	-1013
ression	-1014
▁once	-1015
ze	-1016
0%	-1017
▁function	-1018
vail	-1019
ommend	-1020
▁medicines	-1021
ardi	-1022
ence	-1023
ues	-1024
outh	-1025
ces	-1026
▁hand	-1027
pper	-1028
▁recommend	-1029
▁morning	-1030
iat	-1031
ulation	-1032
▁MRI	-1033
ute	-1034
oma	-1035
its	-1036
▁used	-1037
▁cor	-1038
ma	-1039
hed	-1040
▁anxiety	-1041
vailable	-1042
▁Im	-1043
itive	-1044
ording	-1045
ty	-1046
▁cal	-1047
▁cer	-1048
▁where	-1049
▁hard	-1050
▁keep	-1051
son	-1052
ching	-1053
▁baby	-1054
▁smo	-1055
lt	-1056
▁dent	-1057
▁life	-1058
▁mouth	-1059
▁clinical	-1060
▁pregnant	-1061
▁And	-1062
▁anything	-1063
▁experien	-1064
▁Good	-1065
▁impro	-1066
▁wal	-1067
itamin	-1068
▁J	-1069
▁without	-1070
▁brain	-1071
▁way	-1072
▁compl	-1073
▁att	-1074
▁along	-1075
▁levels	-1076
▁control	-1077
▁mention	-1078
rom	-1079
uss	-1080
hal	-1081
▁ly	-1082
roid	-1083
self	-1084
▁mar	-1085
▁form	-1086
▁move	-1087
ments	-1088
otherapy	-1089
▁present	-1090
▁teeth	-1091
ways	-1092
▁son	-1093
av	-1094
▁second	-1095
▁make	-1096
▁upper	-1097
▁end	-1098
oub	-1099
▁diagnosed	-1100
▁cold	-1101
),	-1102
vity	-1103
etic	-1104
ately	-1105
▁diffe	-1106
▁come	-1107
▁into	-1108
▁causing	-1109
den	-1110
▁treated	-1111
▁bleeding	-1112
▁des	-1113
ied	-1114
▁loc	-1115
ool	-1116
▁rest	-1117
▁being	-1118
▁seen	-1119
▁nerve	-1120
ester	-1121
ced	-1122
▁sometimes	-1123
ospital	-1124
oss	-1125
??	-1126
uce	-1127
▁hours	-1128
▁medical	-1129
▁tell	-1130
▁needed	-1131
ones	-1132
▁relief	-1133
▁sever	-1134
▁oral	-1135
▁dont	-1136
▁es	-1137
▁kind	-1138
ology	-1139
▁jo	-1140
▁happen	-1141
▁fam	-1142
▁questions	-1143
ature	-1144
ugh	-1145
ption	-1146
iatr	-1147
▁confir	-1148
▁physical	-1149
▁iss	-1150
mple	-1151
▁twice	-1152
▁following	-1153
▁took	-1154
band	-1155
▁contact	-1156
2.	-1157
▁acid	-1158
▁called	-1159
pt	-1160
▁exp	-1161
▁read	-1162
▁physician	-1163
usband	-1164
▁Some	-1165
▁therapy	-1166
▁another	-1167
▁car	-1168
urn	-1169
1.	-1170
▁reco	-1171
▁away	-1172
▁doub	-1173
▁above	-1174
ade	-1175
▁nothing	-1176
▁cyst	-1177
rolog	-1178
▁caused	-1179
▁put	-1180
rome	-1181
ON	-1182
▁today	-1183
▁hospital	-1184
▁ey	-1185
▁according	-1186
ities	-1187
ral	-1188
▁X	-1189
▁bi	-1190
▁husband	-1191
▁next	-1192
▁ir	-1193
▁needs	-1194
▁possibil	-1195
ndrome	-1196
▁Dear	-1197
mun	-1198
ash	-1199
▁advice	-1200
▁manage	-1201
▁size	-1202
▁Reg	-1203
▁Any	-1204
▁Than	-1205
▁sal	-1206
ole	-1207
▁hi	-1208
▁look	-1209
▁cardi	-1210
▁painful	-1211
▁grow	-1212
▁ris	-1213
▁worried	-1214
▁injur	-1215
ros	-1216
▁15	-1217
▁three	-1218
▁inflamm	-1219
▁bone	-1220
ciated	-1221
▁TH	-1222
▁often	-1223
ling	-1224
▁concerns	-1225
▁thanks	-1226
▁Con	-1227
▁cases	-1228
ronic	-1229
▁prescribed	-1230
▁feels	-1231
ign	-1232
▁Wis	-1233
▁recently	-1234
▁cells	-1235
▁hair	-1236
hol	-1237
▁thro	-1238
▁25	-1239
▁pul	-1240
▁person	-1241
▁able	-1242
▁ele	-1243
▁anal	-1244
cop	-1245
eries	-1246
ock	-1247
adder	-1248
▁horm	-1249
▁gl	-1250
mph	-1251
▁bron	-1252
▁gu	-1253
atic	-1254
▁always	-1255
uck	-1256
▁diffic	-1257
tions	-1258
▁home	-1259
▁breath	-1260
▁clear	-1261
less	-1262
▁syndrome	-1263
ollen	-1264
▁neu	-1265
zy	-1266
har	-1267
▁details	-1268
fort	-1269
ream	-1270
▁Thank	-1271
▁exercise	-1272
▁bronch	-1273
TI	-1274
▁spine	-1275
▁el	-1276
▁tiss	-1277
▁doctors	-1278
▁family	-1279
▁fa	-1280
most	-1281
▁wel	-1282
▁However	-1283
ughter	-1284
▁available	-1285
▁main	-1286
▁ep	-1287
ox	-1288
▁sore	-1289
ises	-1290
▁met	-1291
▁gum	-1292
▁number	-1293
▁loss	-1294
▁medications	-1295
▁never	-1296
▁St	-1297
▁pen	-1298
urb	-1299
▁course	-1300
stem	-1301
arg	-1302
▁sl	-1303
▁visit	-1304
ions	-1305
ug	-1306
▁signs	-1307
▁gener	-1308
▁rad	-1309
▁early	-1310
uct	-1311
arm	-1312
als	-1313
▁headac	-1314
not	-1315
▁prevent	-1316
▁wa	-1317
▁mild	-1318
gen	-1319
▁welcome	-1320
▁fine	-1321
▁abnormal	-1322
▁notic	-1323
▁diab	-1324
▁viral	-1325
▁ref	-1326
▁different	-1327
▁discuss	-1328
▁fluid	-1329
ins	-1330
▁breast	-1331
▁bit	-1332
▁doing	-1333
▁ob	-1334
▁management	-1335
▁Now	-1336
men	-1337
▁healthy	-1338
▁system	-1339
▁hyper	-1340
▁less	-1341
rit	-1342
▁daughter	-1343
cohol	-1344
▁fem	-1345
▁appear	-1346
▁results	-1347
urrent	-1348
▁special	-1349
▁thing	-1350
▁injury	-1351
3.	-1352
▁weak	-1353
▁difficult	-1354
▁fo	-1355
ulti	-1356
▁12	-1357
▁study	-1358
▁tum	-1359
form	-1360
eep	-1361
▁AN	-1362
▁vitamin	-1363
▁asso	-1364
▁knee	-1365
▁throat	-1366
me	-1367
▁vom	-1368
EN	-1369
▁abdominal	-1370
▁queries	-1371
▁nod	-1372
ef	-1373
▁must	-1374
▁fl	-1375
▁surgeon	-1376
pec	-1377
▁pass	-1378
▁These	-1379
▁cyc	-1380
▁later	-1381
▁import	-1382
▁include	-1383
▁affected	-1384
ably	-1385
ors	-1386
▁eat	-1387
▁swollen	-1388
▁When	-1389
▁hem	-1390
▁require	-1391
ially	-1392
ween	-1393
▁prod	-1394
▁Since	-1395
ES	-1396
▁spot	-1397
▁dentist	-1398
▁After	-1399
▁effects	-1400
▁ma	-1401
▁mentioned	-1402
▁soon	-1403
▁Can	-1404
▁lymph	-1405
▁They	-1406
▁face	-1407
▁changes	-1408
bin	-1409
▁prob	-1410
ension	-1411
▁seem	-1412
▁improve	-1413
▁noticed	-1414
▁Wishing	-1415
▁likely	-1416
▁risk	-1417
▁important	-1418
▁rem	-1419
▁urin	-1420
▁short	-1421
▁cure	-1422
▁reduce	-1423
▁increase	-1424
▁depend	-1425
line	-1426
UR	-1427
▁neg	-1428
▁associated	-1429
ically	-1430
▁between	-1431
sth	-1432
▁stool	-1433
▁On	-1434
▁things	-1435
▁breathing	-1436
▁here	-1437
mia	-1438
▁trans	-1439
get	-1440
sthma	-1441
▁bur	-1442
▁gast	-1443
▁concerned	-1444
ner	-1445
▁almost	-1446
be	-1447
acter	-1448
▁les	-1449
ective	-1450
▁possibility	-1451
de	-1452
▁We	-1453
▁ass	-1454
▁free	-1455
▁chronic	-1456
▁var	-1457
▁answers	-1458
▁writing	-1459
aw	-1460
▁worse	-1461
▁came	-1462
uction	-1463
arge	-1464
▁removed	-1465
▁indic	-1466
▁white	-1467
▁bo	-1468
▁CT	-1469
▁comes	-1470
▁felt	-1471
▁med	-1472
▁relax	-1473
▁lip	-1474
ural	-1475
rot	-1476
ior	-1477
▁periods	-1478
nal	-1479
▁clar	-1480
▁Sh	-1481
▁dose	-1482
gar	-1483
ysis	-1484
rologist	-1485
▁dam	-1486
▁eff	-1487
▁em	-1488
yroid	-1489
▁run	-1490
▁pan	-1491
▁arm	-1492
▁alcohol	-1493
▁inv	-1494
OR	-1495
▁abs	-1496
▁ster	-1497
▁plan	-1498
▁cream	-1499
but	-1500
▁recovery	-1501
▁prote	-1502
ograp	-1503
▁No	-1504
▁within	-1505
yl	-1506
▁allergic	-1507
▁slight	-1508
▁serious	-1509
▁yrs	-1510
▁inflammation	-1511
▁legs	-1512
ither	-1513
▁conce	-1514
▁won	-1515
ired	-1516
▁tri	-1517
▁pains	-1518
▁exercises	-1519
▁ben	-1520
▁acti	-1521
▁confirm	-1522
ared	-1523
ang	-1524
▁provid	-1525
▁new	-1526
etes	-1527
ism	-1528
▁hot	-1529
ram	-1530
▁negative	-1531
▁means	-1532
▁addition	-1533
▁diseases	-1534
▁female	-1535
cription	-1536
▁pat	-1537
▁direct	-1538
▁asthma	-1539
the	-1540
▁evaluation	-1541
▁top	-1542
iness	-1543
▁factor	-1544
▁tou	-1545
▁tissue	-1546
▁radi	-1547
▁below	-1548
▁heav	-1549
▁rash	-1550
ract	-1551
▁bed	-1552
▁Best	-1553
▁hurts	-1554
▁frequency	-1555
▁required	-1556
ritis	-1557
▁near	-1558
▁full	-1559
ric	-1560
▁specialist	-1561
▁exc	-1562
▁defin	-1563
Doctor	-1564
▁inhal	-1565
ited	-1566
▁rare	-1567
athy	-1568
fen	-1569
▁continue	-1570
aining	-1571
atitis	-1572
▁penis	-1573
▁mother	-1574
▁numb	-1575
▁advised	-1576
oscop	-1577
▁accordingly	-1578
▁EC	-1579
▁temp	-1580
ian	-1581
▁fall	-1582
▁sugar	-1583
AN	-1584
▁hes	-1585
▁allergy	-1586
▁gall	-1587
tal	-1588
opsy	-1589
▁luck	-1590
▁rate	-1591
AL	-1592
▁nose	-1593
ized	-1594
▁dist	-1595
▁Consult	-1596
▁multi	-1597
az	-1598
▁All	-1599
▁injection	-1600
iciency	-1601
esterday	-1602
▁1.	-1603
▁conditions	-1604
▁mean	-1605
AT	-1606
▁become	-1607
YY	-1608
▁:	-1609
▁act	-1610
wh	-1611
▁non	-1612
▁why	-1613
▁bump	-1614
enter	-1615
my	-1616
▁30	-1617
▁infections	-1618
▁thin	-1619
▁evalu	-1620
▁thyroid	-1621
yn	-1622
▁local	-1623
cul	-1624
▁wis	-1625
▁immun	-1626
▁HI	-1627
inf	-1628
▁muscles	-1629
▁warm	-1630
▁bacter	-1631
arr	-1632
▁cannot	-1633
com	-1634
▁walk	-1635
▁investigations	-1636
AS	-1637
!!	-1638
▁Dr	-1639
ates	-1640
▁clarific	-1641
▁diz	-1642
▁Get	-1643
▁regard	-1644
▁hurt	-1645
▁their	-1646
▁occurs	-1647
▁persist	-1648
cent	-1649
-1	-1650
▁trying	-1651
omy	-1652
ider	-1653
itate	-1654
▁whether	-1655
ED	-1656
▁invol	-1657
4.	-1658
rp	-1659
▁examined	-1660
asis	-1661
▁ill	-1662
▁gets	-1663
cing	-1664
▁cardiac	-1665
iew	-1666
▁lim	-1667
▁asp	-1668
▁specific	-1669
▁couple	-1670
▁inside	-1671
▁active	-1672
▁ligh	-1673
▁either	-1674
▁ECG	-1675
ix	-1676
▁sub	-1677
ph	-1678
▁least	-1679
▁vomiting	-1680
▁fail	-1681
▁apply	-1682
▁positive	-1683
ount	-1684
▁change	-1685
tility	-1686
▁bladder	-1687
▁doesn	-1688
▁derm	-1689
▁several	-1690
▁asking	-1691
▁certain	-1692
time	-1693
▁mast	-1694
▁gene	-1695
▁tablet	-1696
ution	-1697
▁cant	-1698
▁thought	-1699
ready	-1700
cin	-1701
▁increased	-1702
▁Gen	-1703
amine	-1704
▁steroid	-1705
▁let	-1706
▁solved	-1707
▁based	-1708
▁mal	-1709
▁smoking	-1710
▁psychiatr	-1711
ped	-1712
▁pulmon	-1713
▁pills	-1714
▁biopsy	-1715
reen	-1716
alp	-1717
▁already	-1718
▁probably	-1719
▁foot	-1720
tern	-1721
rac	-1722
▁Ab	-1723
▁until	-1724
ife	-1725
▁100	-1726
▁root	-1727
OT	-1728
▁soft	-1729
▁goes	-1730
▁mid	-1731
▁rib	-1732
▁exact	-1733
ants	-1734
▁till	-1735
▁clot	-1736
▁ide	-1737
▁hesitate	-1738
▁shoulder	-1739
▁resol	-1740
▁block	-1741
▁mil	-1742
▁spread	-1743
▁sperm	-1744
▁fri	-1745
usion	-1746
▁stone	-1747
▁issues	-1748
▁supple	-1749
bl	-1750
▁list	-1751
▁Ne	-1752
▁pus	-1753
▁rout	-1754
▁gave	-1755
▁friend	-1756
▁hep	-1757
atologist	-1758
ted	-1759
▁nause	-1760
ni	-1761
▁completely	-1762
▁stand	-1763
▁headache	-1764
ING	-1765
▁org	-1766
itor	-1767
▁each	-1768
▁damage	-1769
▁cra	-1770
▁heavy	-1771
▁diabetes	-1772
▁clean	-1773
▁itch	-1774
▁underg	-1775
pecially	-1776
inus	-1777
utes	-1778
▁cycle	-1779
▁wrong	-1780
▁mostly	-1781
▁2.	-1782
▁situation	-1783
▁Sur	-1784
▁general	-1785
umb	-1786
▁says	-1787
ste	-1788
▁At	-1789
irth	-1790
▁Should	-1791
▁protein	-1792
▁Sometimes	-1793
▁aut	-1794
--	-1795
▁quite	-1796
tif	-1797
▁stage	-1798
▁enl	-1799
▁inher	-1800
onia	-1801
▁Regards	-1802
▁tumor	-1803
▁necess	-1804
▁follic	-1805
▁known	-1806
isod	-1807
ility	-1808
▁add	-1809
▁chances	-1810
▁fing	-1811
▁sud	-1812
ides	-1813
▁yesterday	-1814
medi	-1815
▁prog	-1816
kill	-1817
ography	-1818
oscopy	-1819
▁14	-1820
▁mm	-1821
▁prof	-1822
▁dischar	-1823
▁201	-1824
▁reports	-1825
▁fast	-1826
▁deficiency	-1827
▁checked	-1828
rox	-1829
▁father	-1830
▁AND	-1831
▁feet	-1832
▁experiencing	-1833
▁large	-1834
intment	-1835
▁ret	-1836
▁decre	-1837
▁tract	-1838
▁val	-1839
AR	-1840
▁tablets	-1841
▁sensation	-1842
▁tried	-1843
▁expl	-1844
▁else	-1845
ulture	-1846
▁sudden	-1847
▁male	-1848
▁joint	-1849
ng	-1850
▁cho	-1851
▁episod	-1852
uter	-1853
▁wonder	-1854
ons	-1855
▁treating	-1856
emia	-1857
uced	-1858
stant	-1859
eat	-1860
hea	-1861
▁Treat	-1862
▁routine	-1863
▁del	-1864
▁semen	-1865
air	-1866
old	-1867
▁90%	-1868
ange	-1869
▁cerv	-1870
▁Ive	-1871
iratory	-1872
▁reaction	-1873
▁App	-1874
▁bru	-1875
tice	-1876
▁ovulation	-1877
▁eating	-1878
▁bronchitis	-1879
▁tub	-1880
▁minutes	-1881
▁irrit	-1882
ains	-1883
▁dear	-1884
▁eye	-1885
▁proced	-1886
▁24	-1887
▁extre	-1888
ium	-1889
▁depression	-1890
▁doubts	-1891
▁masturb	-1892
▁wom	-1893
0.	-1894
▁safe	-1895
osing	-1896
▁burning	-1897
▁however	-1898
OU	-1899
▁birth	-1900
ongue	-1901
▁mass	-1902
▁meas	-1903
▁Then	-1904
▁ul	-1905
▁immedi	-1906
ening	-1907
▁physi	-1908
▁beg	-1909
▁clarifications	-1910
▁vag	-1911
▁wait	-1912
▁current	-1913
kes	-1914
ision	-1915
▁ten	-1916
▁excess	-1917
FT	-1918
▁half	-1919
▁tired	-1920
reg	-1921
▁...	-1922
▁fib	-1923
▁deep	-1924
inflamm	-1925
▁sinus	-1926
▁culture	-1927
▁attack	-1928
▁foods	-1929
▁Have	-1930
ps	-1931
▁tongue	-1932
ivid	-1933
▁itching	-1934
▁lab	-1935
▁especially	-1936
gesic	-1937
▁psychiatrist	-1938
▁ChatDoctor	-1939
▁complic	-1940
right	-1941
▁necessary	-1942
ister	-1943
▁continu	-1944
iti	-1945
ID	-1946
olic	-1947
▁ang	-1948
▁perform	-1949
ungal	-1950
▁IN	-1951
ividual	-1952
▁suggestion	-1953
▁Re	-1954
bal	-1955
-3	-1956
▁To	-1957
▁elev	-1958
IC	-1959
▁touch	-1960
▁path	-1961
ological	-1962
▁milk	-1963
▁growth	-1964
elv	-1965
▁chem	-1966
▁Other	-1967
▁ER	-1968
▁TO	-1969
▁our	-1970
▁respiratory	-1971
▁assess	-1972
▁working	-1973
▁Un	-1974
onal	-1975
neum	-1976
ina	-1977
▁hyp	-1978
▁developed	-1979
▁wife	-1980
▁amount	-1981
▁sick	-1982
▁ok	-1983
▁chance	-1984
▁stren	-1985
▁coming	-1986
▁discharge	-1987
▁ph	-1988
▁dys	-1989
▁Treatment	-1990
▁effective	-1991
▁hip	-1992
▁Could	-1993
▁sharp	-1994
▁thor	-1995
▁consider	-1996
▁lungs	-1997
▁ver	-1998
▁mod	-1999
▁doubt	-2000
▁interc	-2001
▁constant	-2002
▁painkill	-2003
▁fer	-2004
uber	-2005
▁light	-2006
▁illness	-2007
▁enough	-2008
though	-2009
▁BP	-2010
▁18	-2011
▁consulting	-2012
▁fac	-2013
▁11	-2014
▁looks	-2015
▁Don	-2016
▁additional	-2017
▁evaluated	-2018
▁Bl	-2019
omal	-2020
▁extreme	-2021
ches	-2022
▁point	-2023
▁issue	-2024
ather	-2025
▁sound	-2026
▁gums	-2027
ech	-2028
▁Not	-2029
▁lesion	-2030
ained	-2031
lect	-2032
▁air	-2033
▁nausea	-2034
▁cir	-2035
IS	-2036
▁Test	-2037
▁slow	-2038
▁sir	-2039
▁miss	-2040
▁anemia	-2041
▁stopped	-2042
▁sim	-2043
▁walking	-2044
▁200	-2045
ean	-2046
▁tight	-2047
▁analgesic	-2048
▁jaw	-2049
lic	-2050
ormally	-2051
▁fraction	-2052
▁infected	-2053
vious	-2054
ents	-2055
▁50%	-2056
TH	-2057
BC	-2058
▁hands	-2059
▁cha	-2060
▁individual	-2061
▁spinal	-2062
▁discom	-2063
▁fatty	-2064
fer	-2065
▁ulcer	-2066
▁fact	-2067
inflammatory	-2068
▁doc	-2069
wn	-2070
tial	-2071
▁discomfort	-2072
▁bro	-2073
LE	-2074
uff	-2075
▁Most	-2076
▁stones	-2077
▁ank	-2078
▁mut	-2079
ilar	-2080
▁delay	-2081
▁seiz	-2082
▁Kind	-2083
ark	-2084
view	-2085
▁intercourse	-2086
▁prescribe	-2087
zing	-2088
▁including	-2089
▁With	-2090
▁posting	-2091
roll	-2092
▁made	-2093
dle	-2094
uture	-2095
▁appre	-2096
▁Sy	-2097
▁tal	-2098
▁position	-2099
▁7.5	-2100
AC	-2101
▁Ch	-2102
▁weakness	-2103
▁enzy	-2104
no	-2105
▁cramp	-2106
ecause	-2107
▁definite	-2108
uled	-2109
ured	-2110
▁activity	-2111
▁cervical	-2112
▁sexual	-2113
▁bil	-2114
asm	-2115
ided	-2116
▁reasons	-2117
ticular	-2118
jac	-2119
▁name	-2120
itation	-2121
▁everything	-2122
▁3.	-2123
▁oper	-2124
▁whole	-2125
▁correct	-2126
EL	-2127
ropri	-2128
Thanks	-2129
app	-2130
▁pelv	-2131
▁giving	-2132
▁regularly	-2133
▁factors	-2134
▁ech	-2135
▁wondering	-2136
▁procedure	-2137
▁numbness	-2138
▁muc	-2139
▁failure	-2140
▁urinary	-2141
▁coun	-2142
.2.	-2143
arrhea	-2144
asal	-2145
ember	-2146
▁simple	-2147
▁eyes	-2148
▁bow	-2149
▁play	-2150
▁sus	-2151
▁multiple	-2152
▁great	-2153
cept	-2154
rofen	-2155
▁region	-2156
rown	-2157
.-	-2158
▁iron	-2159
▁bel	-2160
▁regarding	-2161
▁THE	-2162
▁stre	-2163
▁appears	-2164
▁AL	-2165
▁front	-2166
▁intake	-2167
▁suggested	-2168
▁16	-2169
▁lift	-2170
iry	-2171
ages	-2172
▁shows	-2173
▁respon	-2174
▁term	-2175
.....	-2176
▁eas	-2177
▁orth	-2178
▁coughing	-2179
▁creat	-2180
▁future	-2181
▁hab	-2182
bup	-2183
▁Us	-2184
akes	-2185
ergency	-2186
▁undergo	-2187
▁maintain	-2188
▁bot	-2189
▁those	-2190
neumonia	-2191
OM	-2192
▁er	-2193
▁alright	-2194
▁Pro	-2195
▁gastro	-2196
▁tab	-2197
▁process	-2198
▁monitor	-2199
▁fru	-2200
here	-2201
oster	-2202
▁hypert	-2203
▁ter	-2204
sel	-2205
▁tend	-2206
like	-2207
▁diagnose	-2208
▁turn	-2209
rain	-2210
▁appropri	-2211
▁close	-2212
▁fract	-2213
▁happens	-2214
gue	-2215
asia	-2216
▁7.5%	-2217
nia	-2218
▁Che	-2219
▁Its	-2220
▁describ	-2221
▁ra	-2222
▁tech	-2223
▁nat	-2224
ict	-2225
▁traum	-2226
▁stay	-2227
▁strong	-2228
12	-2229
▁gland	-2230
isc	-2231
▁meals	-2232
oup	-2233
itivity	-2234
thritis	-2235
▁treatments	-2236
ged	-2237
▁acute	-2238
▁diarrhea	-2239
buprofen	-2240
ending	-2241
▁combin	-2242
rup	-2243
while	-2244
▁hell	-2245
▁Further	-2246
opha	-2247
ex	-2248
raction	-2249
acks	-2250
-4	-2251
any	-2252
▁virus	-2253
▁showed	-2254
▁dermatologist	-2255
regular	-2256
▁useful	-2257
arent	-2258
ynec	-2259
▁Medic	-2260
▁mat	-2261
▁ting	-2262
jor	-2263
▁dairy	-2264
▁subs	-2265
▁hormone	-2266
ring	-2267
▁happened	-2268
▁frequent	-2269
▁surgical	-2270
wards	-2271
ressive	-2272
▁Because	-2273
ieve	-2274
acet	-2275
cre	-2276
cium	-2277
▁Yes	-2278
▁sitting	-2279
cl	-2280
▁place	-2281
▁mom	-2282
▁site	-2283
▁wish	-2284
▁areas	-2285
▁immediately	-2286
lying	-2287
ziness	-2288
▁properly	-2289
▁pi	-2290
▁similar	-2291
▁expos	-2292
▁dos	-2293
gien	-2294
full	-2295
amol	-2296
▁veget	-2297
▁elect	-2298
▁yourself	-2299
VE	-2300
▁mem	-2301
▁starting	-2302
ental	-2303
▁cr	-2304
uman	-2305
URL	-2306
▁pot	-2307
iv	-2308
▁HA	-2309
▁step	-2310
yle	-2311
RE	-2312
▁Be	-2313
▁13	-2314
ability	-2315
▁nut	-2316
osomal	-2317
.3.	-2318
azole	-2319
▁disorders	-2320
▁black	-2321
ype	-2322
▁own	-2323
opathy	-2324
▁bowel	-2325
▁hygien	-2326
▁complain	-2327
▁susp	-2328
▁hear	-2329
▁intest	-2330
ocy	-2331
▁tested	-2332
▁arter	-2333
▁prol	-2334
▁appropriate	-2335
▁slightly	-2336
▁compression	-2337
▁First	-2338
▁ure	-2339
▁total	-2340
▁hormonal	-2341
▁uter	-2342
can	-2343
▁ovar	-2344
man	-2345
hist	-2346
▁ves	-2347
▁major	-2348
▁vac	-2349
▁yet	-2350
▁chol	-2351
ched	-2352
arged	-2353
▁supplements	-2354
▁ant	-2355
tile	-2356
▁renal	-2357
oglo	-2358
▁solution	-2359
ediatr	-2360
▁difficulty	-2361
▁ever	-2362
▁50	-2363
▁elevated	-2364
▁kg	-2365
▁experience	-2366
▁Cl	-2367
▁movements	-2368
▁genetic	-2369
▁Blood	-2370
rection	-2371
▁Ad	-2372
tes	-2373
▁middle	-2374
▁definitely	-2375
▁Or	-2376
ints	-2377
▁relieve	-2378
▁streng	-2379
▁color	-2380
▁hello	-2381
lux	-2382
▁canal	-2383
▁becom	-2384
▁40	-2385
luc	-2386
▁ap	-2387
▁wat	-2388
what	-2389
tip	-2390
▁profile	-2391
▁emergency	-2392
▁didnt	-2393
▁hygiene	-2394
▁severity	-2395
niqu	-2396
acetamol	-2397
asing	-2398
oke	-2399
ising	-2400
SA	-2401
▁pulmonologist	-2402
ouble	-2403
▁mind	-2404
▁19	-2405
▁remove	-2406
▁fore	-2407
▁description	-2408
ubercul	-2409
▁mic	-2410
rence	-2411
mitt	-2412
▁yr	-2413
▁support	-2414
▁irregular	-2415
set	-2416
▁maybe	-2417
▁quick	-2418
▁IS	-2419
▁techniqu	-2420
▁ce	-2421
▁hepatitis	-2422
aking	-2423
▁arms	-2424
▁Well	-2425
icy	-2426
▁ejac	-2427
ward	-2428
xy	-2429
▁itchy	-2430
▁group	-2431
▁minute	-2432
▁cm	-2433
▁egg	-2434
.,	-2435
▁lif	-2436
▁Once	-2437
▁self	-2438
▁thorough	-2439
▁panic	-2440
▁fin	-2441
SG	-2442
ynecologist	-2443
▁lost	-2444
▁fati	-2445
▁takes	-2446
▁meds	-2447
▁pneumonia	-2448
▁plate	-2449
▁17	-2450
▁dizziness	-2451
▁leading	-2452
▁gir	-2453
▁dark	-2454
rin	-2455
ane	-2456
to	-2457
▁iden	-2458
▁beha	-2459
riend	-2460
▁ankle	-2461
▁guide	-2462
ables	-2463
▁green	-2464
▁ruled	-2465
of	-2466
▁drink	-2467
▁abscess	-2468
wise	-2469
▁didn	-2470
side	-2471
▁open	-2472
more	-2473
▁meth	-2474
▁prim	-2475
▁kidneys	-2476
▁earli	-2477
head	-2478
gger	-2479
▁Phy	-2480
▁menstr	-2481
▁conceive	-2482
▁movement	-2483
▁pull	-2484
▁Pl	-2485
▁upon	-2486
▁followed	-2487
prot	-2488
▁big	-2489
▁lay	-2490
estyle	-2491
ST	-2492
ization	-2493
▁cut	-2494
ob	-2495
▁enlarged	-2496
▁His	-2497
▁trauma	-2498
▁bacterial	-2499
▁commonly	-2500
▁identif	-2501
▁tender	-2502
▁various	-2503
▁Just	-2504
▁calcium	-2505
ume	-2506
▁Usually	-2507
▁analysis	-2508
ush	-2509
▁wisdom	-2510
-2	-2511
▁bal	-2512
▁sat	-2513
▁thigh	-2514
▁node	-2515
▁explain	-2516
▁real	-2517
▁sensitivity	-2518
ulmon	-2519
uberculosis	-2520
af	-2521
cular	-2522
▁Ex	-2523
mes	-2524
▁inherited	-2525
▁formation	-2526
▁fill	-2527
esterol	-2528
ok	-2529
▁2-3	-2530
▁Wh	-2531
oph	-2532
▁prost	-2533
▁serum	-2534
▁prov	-2535
▁myself	-2536
▁obstr	-2537
▁recommended	-2538
▁prescription	-2539
▁drug	-2540
▁nodes	-2541
▁Anti	-2542
▁combination	-2543
▁regards	-2544
▁far	-2545
▁healing	-2546
▁sun	-2547
uration	-2548
ize	-2549
▁That	-2550
▁organ	-2551
▁vegetables	-2552
racep	-2553
▁reflux	-2554
▁percent	-2555
orn	-2556
▁evening	-2557
▁Pain	-2558
▁aw	-2559
ird	-2560
▁harm	-2561
▁looking	-2562
▁spots	-2563
▁From	-2564
▁makes	-2565
fully	-2566
▁MY	-2567
allow	-2568
▁episodes	-2569
▁fruits	-2570
▁ple	-2571
▁spe	-2572
▁nasal	-2573
▁Par	-2574
bing	-2575
▁butt	-2576
oglobin	-2577
vir	-2578
▁excessive	-2579
▁particular	-2580
estive	-2581
▁masturbation	-2582
▁confirmed	-2583
▁rid	-2584
▁four	-2585
▁line	-2586
ration	-2587
then	-2588
ense	-2589
▁lesions	-2590
▁option	-2591
IL	-2592
▁starts	-2593
▁boy	-2594
▁wors	-2595
▁suggestions	-2596
▁colon	-2597
▁contracep	-2598
▁development	-2599
iction	-2600
und	-2601
▁salt	-2602
erature	-2603
▁making	-2604
▁complications	-2605
▁headaches	-2606
▁loose	-2607
opl	-2608
▁wound	-2609
▁finger	-2610
▁pediatr	-2611
protected	-2612
ident	-2613
▁aspir	-2614
▁Med	-2615
ellow	-2616
ker	-2617
ori	-2618
ema	-2619
aged	-2620
▁asked	-2621
▁findings	-2622
EC	-2623
▁removal	-2624
olar	-2625
PT	-2626
▁lifestyle	-2627
ances	-2628
▁break	-2629
UT	-2630
hyth	-2631
▁cop	-2632
par	-2633
▁Her	-2634
▁ml	-2635
ulmonary	-2636
▁OF	-2637
▁tingling	-2638
▁wear	-2639
▁saline	-2640
▁recur	-2641
▁shall	-2642
▁dry	-2643
▁obs	-2644
▁doesnt	-2645
▁bumps	-2646
▁vessel	-2647
bly	-2648
▁signific	-2649
▁liqu	-2650
▁controll	-2651
▁individuals	-2652
▁thank	-2653
ril	-2654
ging	-2655
▁..	-2656
▁symptomatic	-2657
▁idea	-2658
▁married	-2659
sible	-2660
▁shot	-2661
ping	-2662
▁sleeping	-2663
▁bite	-2664
ointment	-2665
▁itself	-2666
▁oil	-2667
▁normally	-2668
▁hig	-2669
▁Di	-2670
▁thinking	-2671
▁unprotected	-2672
▁options	-2673
ontin	-2674
▁orthop	-2675
▁prec	-2676
▁constip	-2677
▁hernia	-2678
▁wishes	-2679
▁hit	-2680
ored	-2681
by	-2682
▁listed	-2683
▁beat	-2684
▁Am	-2685
▁Human	-2686
▁Com	-2687
▁nerves	-2688
▁investigation	-2689
OD	-2690
Pl	-2691
▁young	-2692
▁Phen	-2693
▁underlying	-2694
▁hypertension	-2695
▁range	-2696
▁testing	-2697
▁echo	-2698
▁lumb	-2699
▁Kindly	-2700
▁currently	-2701
OW	-2702
stead	-2703
▁500	-2704
▁live	-2705
▁stro	-2706
▁pathology	-2707
▁previous	-2708
mentation	-2709
weight	-2710
▁Sp	-2711
▁depends	-2712
-5	-2713
▁pop	-2714
▁platele	-2715
▁order	-2716
che	-2717
▁lumps	-2718
▁woke	-2719
ler	-2720
▁scar	-2721
▁28	-2722
▁palp	-2723
▁bu	-2724
▁poly	-2725
▁children	-2726
▁neurologist	-2727
▁running	-2728
▁chee	-2729
▁bath	-2730
rophy	-2731
ogram	-2732
▁poor	-2733
▁behav	-2734
▁Try	-2735
otype	-2736
▁Symptom	-2737
▁benef	-2738
▁garg	-2739
bladder	-2740
▁enzymes	-2741
▁sn	-2742
▁diabetic	-2743
ET	-2744
▁ju	-2745
omin	-2746
▁inhaled	-2747
▁Abnormal	-2748
▁bacteria	-2749
▁reduced	-2750
ciate	-2751
▁fracture	-2752
OL	-2753
▁cat	-2754
▁actually	-2755
▁secondary	-2756
▁Inf	-2757
▁aspect	-2758
hind	-2759
▁provide	-2760
yst	-2761
▁fatigue	-2762
▁cur	-2763
▁dizzy	-2764
▁Le	-2765
▁includes	-2766
▁cholesterol	-2767
▁suggestive	-2768
▁refer	-2769
rel	-2770
raz	-2771
▁longer	-2772
▁Make	-2773
▁unc	-2774
▁late	-2775
▁review	-2776
▁exa	-2777
▁stat	-2778
▁arthritis	-2779
▁ache	-2780
tention	-2781
idered	-2782
▁activ	-2783
-6	-2784
▁repl	-2785
▁pal	-2786
▁4.	-2787
▁considered	-2788
▁significant	-2789
▁gel	-2790
pped	-2791
My	-2792
▁behind	-2793
fortable	-2794
▁Rec	-2795
▁natural	-2796
▁directly	-2797
essive	-2798
▁Ont	-2799
▁method	-2800
▁women	-2801
▁detailed	-2802
asion	-2803
▁spicy	-2804
▁antihist	-2805
▁IT	-2806
▁Deg	-2807
,,	-2808
upt	-2809
illin	-2810
cies	-2811
▁scared	-2812
▁ST	-2813
▁Available	-2814
▁techniques	-2815
▁fell	-2816
▁Ontology	-2817
▁Phenotype	-2818
▁flow	-2819
roxim	-2820
inine	-2821
▁believe	-2822
▁....	-2823
▁studied	-2824
▁someone	-2825
▁Based	-2826
sp	-2827
▁sort	-2828
▁Surgeon	-2829
▁understood	-2830
▁Ac	-2831
ym	-2832
▁PC	-2833
hoid	-2834
NT	-2835
▁lifting	-2836
ogen	-2837
▁resolve	-2838
▁benign	-2839
▁0	-2840
▁21	-2841
▁ed	-2842
racter	-2843
▁grad	-2844
ears	-2845
ubin	-2846
▁chemotherapy	-2847
lex	-2848
function	-2849
▁temperature	-2850
▁pattern	-2851
▁sch	-2852
▁infer	-2853
▁yellow	-2854
▁higher	-2855
oday	-2856
etite	-2857
▁fungal	-2858
▁gynecologist	-2859
▁init	-2860
▁TB	-2861
ergy	-2862
▁estim	-2863
▁increases	-2864
OP	-2865
orry	-2866
▁outside	-2867
▁pur	-2868
mor	-2869
osed	-2870
▁bottom	-2871
▁bul	-2872
ucing	-2873
▁pret	-2874
▁agg	-2875
▁parent	-2876
▁extremely	-2877
▁rece	-2878
ressed	-2879
▁product	-2880
kele	-2881
▁mental	-2882
▁plac	-2883
▁matter	-2884
▁z	-2885
ashes	-2886
▁rese	-2887
▁attacks	-2888
▁extraction	-2889
▁disturb	-2890
▁uterus	-2891
led	-2892
iver	-2893
▁notice	-2894
OS	-2895
▁Surg	-2896
▁exposure	-2897
▁tuberculosis	-2898
▁Hy	-2899
▁rather	-2900
▁One	-2901
ecti	-2902
▁bones	-2903
▁set	-2904
▁character	-2905
▁pin	-2906
▁cardiologist	-2907
▁allergies	-2908
.4.	-2909
▁appointment	-2910
ulate	-2911
▁exclud	-2912
ator	-2913
▁response	-2914
▁determ	-2915
▁circ	-2916
IT	-2917
erv	-2918
▁bas	-2919
▁ive	-2920
▁assessment	-2921
▁types	-2922
▁tes	-2923
▁pretty	-2924
▁SG	-2925
▁!	-2926
▁appreciate	-2927
▁Degree	-2928
▁Symptoms	-2929
▁generally	-2930
5.	-2931
▁talk	-2932
ession	-2933
TION	-2934
▁pri	-2935
zine	-2936
▁gallbladder	-2937
▁primary	-2938
▁happening	-2939
▁trouble	-2940
▁seizures	-2941
▁repeat	-2942
▁immune	-2943
▁ibuprofen	-2944
▁Even	-2945
▁begin	-2946
▁choosing	-2947
Plus	-2948
▁alot	-2949
▁stroke	-2950
▁gro	-2951
▁room	-2952
keletal	-2953
▁pred	-2954
▁appetite	-2955
▁Sir	-2956
alysis	-2957
▁meet	-2958
linePlus	-2959
▁MedlinePlus	-2960
▁Apply	-2961
▁helped	-2962
▁gas	-2963
ran	-2964
▁behavior	-2965
▁frequently	-2966
▁liquid	-2967
▁HY	-2968
▁imbal	-2969
▁reply	-2970
equ	-2971
erative	-2972
▁22	-2973
rat	-2974
▁perman	-2975
▁hurting	-2976
▁ice	-2977
▁vision	-2978
▁example	-2979
▁although	-2980
you	-2981
rosis	-2982
used	-2983
teb	-2984
▁WH	-2985
▁fi	-2986
mitted	-2987
▁FOR	-2988
▁topical	-2989
▁wash	-2990
▁Ult	-2991
▁prac	-2992
lication	-2993
▁stools	-2994
eated	-2995
▁consultation	-2996
▁physiotherapy	-2997
▁raised	-2998
▁mutations	-2999
arch	-3000
▁cramps	-3001
▁recover	-3002
▁yes	-3003
▁Use	-3004
rine	-3005
nce	-3006
▁subst	-3007
irubin	-3008
▁missed	-3009
▁hemat	-3010
▁monitoring	-3011
▁improvement	-3012
▁measures	-3013
orr	-3014
enty	-3015
▁syrup	-3016
plant	-3017
▁constipation	-3018
icillin	-3019
▁except	-3020
▁By	-3021
▁drin	-3022
▁malign	-3023
▁Mon	-3024
▁tension	-3025
▁smell	-3026
eanwhile	-3027
plasia	-3028
▁IV	-3029
AD	-3030
▁ES	-3031
▁adequ	-3032
▁respond	-3033
▁PFT	-3034
▁Care	-3035
▁thoughts	-3036
she	-3037
▁cry	-3038
▁increasing	-3039
▁dat	-3040
▁Keep	-3041
▁return	-3042
▁hemoglobin	-3043
▁orthopedic	-3044
ality	-3045
▁stra	-3046
▁duration	-3047
▁decrease	-3048
▁menstrual	-3049
▁exam	-3050
▁pe	-3051
ortion	-3052
▁prostate	-3053
▁seeing	-3054
▁tube	-3055
vi	-3056
▁bell	-3057
▁remember	-3058
▁syn	-3059
▁painkiller	-3060
▁needle	-3061
rizine	-3062
▁against	-3063
▁succ	-3064
ices	-3065
.2	-3066
gia	-3067
▁remed	-3068
geal	-3069
▁instead	-3070
▁fluids	-3071
▁radiation	-3072
▁cortic	-3073
▁kindly	-3074
▁others	-3075
▁becomes	-3076
when	-3077
▁steroids	-3078
▁impl	-3079
till	-3080
▁pulmonary	-3081
ascular	-3082
astic	-3083
aging	-3084
▁smoke	-3085
▁swallow	-3086
ny	-3087
▁unable	-3088
▁struct	-3089
aund	-3090
▁activities	-3091
ache	-3092
▁electro	-3093
ropathy	-3094
▁oxy	-3095
▁height	-3096
ross	-3097
▁ribs	-3098
▁event	-3099
icken	-3100
rays	-3101
ulin	-3102
gnosis	-3103
alth	-3104
rest	-3105
▁uncom	-3106
▁lumbar	-3107
▁Last	-3108
for	-3109
▁unless	-3110
ously	-3111
▁blo	-3112
▁squ	-3113
▁vagina	-3114
▁emp	-3115
razole	-3116
Chat	-3117
▁Does	-3118
▁joints	-3119
▁possibly	-3120
▁abnormalities	-3121
:1.	-3122
yrs	-3123
▁forum	-3124
▁provides	-3125
▁dust	-3126
▁dental	-3127
hib	-3128
▁cured	-3129
▁ointment	-3130
rological	-3131
▁sensitive	-3132
ENT	-3133
▁repeated	-3134
▁provided	-3135
▁antib	-3136
▁indicate	-3137
▁irritation	-3138
▁concent	-3139
ectious	-3140
▁towards	-3141
encies	-3142
▁groin	-3143
▁altern	-3144
▁reading	-3145
▁recent	-3146
▁degen	-3147
▁expect	-3148
▁looked	-3149
▁painkillers	-3150
▁leads	-3151
▁pelvic	-3152
▁transplant	-3153
riage	-3154
▁bleed	-3155
min	-3156
▁coll	-3157
▁fingers	-3158
▁Today	-3159
▁thick	-3160
▁pediatrician	-3161
▁brown	-3162
▁Ind	-3163
ensive	-3164
▁easily	-3165
▁feed	-3166
▁Chest	-3167
▁nature	-3168
eptic	-3169
▁involved	-3170
abies	-3171
▁moder	-3172
▁pow	-3173
▁swe	-3174
▁stab	-3175
▁clinic	-3176
▁shortness	-3177
▁depending	-3178
ouse	-3179
plete	-3180
▁grade	-3181
omp	-3182
eb	-3183
▁rupt	-3184
▁tempor	-3185
where	-3186
▁six	-3187
stand	-3188
▁inner	-3189
▁girl	-3190
rason	-3191
6.	-3192
▁Genetic	-3193
▁gluc	-3194
▁muscular	-3195
▁standing	-3196
atures	-3197
rate	-3198
▁success	-3199
AY	-3200
▁tissues	-3201
▁occasion	-3202
▁af	-3203
▁sk	-3204
erous	-3205
▁cent	-3206
▁Pre	-3207
ils	-3208
oo	-3209
▁ENT	-3210
active	-3211
▁5.	-3212
▁ChatDoctorI	-3213
▁sing	-3214
roph	-3215
▁infertility	-3216
▁rough	-3217
gester	-3218
▁answering	-3219
▁motion	-3220
▁passed	-3221
▁rich	-3222
▁partner	-3223
▁experienced	-3224
▁autosomal	-3225
odil	-3226
▁rele	-3227
▁belly	-3228
rief	-3229
▁psychotherapy	-3230
▁foc	-3231
▁earlier	-3232
▁gotten	-3233
▁cord	-3234
▁inflammatory	-3235
CT	-3236
hood	-3237
▁minim	-3238
isf	-3239
ometri	-3240
▁pump	-3241
▁recessive	-3242
ential	-3243
▁23	-3244
▁stiff	-3245
ries	-3246
▁ESR	-3247
▁lack	-3248
▁link	-3249
▁changed	-3250
▁sister	-3251
▁ovarian	-3252
gesterone	-3253
▁HelloThanks	-3254
pe	-3255
▁center	-3256
rod	-3257
▁obstruction	-3258
inc	-3259
rible	-3260
▁wall	-3261
▁recurrent	-3262
aundice	-3263
ified	-3264
▁super	-3265
▁ideas	-3266
▁emb	-3267
▁wrist	-3268
▁imbalance	-3269
please	-3270
▁status	-3271
▁mucus	-3272
▁vaginal	-3273
▁pack	-3274
▁plus	-3275
urs	-3276
terior	-3277
▁dysfunction	-3278
hyroid	-3279
▁append	-3280
▁60	-3281
▁follicles	-3282
▁orig	-3283
ecre	-3284
tics	-3285
▁Are	-3286
opath	-3287
gestion	-3288
assi	-3289
▁Day	-3290
▁studies	-3291
▁possibilities	-3292
LY	-3293
bow	-3294
▁ON	-3295
▁3-4	-3296
▁hold	-3297
ived	-3298
▁cysts	-3299
▁En	-3300
▁dil	-3301
▁vessels	-3302
▁straight	-3303
ible	-3304
▁controlled	-3305
aria	-3306
▁brother	-3307
eral	-3308
oot	-3309
▁operation	-3310
▁Abnormality	-3311
▁HE	-3312
▁dog	-3313
▁otherwise	-3314
▁lots	-3315
cep	-3316
▁HER	-3317
▁injections	-3318
rim	-3319
roscop	-3320
▁gives	-3321
▁genital	-3322
▁Hep	-3323
▁advis	-3324
▁accident	-3325
▁organs	-3326
▁suggests	-3327
▁Till	-3328
▁energy	-3329
▁May	-3330
▁defect	-3331
▁Res	-3332
▁slowly	-3333
▁containing	-3334
▁hypot	-3335
▁bruise	-3336
▁cap	-3337
▁nerv	-3338
▁habit	-3339
romy	-3340
▁parts	-3341
icient	-3342
▁creatinine	-3343
▁saw	-3344
▁write	-3345
AM	-3346
▁features	-3347
▁presence	-3348
▁stret	-3349
▁kne	-3350
▁requires	-3351
▁satisf	-3352
▁disapp	-3353
▁terms	-3354
▁advisable	-3355
now	-3356
▁burn	-3357
uke	-3358
▁paracetamol	-3359
▁finding	-3360
▁sent	-3361
▁USG	-3362
▁26	-3363
▁Ly	-3364
▁glad	-3365
▁cheek	-3366
▁dang	-3367
▁rever	-3368
▁suddenly	-3369
▁complex	-3370
▁inherit	-3371
cal	-3372
▁identify	-3373
rition	-3374
▁conception	-3375
▁strengthen	-3376
""	-3377
nis	-3378
ula	-3379
-7	-3380
▁compress	-3381
▁fix	-3382
rasonography	-3383
▁job	-3384
▁send	-3385
▁Will	-3386
▁27	-3387
▁rashes	-3388
resh	-3389
aster	-3390
▁calm	-3391
▁five	-3392
hyl	-3393
▁erection	-3394
▁nervous	-3395
GH	-3396
▁han	-3397
TS	-3398
▁conc	-3399
▁state	-3400
treat	-3401
▁Phys	-3402
▁conn	-3403
▁Tab	-3404
dep	-3405
▁BE	-3406
▁Many	-3407
▁dull	-3408
▁oxygen	-3409
▁gastroenter	-3410
ished	-3411
▁application	-3412
utum	-3413
apid	-3414
▁testic	-3415
▁suffered	-3416
zed	-3417
▁UR	-3418
1)	-3419
oun	-3420
▁Per	-3421
▁AM	-3422
▁HAVE	-3423
▁hence	-3424
US	-3425
▁internal	-3426
LD	-3427
▁woman	-3428
▁gradually	-3429
▁deal	-3430
▁bronchodil	-3431
▁35	-3432
▁spasm	-3433
▁elbow	-3434
▁plenty	-3435
▁inhib	-3436
▁Bet	-3437
▁snee	-3438
▁PR	-3439
▁mood	-3440
ophageal	-3441
rav	-3442
immun	-3443
UL	-3444
bility	-3445
▁school	-3446
▁duct	-3447
biotics	-3448
▁persists	-3449
ateral	-3450
reb	-3451
▁minor	-3452
▁obes	-3453
itations	-3454
osteroid	-3455
The	-3456
mic	-3457
lofen	-3458
▁scrot	-3459
uctive	-3460
▁episode	-3461
▁attention	-3462
▁DO	-3463
▁antif	-3464
rhyth	-3465
▁consulted	-3466
unk	-3467
▁instr	-3468
▁collect	-3469
▁grand	-3470
▁pancre	-3471
▁replace	-3472
▁condom	-3473
amines	-3474
???	-3475
BS	-3476
▁Under	-3477
ollow	-3478
▁follicle	-3479
▁whee	-3480
▁cycles	-3481
acid	-3482
▁feature	-3483
astro	-3484
▁permanent	-3485
▁involve	-3486
▁build	-3487
aly	-3488
▁Sign	-3489
▁metab	-3490
▁Second	-3491
▁neur	-3492
▁consist	-3493
▁blister	-3494
▁GP	-3495
ational	-3496
▁alone	-3497
▁scrat	-3498
friend	-3499
▁prior	-3500
▁mig	-3501
ned	-3502
▁scalp	-3503
▁gastritis	-3504
▁glucose	-3505
ths	-3506
aste	-3507
▁Here	-3508
▁guid	-3509
▁ing	-3510
▁ejaculation	-3511
round	-3512
iday	-3513
▁UTI	-3514
oga	-3515
▁sac	-3516
▁Start	-3517
▁Medical	-3518
raid	-3519
▁analgesics	-3520
▁Hyper	-3521
vention	-3522
▁artery	-3523
▁mill	-3524
▁fear	-3525
▁angi	-3526
▁cover	-3527
▁toget	-3528
▁examine	-3529
sc	-3530
▁Dia	-3531
▁vacc	-3532
ds	-3533
▁sweat	-3534
▁lately	-3535
▁together	-3536
room	-3537
erms	-3538
▁passing	-3539
▁affects	-3540
▁redness	-3541
▁electroly	-3542
oimmun	-3543
lor	-3544
▁tre	-3545
ulos	-3546
▁products	-3547
aps	-3548
which	-3549
▁Signs	-3550
▁psychological	-3551
▁single	-3552
ics	-3553
▁enlarge	-3554
▁perf	-3555
▁Low	-3556
▁tip	-3557
▁exclude	-3558
▁bilirubin	-3559
▁cavity	-3560
anced	-3561
▁subside	-3562
▁ME	-3563
▁steps	-3564
▁corticosteroid	-3565
▁Health	-3566
▁date	-3567
▁ears	-3568
itary	-3569
▁45	-3570
▁expert	-3571
▁described	-3572
SH	-3573
▁usual	-3574
▁became	-3575
▁follows	-3576
▁nar	-3577
ote	-3578
ules	-3579
▁domin	-3580
▁facts	-3581
ipp	-3582
au	-3583
▁lig	-3584
▁acne	-3585
▁motility	-3586
▁NOT	-3587
▁mainly	-3588
lied	-3589
▁basis	-3590
urance	-3591
▁investigated	-3592
lessness	-3593
▁afraid	-3594
▁boyfriend	-3595
ilep	-3596
▁kill	-3597
lofenac	-3598
▁quit	-3599
after	-3600
▁habits	-3601
▁lose	-3602
HP	-3603
stic	-3604
▁max	-3605
▁contraceptive	-3606
▁neurological	-3607
▁percentage	-3608
▁memory	-3609
▁broken	-3610
▁drinking	-3611
▁resolved	-3612
▁breathe	-3613
just	-3614
▁contains	-3615
▁parents	-3616
▁adequate	-3617
.5.	-3618
iclofenac	-3619
▁Clin	-3620
▁anest	-3621
▁verteb	-3622
▁delayed	-3623
oriasis	-3624
▁guidance	-3625
▁fit	-3626
▁jaundice	-3627
▁extra	-3628
▁inheritance	-3629
assium	-3630
ank	-3631
▁kids	-3632
oimmune	-3633
▁practice	-3634
▁fet	-3635
▁sides	-3636
▁rapid	-3637
ru	-3638
apse	-3639
standing	-3640
▁ball	-3641
▁urg	-3642
▁genes	-3643
▁Go	-3644
arily	-3645
▁haven	-3646
▁indicates	-3647
▁prefer	-3648
idney	-3649
▁base	-3650
PH	-3651
icial	-3652
soriasis	-3653
▁doses	-3654
▁dominant	-3655
▁allow	-3656
▁view	-3657
ONE	-3658
▁antis	-3659
vitamin	-3660
▁throughout	-3661
▁Neu	-3662
▁0.	-3663
▁pls	-3664
eared	-3665
▁aches	-3666
▁implant	-3667
▁Ap	-3668
▁YOU	-3669
▁friends	-3670
▁determine	-3671
▁fresh	-3672
rum	-3673
▁rub	-3674
▁typically	-3675
▁RE	-3676
▁29	-3677
▁relaxant	-3678
▁colle	-3679
▁Ultrasound	-3680
ators	-3681
▁pelvis	-3682
na	-3683
▁developing	-3684
▁Aut	-3685
hin	-3686
▁seizure	-3687
▁mark	-3688
▁inhaler	-3689
Al	-3690
rogen	-3691
▁sorry	-3692
andom	-3693
▁heat	-3694
oce	-3695
rowing	-3696
In	-3697
▁aspiration	-3698
tle	-3699
▁abnormality	-3700
▁house	-3701
ograph	-3702
▁Nothing	-3703
AIN	-3704
▁SGPT	-3705
▁chrom	-3706
enosis	-3707
▁urination	-3708
▁URL	-3709
▁bother	-3710
uloskeletal	-3711
▁overweight	-3712
hosis	-3713
▁Dise	-3714
▁lear	-3715
▁den	-3716
▁growing	-3717
▁Met	-3718
▁balance	-3719
▁chemical	-3720
▁drugs	-3721
▁chemo	-3722
omb	-3723
▁ovary	-3724
▁pad	-3725
▁plz	-3726
▁AD	-3727
▁OR	-3728
▁accum	-3729
otherapist	-3730
▁hormones	-3731
heral	-3732
▁showing	-3733
▁sputum	-3734
▁wake	-3735
▁pulse	-3736
▁worsen	-3737
▁bile	-3738
▁endometri	-3739
erol	-3740
▁deg	-3741
▁tightness	-3742
▁progesterone	-3743
▁fiber	-3744
▁forward	-3745
aving	-3746
▁carefully	-3747
tered	-3748
▁sperms	-3749
bul	-3750
▁bend	-3751
▁antifungal	-3752
▁Int	-3753
▁pha	-3754
stit	-3755
▁whenever	-3756
▁immunity	-3757
▁SH	-3758
unt	-3759
▁tons	-3760
▁GI	-3761
▁pound	-3762
........	-3763
kn	-3764
▁toe	-3765
▁adult	-3766
▁dialysis	-3767
▁evaluate	-3768
ining	-3769
▁veins	-3770
▁lipid	-3771
overed	-3772
▁saliv	-3773
▁sched	-3774
CH	-3775
▁stim	-3776
▁Main	-3777
ectomy	-3778
hyd	-3779
▁saying	-3780
▁decreased	-3781
▁choice	-3782
▁wanted	-3783
▁constantly	-3784
enol	-3785
▁tin	-3786
ources	-3787
▁strain	-3788
▁moving	-3789
odies	-3790
▁About	-3791
pes	-3792
▁carry	-3793
▁resist	-3794
▁impair	-3795
.1.	-3796
-10	-3797
▁swell	-3798
ier	-3799
▁hematoma	-3800
seling	-3801
▁platelet	-3802
▁gain	-3803
▁origin	-3804
ontinue	-3805
▁hrs	-3806
▁ste	-3807
onary	-3808
▁unlike	-3809
arding	-3810
▁stuff	-3811
3)	-3812
▁progressive	-3813
▁began	-3814
▁dri	-3815
VER	-3816
▁progress	-3817
▁Furthermore	-3818
▁ligam	-3819
▁calcul	-3820
▁inflam	-3821
▁bigger	-3822
▁cage	-3823
▁moderate	-3824
leg	-3825
tirizine	-3826
▁Dep	-3827
▁appro	-3828
▁beta	-3829
▁onset	-3830
▁palpitations	-3831
▁misc	-3832
▁CBC	-3833
cking	-3834
▁cond	-3835
▁cost	-3836
▁vein	-3837
▁knees	-3838
▁Oral	-3839
urop	-3840
▁Surgery	-3841
20	-3842
▁stenosis	-3843
▁People	-3844
▁arrhyth	-3845
amet	-3846
▁pict	-3847
▁proteins	-3848
▁tear	-3849
▁spotting	-3850
▁uncomfortable	-3851
tire	-3852
izing	-3853
▁juice	-3854
▁nutrition	-3855
rd	-3856
▁collected	-3857
racted	-3858
▁childhood	-3859
▁pulled	-3860
▁complaints	-3861
▁leaf	-3862
▁research	-3863
▁Feel	-3864
▁random	-3865
▁sweating	-3866
une	-3867
▁havent	-3868
▁facing	-3869
▁""	-3870
▁micro	-3871
▁thrice	-3872
con	-3873
▁hor	-3874
▁persistent	-3875
▁complaint	-3876
▁75	-3877
▁Meanwhile	-3878
▁bring	-3879
▁soc	-3880
10	-3881
▁limb	-3882
▁nearby	-3883
▁Only	-3884
▁deli	-3885
aces	-3886
ugg	-3887
mples	-3888
▁inches	-3889
over	-3890
▁sample	-3891
heum	-3892
▁values	-3893
▁performed	-3894
▁CAN	-3895
▁Although	-3896
sh	-3897
tia	-3898
▁continued	-3899
▁tumors	-3900
Don	-3901
ills	-3902
essions	-3903
▁travel	-3904
▁rise	-3905
▁HERD	-3906
:-	-3907
AB	-3908
▁congestion	-3909
▁seek	-3910
▁dosage	-3911
▁cyt	-3912
▁est	-3913
▁inte	-3914
vice	-3915
known	-3916
▁scrotum	-3917
▁perfect	-3918
▁exactly	-3919
AK	-3920
ying	-3921
▁urologist	-3922
▁Cancer	-3923
▁detected	-3924
▁vaccine	-3925
▁amox	-3926
▁thromb	-3927
▁reducing	-3928
entation	-3929
lox	-3930
noon	-3931
▁supplement	-3932
▁enlargement	-3933
▁Follow	-3934
▁lotion	-3935
▁More	-3936
▁evid	-3937
▁od	-3938
▁lev	-3939
▁ven	-3940
▁seb	-3941
▁migrain	-3942
ined	-3943
ites	-3944
eration	-3945
rhosis	-3946
ony	-3947
▁guess	-3948
▁Approxim	-3949
▁90	-3950
▁Had	-3951
▁entire	-3952
mature	-3953
▁weigh	-3954
▁sufficient	-3955
▁oily	-3956
▁describe	-3957
▁lbs	-3958
▁decided	-3959
ophag	-3960
▁waiting	-3961
▁everyday	-3962
▁endoscopy	-3963
▁Every	-3964
▁role	-3965
▁suspect	-3966
▁80	-3967
▁Both	-3968
▁High	-3969
▁prognosis	-3970
▁musculoskeletal	-3971
aceous	-3972
depress	-3973
▁hearing	-3974
▁potassium	-3975
▁surf	-3976
itions	-3977
▁restr	-3978
▁playing	-3979
▁Diab	-3980
▁applied	-3981
▁estimate	-3982
▁patches	-3983
▁moment	-3984
▁Psych	-3985
▁lap	-3986
It	-3987
ergic	-3988
morrow	-3989
▁round	-3990
▁Need	-3991
ITH	-3992
lytic	-3993
▁glands	-3994
▁unlikely	-3995
▁miscar	-3996
000	-3997
▁Pos	-3998
▁During	-3999
▁dad	-4000
▁caps	-4001
iving	-4002
▁prolong	-4003
▁typhoid	-4004
▁fain	-4005
▁brief	-4006
▁aggrav	-4007
▁relieved	-4008
.)	-4009
▁Still	-4010
▁metast	-4011
▁keeps	-4012
▁tubes	-4013
▁Hyp	-4014
▁facial	-4015
yur	-4016
▁mens	-4017
▁ulcers	-4018
▁Due	-4019
▁nor	-4020
▁Europ	-4021
▁ess	-4022
▁relaxed	-4023
▁discussing	-4024
▁smoker	-4025
▁flat	-4026
▁fully	-4027
▁tomorrow	-4028
▁continuous	-4029
CV	-4030
▁Se	-4031
▁heard	-4032
▁intra	-4033
ronch	-4034
▁Function	-4035
▁Regarding	-4036
▁Much	-4037
NA	-4038
▁neuropathy	-4039
▁lying	-4040
▁expected	-4041
▁strength	-4042
how	-4043
oney	-4044
▁location	-4045
▁48	-4046
▁insurance	-4047
▁replacement	-4048
▁leafy	-4049
idazole	-4050
EG	-4051
EST	-4052
▁meal	-4053
esides	-4054
▁marrow	-4055
▁seemed	-4056
▁wheezing	-4057
----	-4058
▁copy	-4059
▁inser	-4060
ulitis	-4061
▁counter	-4062
▁produce	-4063
▁unknown	-4064
▁sod	-4065
▁forget	-4066
▁contacting	-4067
▁ye	-4068
▁secre	-4069
▁turned	-4070
▁posture	-4071
25	-4072
▁production	-4073
NAC	-4074
itting	-4075
▁taste	-4076
▁remain	-4077
with	-4078
OUR	-4079
▁ureter	-4080
▁undergone	-4081
▁intestinal	-4082
omas	-4083
▁webs	-4084
▁bruising	-4085
▁complaining	-4086
▁band	-4087
▁stent	-4088
▁sessions	-4089
▁Disease	-4090
▁seconds	-4091
doctor	-4092
▁death	-4093
▁AS	-4094
▁flo	-4095
▁ovaries	-4096
▁talking	-4097
▁ach	-4098
mer	-4099
▁Ar	-4100
ushing	-4101
ulated	-4102
▁wants	-4103
▁initial	-4104
▁prop	-4105
istry	-4106
▁leave	-4107
▁remains	-4108
oy	-4109
▁)	-4110
ets	-4111
ylenol	-4112
▁gastric	-4113
▁bloating	-4114
▁afternoon	-4115
▁chew	-4116
▁autoimmune	-4117
oli	-4118
▁release	-4119
▁dangerous	-4120
▁emo	-4121
▁pig	-4122
▁works	-4123
▁confirmation	-4124
▁congen	-4125
▁ct	-4126
▁ent	-4127
▁labor	-4128
▁perip	-4129
▁Liver	-4130
▁resources	-4131
▁herni	-4132
▁European	-4133
ChatDoctor	-4134
▁interest	-4135
uous	-4136
olism	-4137
▁armp	-4138
▁psoriasis	-4139
▁stic	-4140
▁blocked	-4141
rof	-4142
▁rect	-4143
▁150	-4144
▁unus	-4145
▁speed	-4146
▁temporary	-4147
uls	-4148
▁Kidney	-4149
ification	-4150
▁class	-4151
▁molar	-4152
br	-4153
▁drop	-4154
▁keeping	-4155
▁kept	-4156
▁weird	-4157
▁soap	-4158
uctions	-4159
▁Another	-4160
olute	-4161
▁lips	-4162
urg	-4163
idence	-4164
▁Acc	-4165
▁Urologist	-4166
▁CH	-4167
▁reve	-4168
ought	-4169
this	-4170
▁frequencies	-4171
▁inflamed	-4172
▁sour	-4173
▁insulin	-4174
▁chromos	-4175
cinoma	-4176
ophen	-4177
cious	-4178
ondyl	-4179
viron	-4180
▁meat	-4181
leen	-4182
▁fractions	-4183
och	-4184
days	-4185
abase	-4186
▁depos	-4187
▁edema	-4188
yr	-4189
▁database	-4190
▁CON	-4191
8.	-4192
istic	-4193
▁measure	-4194
ested	-4195
Please	-4196
▁resulting	-4197
▁mater	-4198
UI	-4199
▁ec	-4200
▁Maintain	-4201
▁enc	-4202
▁intense	-4203
▁iam	-4204
▁hole	-4205
di	-4206
▁%	-4207
do	-4208
▁decide	-4209
▁referred	-4210
ensity	-4211
▁antiseptic	-4212
7.	-4213
▁Over	-4214
▁functions	-4215
aus	-4216
▁patch	-4217
▁physiotherapist	-4218
▁ring	-4219
▁basic	-4220
▁definitions	-4221
▁Orp	-4222
▁Approximate	-4223
▁spleen	-4224
uces	-4225
▁Orphan	-4226
▁Recently	-4227
ocks	-4228
▁recurrence	-4229
▁degenerative	-4230
▁vitamins	-4231
▁antihistamines	-4232
▁extent	-4233
ictionary	-4234
▁Orphanet	-4235
HPO	-4236
▁opening	-4237
▁Dictionary	-4238
▁hyd	-4239
▁Post	-4240
▁psychologist	-4241
▁moist	-4242
▁cleaning	-4243
▁intestine	-4244
▁arrhythmia	-4245
▁yoga	-4246
tioned	-4247
▁neph	-4248
hesia	-4249
▁boil	-4250
DL	-4251
▁bp	-4252
▁putting	-4253
▁antihistamine	-4254
9.	-4255
▁detect	-4256
▁Aug	-4257
▁Urine	-4258
▁investigate	-4259
▁Understanding	-4260
▁ALT	-4261
▁abortion	-4262
▁essential	-4263
▁fig	-4264
▁ways	-4265
▁72	-4266
erve	-4267
otic	-4268
esophageal	-4269
▁vent	-4270
reskin	-4271
▁shape	-4272
He	-4273
urgeon	-4274
ilt	-4275
oly	-4276
ination	-4277
▁Read	-4278
selling	-4279
▁enzyme	-4280
▁Hem	-4281
ission	-4282
▁tiny	-4283
▁responsible	-4284
▁Give	-4285
▁highly	-4286
ky	-4287
ject	-4288
▁esophag	-4289
▁sounds	-4290
ots	-4291
ana	-4292
▁tox	-4293
▁blockage	-4294
▁cirrhosis	-4295
▁multivitamin	-4296
mentioned	-4297
xiety	-4298
▁clots	-4299
Do	-4300
▁isn	-4301
▁WITH	-4302
▁strengthening	-4303
▁confused	-4304
▁supply	-4305
▁website	-4306
▁meditation	-4307
itten	-4308
▁planning	-4309
▁fair	-4310
▁healed	-4311
▁Ibuprofen	-4312
IR	-4313
▁hemorr	-4314
▁anyone	-4315
▁instructions	-4316
▁xray	-4317
▁Jan	-4318
▁rabies	-4319
▁improving	-4320
▁tot	-4321
▁card	-4322
▁third	-4323
▁powder	-4324
▁ton	-4325
▁Testing	-4326
▁discussion	-4327
▁profession	-4328
▁anymore	-4329
▁foreskin	-4330
▁infectious	-4331
vironment	-4332
▁Ser	-4333
▁true	-4334
aminophen	-4335
his	-4336
eech	-4337
▁famil	-4338
▁differen	-4339
▁calf	-4340
▁Would	-4341
▁bronchodilators	-4342
osin	-4343
▁Short	-4344
fortun	-4345
▁creams	-4346
▁menses	-4347
▁pillow	-4348
ify	-4349
▁ultrasonography	-4350
▁peripheral	-4351
ked	-4352
habil	-4353
▁prepar	-4354
ened	-4355
▁smaller	-4356
▁Wishes	-4357
▁depressed	-4358
▁performing	-4359
wo	-4360
▁thus	-4361
▁quickly	-4362
ret	-4363
▁valve	-4364
rew	-4365
YYYY	-4366
▁Spec	-4367
▁Jay	-4368
acin	-4369
▁watch	-4370
▁remedy	-4371
▁spl	-4372
▁focus	-4373
▁31	-4374
steop	-4375
▁squee	-4376
▁forms	-4377
olor	-4378
▁ones	-4379
aneous	-4380
▁lasted	-4381
some	-4382
▁filled	-4383
▁impact	-4384
▁particularly	-4385
AP	-4386
UM	-4387
▁Paracetamol	-4388
estinal	-4389
▁action	-4390
▁assistance	-4391
▁toes	-4392
▁coronary	-4393
LO	-4394
ESS	-4395
▁breathlessness	-4396
▁delivery	-4397
▁beginning	-4398
▁folic	-4399
▁clarification	-4400
▁checking	-4401
▁LI	-4402
▁fibrosis	-4403
▁reac	-4404
▁sores	-4405
▁appeared	-4406
GE	-4407
▁space	-4408
▁feeding	-4409
▁massage	-4410
▁Dec	-4411
YYY	-4412
▁YYYY	-4413
▁Infection	-4414
▁Physician	-4415
▁32	-4416
▁shown	-4417
▁lit	-4418
ortive	-4419
▁trigger	-4420
related	-4421
▁yeast	-4422
iable	-4423
▁born	-4424
▁apart	-4425
ASE	-4426
▁malignant	-4427
▁absolute	-4428
▁cytology	-4429
▁FNAC	-4430
▁totally	-4431
▁continues	-4432
▁radiating	-4433
▁upset	-4434
KG	-4435
CE	-4436
▁worst	-4437
▁admitted	-4438
▁Physi	-4439
▁altered	-4440
▁helping	-4441
tigo	-4442
etaminophen	-4443
▁larg	-4444
habilitation	-4445
▁rins	-4446
▁central	-4447
▁noted	-4448
▁toler	-4449
ophil	-4450
▁characterized	-4451
itch	-4452
ocol	-4453
uria	-4454
▁pink	-4455
▁surround	-4456
bone	-4457
oxid	-4458
▁mec	-4459
▁bathroom	-4460
▁offer	-4461
▁anxious	-4462
▁sneezing	-4463
gnitive	-4464
▁nail	-4465
▁Registry	-4466
▁congenital	-4467
▁nice	-4468
▁inhalation	-4469
▁thoroughly	-4470
omeg	-4471
pha	-4472
ardia	-4473
▁impairment	-4474
▁counselling	-4475
▁cereb	-4476
▁beats	-4477
▁button	-4478
urning	-4479
▁Fr	-4480
▁love	-4481
▁environment	-4482
▁morph	-4483
▁While	-4484
▁appreciated	-4485
▁70	-4486
▁peel	-4487
▁400	-4488
thanks	-4489
▁speech	-4490
imum	-4491
▁Ther	-4492
▁therefore	-4493
▁ahead	-4494
ays	-4495
▁office	-4496
▁electrolytes	-4497
ire	-4498
▁Autosomal	-4499
ilet	-4500
▁Hear	-4501
▁across	-4502
▁easy	-4503
▁reach	-4504
▁epilep	-4505
hetic	-4506
▁empty	-4507
ronidazole	-4508
▁pounds	-4509
▁platelets	-4510
▁damaged	-4511
Pulmonary	-4512
load	-4513
▁colonoscopy	-4514
▁counts	-4515
▁relation	-4516
▁imaging	-4517
ceed	-4518
pler	-4519
▁IVF	-4520
▁received	-4521
▁careful	-4522
uly	-4523
▁MD	-4524
GHT	-4525
oppler	-4526
▁managed	-4527
go	-4528
▁Co	-4529
IM	-4530
▁shoot	-4531
▁vascular	-4532
▁piec	-4533
alin	-4534
arc	-4535
▁33	-4536
▁broad	-4537
▁immediate	-4538
▁dermatitis	-4539
EM	-4540
▁chills	-4541
▁Dis	-4542
▁Why	-4543
▁sed	-4544
▁filling	-4545
▁supportive	-4546
▁trig	-4547
▁According	-4548
▁providing	-4549
ukemia	-4550
rec	-4551
ton	-4552
▁forehead	-4553
▁arteries	-4554
▁aware	-4555
▁located	-4556
iative	-4557
▁2.5	-4558
▁vaccin	-4559
▁prolonged	-4560
▁herpes	-4561
▁fertility	-4562
▁Review	-4563
▁BUT	-4564
▁bending	-4565
▁phot	-4566
▁affecting	-4567
▁(2	-4568
▁vol	-4569
▁crying	-4570
▁Therefore	-4571
▁solve	-4572
▁Musc	-4573
arely	-4574
▁reveal	-4575
Also	-4576
SAID	-4577
▁Vitamin	-4578
▁sometime	-4579
▁WBC	-4580
▁bulge	-4581
4)	-4582
▁eggs	-4583
occ	-4584
▁AT	-4585
▁nipp	-4586
▁Sc	-4587
icitis	-4588
▁accomp	-4589
▁evidence	-4590
▁esophagus	-4591
osa	-4592
▁Chronic	-4593
AST	-4594
▁compresses	-4595
rog	-4596
ended	-4597
▁carb	-4598
▁limbs	-4599
▁indicated	-4600
▁injured	-4601
▁Though	-4602
▁trials	-4603
▁avoiding	-4604
▁Ep	-4605
▁SU	-4606
ells	-4607
vers	-4608
▁member	-4609
▁Therap	-4610
▁worked	-4611
▁aff	-4612
▁qual	-4613
treating	-4614
atin	-4615
years	-4616
IA	-4617
▁om	-4618
opathic	-4619
▁gargles	-4620
▁cramping	-4621
▁(1	-4622
achy	-4623
▁Hepatitis	-4624
▁stiffness	-4625
creat	-4626
-8	-4627
▁chicken	-4628
cardia	-4629
▁prone	-4630
▁living	-4631
▁resting	-4632
▁systemic	-4633
▁social	-4634
▁Doctors	-4635
▁YOUR	-4636
▁Ben	-4637
▁armpit	-4638
▁II	-4639
EAR	-4640
▁picture	-4641
▁earliest	-4642
ocytes	-4643
▁adjust	-4644
▁mutation	-4645
otor	-4646
▁placed	-4647
▁proton	-4648
nel	-4649
▁Rep	-4650
......	-4651
▁substance	-4652
▁amoxicillin	-4653
▁HiT	-4654
▁value	-4655
▁lymphoma	-4656
idal	-4657
▁Vis	-4658
▁Diagnos	-4659
aling	-4660
▁antacid	-4661
▁worm	-4662
ternal	-4663
ontroll	-4664
▁surface	-4665
▁stopping	-4666
wash	-4667
▁vary	-4668
▁broke	-4669
▁bilateral	-4670
ales	-4671
ison	-4672
▁pa	-4673
orts	-4674
▁1-2	-4675
▁junk	-4676
▁rarely	-4677
▁becoming	-4678
▁material	-4679
3,	-4680
iod	-4681
▁36	-4682
back	-4683
▁initially	-4684
▁pancreas	-4685
▁India	-4686
▁Regular	-4687
ocon	-4688
▁visible	-4689
▁HEL	-4690
▁contain	-4691
▁rot	-4692
▁ische	-4693
uk	-4694
▁Cons	-4695
▁added	-4696
▁benefit	-4697
▁screen	-4698
▁sexually	-4699
▁sebaceous	-4700
▁Along	-4701
itus	-4702
ato	-4703
bed	-4704
ball	-4705
tiv	-4706
oint	-4707
▁calc	-4708
▁urgent	-4709
bear	-4710
▁strange	-4711
body	-4712
▁ate	-4713
▁spondyl	-4714
airs	-4715
ectrum	-4716
▁neural	-4717
▁reported	-4718
rad	-4719
▁preg	-4720
iatic	-4721
▁unusual	-4722
▁Diabetes	-4723
▁Monday	-4724
ov	-4725
▁allergen	-4726
▁Car	-4727
▁floor	-4728
▁finally	-4729
▁AB	-4730
▁EKG	-4731
year	-4732
▁Doppler	-4733
▁toilet	-4734
▁note	-4735
met	-4736
▁enter	-4737
▁spas	-4738
▁tail	-4739
▁stretching	-4740
ocal	-4741
rial	-4742
▁pap	-4743
▁THAT	-4744
▁moved	-4745
autions	-4746
▁100%	-4747
imin	-4748
ml	-4749
atively	-4750
▁la	-4751
▁See	-4752
▁Tests	-4753
▁terrible	-4754
cope	-4755
▁Pan	-4756
▁ligament	-4757
▁Adv	-4758
▁cool	-4759
oe	-4760
▁limited	-4761
fortunately	-4762
▁involvement	-4763
▁mix	-4764
adine	-4765
▁operated	-4766
▁tenderness	-4767
▁hank	-4768
alliative	-4769
kg	-4770
▁ran	-4771
▁Right	-4772
▁posterior	-4773
▁sear	-4774
▁miscarriage	-4775
▁65	-4776
▁exer	-4777
▁disability	-4778
gu	-4779
▁finished	-4780
▁occasionally	-4781
▁End	-4782
▁world	-4783
▁online	-4784
▁improved	-4785
▁Fever	-4786
oprazole	-4787
▁strenuous	-4788
▁suspected	-4789
▁rupture	-4790
oles	-4791
▁inse	-4792
▁collar	-4793
▁personal	-4794
hip	-4795
▁55	-4796
▁mis	-4797
▁soreness	-4798
▁Doc	-4799
▁comfortable	-4800
▁37	-4801
▁THIS	-4802
▁Normal	-4803
▁thinks	-4804
▁nearly	-4805
1,	-4806
ses	-4807
OPD	-4808
▁Cal	-4809
outs	-4810
▁SP	-4811
▁avoided	-4812
▁probable	-4813
rast	-4814
▁exposed	-4815
▁spectrum	-4816
mber	-4817
▁pick	-4818
▁4-5	-4819
▁spray	-4820
▁dysplasia	-4821
▁anus	-4822
OG	-4823
kast	-4824
▁suit	-4825
▁wont	-4826
urally	-4827
▁formed	-4828
▁rheum	-4829
ribut	-4830
▁acidity	-4831
tid	-4832
▁wide	-4833
▁request	-4834
ming	-4835
buterol	-4836
▁vo	-4837
▁Antibiotics	-4838
▁pee	-4839
hi	-4840
▁gra	-4841
▁losing	-4842
cyst	-4843
intestinal	-4844
▁Cont	-4845
let	-4846
▁injuries	-4847
▁whats	-4848
▁painless	-4849
dl	-4850
▁lymp	-4851
▁underw	-4852
▁Continue	-4853
nea	-4854
ffee	-4855
▁couldnt	-4856
ffe	-4857
▁fom	-4858
▁transf	-4859
▁obvious	-4860
▁6.	-4861
lear	-4862
algia	-4863
▁fertile	-4864
▁2)	-4865
▁okay	-4866
▁larger	-4867
▁ging	-4868
▁reduction	-4869
▁lax	-4870
erally	-4871
got	-4872
▁HIV	-4873
▁dyst	-4874
▁minimal	-4875
▁quality	-4876
▁pleur	-4877
▁complication	-4878
asty	-4879
hers	-4880
▁degree	-4881
▁wearing	-4882
▁therapist	-4883
arian	-4884
▁relations	-4885
▁precautions	-4886
▁emotion	-4887
sequ	-4888
ters	-4889
▁babies	-4890
▁General	-4891
▁erup	-4892
▁vari	-4893
▁ureth	-4894
▁Li	-4895
▁mess	-4896
▁mins	-4897
pos	-4898
▁masturbate	-4899
▁sum	-4900
loxacin	-4901
▁sodium	-4902
▁anesthesia	-4903
▁unw	-4904
▁Clinical	-4905
▁extracted	-4906
▁SE	-4907
▁wet	-4908
▁protr	-4909
ND	-4910
▁Was	-4911
▁stabil	-4912
months	-4913
hyroidism	-4914
eng	-4915
lukast	-4916
oplasia	-4917
ella	-4918
▁sept	-4919
▁fasting	-4920
▁supposed	-4921
▁considering	-4922
▁carcinoma	-4923
▁fight	-4924
oscopic	-4925
▁epid	-4926
▁Sep	-4927
rated	-4928
▁crown	-4929
▁worrying	-4930
▁300	-4931
rophic	-4932
▁mechan	-4933
▁appearance	-4934
mit	-4935
▁bony	-4936
▁inch	-4937
▁lasts	-4938
romycin	-4939
▁collection	-4940
▁functioning	-4941
aced	-4942
▁blue	-4943
ication	-4944
▁osteop	-4945
▁lateral	-4946
umin	-4947
▁thats	-4948
telukast	-4949
▁cleared	-4950
▁iv	-4951
lfriend	-4952
▁eventually	-4953
▁source	-4954
aks	-4955
▁among	-4956
▁Special	-4957
▁migraine	-4958
vision	-4959
ulating	-4960
amp	-4961
anted	-4962
▁decay	-4963
ady	-4964
ATION	-4965
▁Friday	-4966
▁microscop	-4967
▁mouthwash	-4968
ids	-4969
oon	-4970
fast	-4971
▁absor	-4972
▁Soon	-4973
▁skull	-4974
▁lipoma	-4975
▁methods	-4976
put	-4977
enal	-4978
▁speedy	-4979
ontal	-4980
▁stressed	-4981
▁ign	-4982
▁Mic	-4983
▁COPD	-4984
▁oste	-4985
▁push	-4986
▁address	-4987
▁relaxation	-4988
sure	-4989
Welcome	-4990
▁sinusitis	-4991
▁phase	-4992
▁visual	-4993
▁antidepress	-4994
unct	-4995
▁weights	-4996
▁occurred	-4997
▁Taking	-4998
▁Tr	-4999
ortic	-5000
▁accur	-5001
▁blisters	-5002
▁Sw	-5003
What	-5004
ye	-5005
nes	-5006
▁NO	-5007
▁prednis	-5008
4,	-5009
uming	-5010
▁glass	-5011
▁bruised	-5012
▁crack	-5013
▁protect	-5014
▁premature	-5015
▁circum	-5016
▁girlfriend	-5017
urse	-5018
inked	-5019
▁chin	-5020
▁prom	-5021
▁fomentation	-5022
aqu	-5023
cto	-5024
▁decision	-5025
▁trem	-5026
▁approach	-5027
CD	-5028
ctomy	-5029
▁Bronch	-5030
Is	-5031
▁Me	-5032
▁marriage	-5033
▁qualified	-5034
▁Such	-5035
▁breasts	-5036
▁overcome	-5037
▁Pulmonary	-5038
izer	-5039
gestive	-5040
▁AST	-5041
verage	-5042
ork	-5043
vant	-5044
▁bus	-5045
eprazole	-5046
▁obesity	-5047
▁accumulation	-5048
▁bar	-5049
utations	-5050
omegaly	-5051
▁stages	-5052
▁chromosome	-5053
▁contraception	-5054
ortis	-5055
▁psychiatric	-5056
▁Physiotherapy	-5057
upus	-5058
▁Gastro	-5059
▁harmful	-5060
▁NE	-5061
uary	-5062
▁follicular	-5063
▁SO	-5064
▁NSAID	-5065
▁scans	-5066
acy	-5067
▁aged	-5068
▁intern	-5069
▁provider	-5070
cologist	-5071
▁ability	-5072
▁malignancy	-5073
▁alternative	-5074
▁lobe	-5075
▁accompan	-5076
▁epilepsy	-5077
yly	-5078
ocardi	-5079
▁planned	-5080
▁CA	-5081
IGHT	-5082
uations	-5083
▁pub	-5084
▁somewhat	-5085
upp	-5086
itors	-5087
oping	-5088
▁survi	-5089
xid	-5090
▁asleep	-5091
▁aspirin	-5092
▁swallowing	-5093
▁completed	-5094
▁Rest	-5095
umption	-5096
▁Heart	-5097
▁shock	-5098
cter	-5099
formin	-5100
▁las	-5101
▁brush	-5102
▁professional	-5103
pite	-5104
antoprazole	-5105
▁Col	-5106
▁uric	-5107
tially	-5108
▁varic	-5109
▁structures	-5110
▁quant	-5111
▁telling	-5112
ime	-5113
blood	-5114
also	-5115
▁ALL	-5116
▁diss	-5117
▁repair	-5118
▁missing	-5119
ibr	-5120
ocyt	-5121
▁Having	-5122
▁1.5	-5123
ift	-5124
PHONE	-5125
▁concentration	-5126
▁metronidazole	-5127
kal	-5128
▁De	-5129
▁protection	-5130
omen	-5131
▁Therapy	-5132
asma	-5133
▁ARE	-5134
▁TAK	-5135
▁WAS	-5136
▁pimple	-5137
ICS	-5138
▁dietary	-5139
▁older	-5140
▁phosp	-5141
▁comment	-5142
▁falling	-5143
▁Ce	-5144
▁PAIN	-5145
ster	-5146
▁remedies	-5147
▁spasms	-5148
▁1)	-5149
▁clinically	-5150
▁identified	-5151
▁pimples	-5152
▁tea	-5153
▁coffee	-5154
▁spreading	-5155
arin	-5156
▁Gene	-5157
▁simp	-5158
▁naturally	-5159
▁hav	-5160
hyper	-5161
▁paras	-5162
▁shin	-5163
urday	-5164
▁learn	-5165
achycardia	-5166
linked	-5167
ERY	-5168
▁thumb	-5169
osterone	-5170
▁Tylenol	-5171
▁Before	-5172
▁WE	-5173
▁opp	-5174
▁cand	-5175
▁--	-5176
▁rhyth	-5177
▁testicle	-5178
▁ect	-5179
▁Stress	-5180
▁physically	-5181
▁leak	-5182
▁diclofenac	-5183
▁Imp	-5184
▁applying	-5185
2)	-5186
mi	-5187
▁diagnostic	-5188
.(	-5189
unch	-5190
▁die	-5191
▁induced	-5192
▁limit	-5193
aired	-5194
▁horrible	-5195
▁vertebra	-5196
30	-5197
oud	-5198
▁Chan	-5199
▁38	-5200
▁flex	-5201
▁nights	-5202
OME	-5203
▁strict	-5204
▁surrounding	-5205
spec	-5206
▁metabolic	-5207
How	-5208
ait	-5209
imal	-5210
▁manif	-5211
▁4-6	-5212
▁Red	-5213
▁Possi	-5214
▁Surgical	-5215
▁accompanied	-5216
▁appendicitis	-5217
,000	-5218
▁sense	-5219
etine	-5220
verse	-5221
ogenic	-5222
ode	-5223
▁lact	-5224
▁Hence	-5225
▁speak	-5226
inner	-5227
▁mole	-5228
▁Which	-5229
doctors	-5230
▁watery	-5231
▁uterine	-5232
▁allergens	-5233
▁HB	-5234
▁IF	-5235
▁fertil	-5236
▁leukemia	-5237
▁stuck	-5238
INE	-5239
bbing	-5240
▁nurse	-5241
▁lapar	-5242
▁MR	-5243
▁died	-5244
▁shower	-5245
allergic	-5246
cyc	-5247
have	-5248
▁Two	-5249
▁atrophy	-5250
▁badly	-5251
reditary	-5252
▁difference	-5253
XX	-5254
OULD	-5255
▁pit	-5256
▁scratch	-5257
▁Yesterday	-5258
oar	-5259
▁120	-5260
▁Sun	-5261
oxetine	-5262
▁stabbing	-5263
▁shoulders	-5264
▁dig	-5265
▁vertigo	-5266
▁disappear	-5267
▁34	-5268
▁counseling	-5269
▁dead	-5270
▁steam	-5271
▁prolapse	-5272
rade	-5273
▁Did	-5274
▁lat	-5275
▁meantime	-5276
▁procedures	-5277
▁US	-5278
.2)	-5279
▁TSH	-5280
▁aden	-5281
▁gallst	-5282
▁stretch	-5283
actyly	-5284
▁advance	-5285
▁narrowing	-5286
▁Feb	-5287
pping	-5288
▁ic	-5289
ticaria	-5290
▁figure	-5291
▁anywhere	-5292
▁Ear	-5293
▁thighs	-5294
▁obese	-5295
dia	-5296
▁Bi	-5297
asone	-5298
▁develops	-5299
▁dro	-5300
▁none	-5301
▁smear	-5302
▁Vir	-5303
night	-5304
▁isnt	-5305
atosis	-5306
▁faster	-5307
▁AC	-5308
▁Ov	-5309
ners	-5310
pass	-5311
opic	-5312
▁brushing	-5313
▁scien	-5314
ricular	-5315
▁FE	-5316
▁eng	-5317
creatitis	-5318
▁uncontroll	-5319
bac	-5320
▁fibr	-5321
PP	-5322
ai	-5323
lan	-5324
????	-5325
▁urinate	-5326
light	-5327
▁fish	-5328
▁conserv	-5329
▁final	-5330
▁140	-5331
▁hum	-5332
▁satisfied	-5333
▁cardio	-5334
▁cleaned	-5335
▁excision	-5336
▁lie	-5337
olecyst	-5338
▁million	-5339
▁calculus	-5340
▁structure	-5341
▁progression	-5342
ellect	-5343
rectomy	-5344
▁relationship	-5345
▁CR	-5346
▁sock	-5347
▁chlor	-5348
vate	-5349
▁inhibitors	-5350
lycer	-5351
▁wit	-5352
icted	-5353
▁actual	-5354
▁albuterol	-5355
amm	-5356
temp	-5357
▁aug	-5358
▁pay	-5359
▁war	-5360
atives	-5361
▁absolutely	-5362
ENS	-5363
▁lining	-5364
▁eosin	-5365
▁rinses	-5366
▁stairs	-5367
▁vomit	-5368
▁Normally	-5369
▁tiredness	-5370
pro	-5371
▁EEG	-5372
▁kgs	-5373
mall	-5374
cystic	-5375
▁shots	-5376
▁tends	-5377
▁Anxiety	-5378
▁resistance	-5379
ILL	-5380
▁myel	-5381
▁depth	-5382
▁Ayur	-5383
▁radiograph	-5384
eu	-5385
▁runny	-5386
iolytic	-5387
aded	-5388
zema	-5389
▁ease	-5390
▁couldn	-5391
ocele	-5392
rier	-5393
▁Man	-5394
▁accept	-5395
▁surgeries	-5396
pain	-5397
kinson	-5398
oral	-5399
▁Incre	-5400
▁sided	-5401
▁hourly	-5402
adol	-5403
atal	-5404
ria	-5405
rib	-5406
▁mit	-5407
2,	-5408
▁transmitted	-5409
reatening	-5410
▁Patient	-5411
DS	-5412
▁July	-5413
RIN	-5414
▁April	-5415
▁rhythm	-5416
First	-5417
▁puss	-5418
▁phen	-5419
▁piece	-5420
▁hanks	-5421
▁average	-5422
▁worsening	-5423
▁fil	-5424
▁leng	-5425
▁demen	-5426
▁subsided	-5427
▁approxim	-5428
▁dest	-5429
▁discovered	-5430
▁ankles	-5431
▁posted	-5432
▁visited	-5433
rosurgeon	-5434
▁backache	-5435
▁changing	-5436
wee	-5437
ellectual	-5438
gic	-5439
uge	-5440
oids	-5441
▁equ	-5442
▁clothes	-5443
▁consumption	-5444
ups	-5445
▁MG	-5446
▁2010	-5447
oliosis	-5448
▁antibodies	-5449
▁Of	-5450
▁tummy	-5451
ologram	-5452
▁reactive	-5453
▁intervention	-5454
▁Specialist	-5455
▁preventing	-5456
▁shift	-5457
▁produced	-5458
lyc	-5459
utter	-5460
▁LE	-5461
▁interval	-5462
has	-5463
▁sciatic	-5464
▁thicken	-5465
▁successful	-5466
▁HELP	-5467
▁saliva	-5468
aneously	-5469
▁intermitt	-5470
olone	-5471
▁Help	-5472
▁dementia	-5473
azep	-5474
actin	-5475
▁tonight	-5476
▁colour	-5477
▁substances	-5478
irm	-5479
▁fetal	-5480
▁purple	-5481
car	-5482
▁mri	-5483
▁Lymph	-5484
▁incision	-5485
▁manifest	-5486
▁released	-5487
hene	-5488
!!!	-5489
lbs	-5490
emic	-5491
▁Child	-5492
▁beneficial	-5493
hel	-5494
▁HIT	-5495
▁urea	-5496
▁conscious	-5497
▁undergoing	-5498
▁gran	-5499
ellent	-5500
▁bitten	-5501
You	-5502
ipe	-5503
▁partial	-5504
▁bat	-5505
▁Pres	-5506
▁points	-5507
▁season	-5508
▁defects	-5509
▁bites	-5510
▁hardly	-5511
▁feelings	-5512
▁FR	-5513
▁Visit	-5514
▁ANY	-5515
▁scler	-5516
▁contrast	-5517
▁shooting	-5518
▁tachycardia	-5519
illary	-5520
▁conv	-5521
▁ended	-5522
▁hives	-5523
▁5%	-5524
▁HAD	-5525
▁ray	-5526
bit	-5527
▁June	-5528
▁anxiolytic	-5529
ursday	-5530
5%	-5531
nec	-5532
▁occasional	-5533
▁PRO	-5534
▁fried	-5535
▁absence	-5536
▁sharing	-5537
▁reviewed	-5538
▁fav	-5539
▁upload	-5540
▁Anyway	-5541
ipolar	-5542
▁fung	-5543
▁aching	-5544
▁involves	-5545
ithromycin	-5546
ocet	-5547
▁dinner	-5548
▁pleural	-5549
romyalgia	-5550
▁gap	-5551
atoid	-5552
▁Mild	-5553
▁Resp	-5554
▁fetus	-5555
Im	-5556
▁God	-5557
▁conduction	-5558
▁Home	-5559
▁promin	-5560
▁circulation	-5561
adam	-5562
▁approx	-5563
uesday	-5564
▁chewing	-5565
▁relaxants	-5566
▁STD	-5567
▁cos	-5568
oler	-5569
▁length	-5570
▁preferably	-5571
jection	-5572
ysm	-5573
rex	-5574
burn	-5575
▁ultra	-5576
▁females	-5577
PR	-5578
beat	-5579
▁DNA	-5580
▁bug	-5581
▁Otherwise	-5582
▁cancerous	-5583
▁concentrate	-5584
▁gargle	-5585
▁unbear	-5586
isk	-5587
▁cre	-5588
▁appendix	-5589
▁previously	-5590
▁testicles	-5591
▁Sept	-5592
▁cervix	-5593
▁Def	-5594
▁overall	-5595
▁emotional	-5596
oura	-5597
▁Forum	-5598
▁palate	-5599
▁fruit	-5600
▁laying	-5601
.1	-5602
▁IU	-5603
acity	-5604
▁Orth	-5605
▁Mutations	-5606
▁blur	-5607
omatic	-5608
ongest	-5609
▁cit	-5610
▁sting	-5611
▁GUI	-5612
▁Mast	-5613
▁knot	-5614
▁husbands	-5615
▁specially	-5616
usions	-5617
▁troub	-5618
▁LFT	-5619
itic	-5620
▁characteristic	-5621
If	-5622
▁fist	-5623
▁simply	-5624
▁survival	-5625
bumin	-5626
medic	-5627
▁hung	-5628
ieved	-5629
▁external	-5630
▁unbearable	-5631
▁Eat	-5632
▁Better	-5633
Meanwhile	-5634
▁apparent	-5635
▁weather	-5636
aren	-5637
term	-5638
▁Coun	-5639
▁attac	-5640
▁cheeks	-5641
▁pigmentation	-5642
▁gym	-5643
▁crit	-5644
▁inhibitor	-5645
emen	-5646
▁huge	-5647
vascular	-5648
▁5-6	-5649
▁disturbances	-5650
▁rice	-5651
▁typical	-5652
▁money	-5653
dominal	-5654
▁maximum	-5655
▁enj	-5656
ledge	-5657
▁power	-5658
▁sized	-5659
▁Check	-5660
▁oncologist	-5661
She	-5662
▁OK	-5663
take	-5664
▁char	-5665
▁mach	-5666
▁reactions	-5667
sis	-5668
▁Sat	-5669
bacco	-5670
▁voice	-5671
ades	-5672
▁hemorrha	-5673
▁hologram	-5674
▁scheduled	-5675
▁metabolism	-5676
▁Ask	-5677
Take	-5678
▁pea	-5679
▁Cyst	-5680
opian	-5681
otal	-5682
▁Disc	-5683
▁Hypert	-5684
▁discolor	-5685
▁Drug	-5686
ah	-5687
▁ord	-5688
▁Head	-5689
▁stops	-5690
▁barely	-5691
▁anterior	-5692
FF	-5693
lyce	-5694
▁wasnt	-5695
▁malaria	-5696
▁arth	-5697
rip	-5698
▁RBC	-5699
▁intestines	-5700
ju	-5701
itches	-5702
▁hasnt	-5703
ask	-5704
▁separ	-5705
ae	-5706
aine	-5707
▁attemp	-5708
▁tendon	-5709
▁gargling	-5710
▁standard	-5711
▁contraction	-5712
▁MS	-5713
▁Ok	-5714
▁Exerc	-5715
▁Diagnostic	-5716
perm	-5717
▁rhin	-5718
▁concl	-5719
▁grown	-5720
▁exha	-5721
▁trust	-5722
▁insect	-5723
▁sensations	-5724
imen	-5725
ties	-5726
xture	-5727
▁purp	-5728
icking	-5729
▁dehyd	-5730
▁places	-5731
▁involving	-5732
5-	-5733
iasis	-5734
▁hips	-5735
▁Serum	-5736
umed	-5737
▁wind	-5738
▁fibroid	-5739
▁radiotherapy	-5740
▁roots	-5741
▁pinched	-5742
▁personality	-5743
▁formula	-5744
▁land	-5745
abl	-5746
▁SC	-5747
dose	-5748
▁Lip	-5749
▁quantity	-5750
▁exertion	-5751
▁insuff	-5752
▁drops	-5753
▁enhan	-5754
esis	-5755
▁volume	-5756
▁Mor	-5757
ishing	-5758
▁Scan	-5759
▁infective	-5760
▁TM	-5761
▁throw	-5762
▁urethra	-5763
rag	-5764
▁Mal	-5765
ctober	-5766
▁revert	-5767
entist	-5768
ese	-5769
olin	-5770
▁solid	-5771
▁acetaminophen	-5772
▁hypothyroidism	-5773
ateg	-5774
▁Ang	-5775
▁law	-5776
itching	-5777
▁correl	-5778
▁excellent	-5779
iates	-5780
▁endoc	-5781
▁candid	-5782
▁cetirizine	-5783
▁shamp	-5784
▁bypass	-5785
▁lympha	-5786
▁continuously	-5787
▁scen	-5788
▁crazy	-5789
anation	-5790
cod	-5791
thyroid	-5792
▁closed	-5793
▁alternate	-5794
▁Prot	-5795
▁approximately	-5796
sterectomy	-5797
▁knowledge	-5798
▁diver	-5799
11	-5800
▁cystic	-5801
▁poison	-5802
▁worries	-5803
▁throbbing	-5804
▁motor	-5805
▁runs	-5806
▁toxic	-5807
ulties	-5808
▁breakfast	-5809
enia	-5810
▁obser	-5811
▁socket	-5812
▁training	-5813
▁AR	-5814
▁Asthma	-5815
▁colitis	-5816
▁Following	-5817
4-	-5818
This	-5819
▁puff	-5820
PS	-5821
▁admin	-5822
▁protected	-5823
▁ou	-5824
opram	-5825
abalin	-5826
▁members	-5827
▁eczema	-5828
▁heartbeat	-5829
road	-5830
▁10-1	-5831
▁inst	-5832
▁receive	-5833
vedic	-5834
▁varies	-5835
legm	-5836
▁track	-5837
▁amounts	-5838
▁neurot	-5839
urbation	-5840
▁angry	-5841
▁vertebral	-5842
SO	-5843
▁PCR	-5844
▁effusion	-5845
▁Lev	-5846
▁feb	-5847
▁force	-5848
▁reprod	-5849
cut	-5850
inalysis	-5851
amy	-5852
▁EX	-5853
▁ll	-5854
▁Resear	-5855
▁swim	-5856
▁words	-5857
▁Back	-5858
.?	-5859
▁Mo	-5860
▁agents	-5861
▁balanced	-5862
▁strongly	-5863
▁laboratory	-5864
▁discoloration	-5865
isms	-5866
▁fairly	-5867
▁decongest	-5868
▁nd	-5869
▁roof	-5870
▁neuro	-5871
▁tonsils	-5872
▁relieving	-5873
acing	-5874
▁morphology	-5875
▁nutritional	-5876
arest	-5877
▁Skin	-5878
▁calor	-5879
▁National	-5880
▁clos	-5881
ChatDo	-5882
ontist	-5883
▁curable	-5884
▁needles	-5885
idge	-5886
▁ready	-5887
▁sinuses	-5888
ELL	-5889
ley	-5890
▁headed	-5891
▁weekend	-5892
▁ejaculate	-5893
▁indication	-5894
▁exist	-5895
▁basically	-5896
acial	-5897
stitute	-5898
▁difficulties	-5899
adic	-5900
▁wasn	-5901
▁Non	-5902
▁Multi	-5903
▁Renal	-5904
▁paramet	-5905
▁Ech	-5906
▁besides	-5907
▁functional	-5908
▁surgically	-5909
7,	-5910
▁nebul	-5911
▁testis	-5912
▁tet	-5913
▁magn	-5914
▁bless	-5915
▁raise	-5916
▁scientif	-5917
onic	-5918
acterial	-5919
specific	-5920
▁ast	-5921
gnancy	-5922
▁sweats	-5923
▁GO	-5924
REAT	-5925
▁ery	-5926
rist	-5927
acer	-5928
▁urinating	-5929
But	-5930
▁hasn	-5931
▁human	-5932
▁marks	-5933
usive	-5934
▁whatever	-5935
▁pancreatitis	-5936
▁Cardi	-5937
ars	-5938
inter	-5939
▁proceed	-5940
that	-5941
▁Derm	-5942
▁bright	-5943
complete	-5944
haps	-5945
ught	-5946
▁chi	-5947
▁user	-5948
▁anger	-5949
▁nipple	-5950
▁Thyroid	-5951
iary	-5952
ylori	-5953
TC	-5954
omes	-5955
cephal	-5956
veda	-5957
▁fusion	-5958
▁schedule	-5959
▁situations	-5960
HD	-5961
pr	-5962
▁7.	-5963
▁swab	-5964
ffected	-5965
▁double	-5966
▁organism	-5967
▁persons	-5968
gpt	-5969
▁frust	-5970
▁Em	-5971
▁ev	-5972
▁spr	-5973
▁Like	-5974
▁copies	-5975
▁checkup	-5976
▁intoler	-5977
isy	-5978
▁commun	-5979
▁subsides	-5980
▁hall	-5981
▁spin	-5982
oprol	-5983
▁Anything	-5984
6,	-5985
▁DI	-5986
tained	-5987
▁polyp	-5988
▁bulging	-5989
▁cancers	-5990
▁greatly	-5991
▁manner	-5992
▁cognitive	-5993
▁screening	-5994
loc	-5995
oul	-5996
▁Ob	-5997
aret	-5998
vices	-5999
ochond	-6000
▁stressor	-6001
▁Fe	-6002
▁moves	-6003
▁spont	-6004
▁sports	-6005
▁az	-6006
▁accurate	-6007
▁GET	-6008
▁risks	-6009
oplasty	-6010
▁January	-6011
▁motions	-6012
▁heaviness	-6013
▁understanding	-6014
▁sleepy	-6015
screen	-6016
▁stated	-6017
ulf	-6018
▁degeneration	-6019
KS	-6020
▁tall	-6021
▁locally	-6022
▁touching	-6023
50	-6024
▁sad	-6025
▁clim	-6026
▁occurring	-6027
KE	-6028
▁ens	-6029
▁Hallow	-6030
▁phlegm	-6031
▁pancreatic	-6032
reet	-6033
rical	-6034
▁airways	-6035
▁malform	-6036
▁tobacco	-6037
▁fluct	-6038
▁strep	-6039
▁remaining	-6040
lev	-6041
bid	-6042
▁computer	-6043
▁returned	-6044
▁39	-6045
actor	-6046
▁border	-6047
▁create	-6048
▁embry	-6049
▁Palliative	-6050
▁section	-6051
harm	-6052
▁adults	-6053
▁faint	-6054
▁conceiving	-6055
▁object	-6056
▁pollen	-6057
▁Rehabilitation	-6058
rab	-6059
▁YEAR	-6060
orosis	-6061
▁touched	-6062
threatening	-6063
▁2011	-6064
▁diure	-6065
▁kinda	-6066
Now	-6067
▁SGOT	-6068
rectile	-6069
▁assessed	-6070
▁removing	-6071
such	-6072
going	-6073
▁March	-6074
▁shaking	-6075
iol	-6076
▁hemo	-6077
▁lupus	-6078
▁Ag	-6079
acral	-6080
▁laser	-6081
▁prednisone	-6082
▁Pls	-6083
▁enjoy	-6084
uterine	-6085
▁despite	-6086
hn	-6087
▁acting	-6088
▁relevant	-6089
▁angiography	-6090
▁contract	-6091
▁conservative	-6092
▁52	-6093
▁data	-6094
▁certainly	-6095
▁recovered	-6096
▁Bil	-6097
▁Possibility	-6098
ames	-6099
▁shing	-6100
▁sprain	-6101
last	-6102
▁Del	-6103
ellar	-6104
▁scenar	-6105
oked	-6106
▁aer	-6107
ushed	-6108
work	-6109
LEASE	-6110
italopram	-6111
▁supervision	-6112
ART	-6113
angl	-6114
▁plaqu	-6115
▁thickness	-6116
ris	-6117
▁HAS	-6118
there	-6119
▁nodule	-6120
▁IBS	-6121
▁periodontal	-6122
▁250	-6123
cision	-6124
venous	-6125
▁knowing	-6126
UB	-6127
zen	-6128
viral	-6129
▁surv	-6130
▁lighthe	-6131
▁testosterone	-6132
▁RA	-6133
▁DAY	-6134
▁bedtime	-6135
▁portion	-6136
ares	-6137
neath	-6138
▁bloated	-6139
▁eosinophil	-6140
We	-6141
pm	-6142
ield	-6143
▁search	-6144
UN	-6145
▁mucosa	-6146
▁spells	-6147
▁Counseling	-6148
atty	-6149
▁dystrophy	-6150
mand	-6151
▁Loo	-6152
▁sle	-6153
▁bear	-6154
hypert	-6155
▁twist	-6156
▁country	-6157
▁interfe	-6158
▁reduces	-6159
▁urticaria	-6160
rig	-6161
▁cig	-6162
▁menop	-6163
▁mothers	-6164
▁colored	-6165
hether	-6166
▁hysterectomy	-6167
▁suic	-6168
▁anytime	-6169
▁everyone	-6170
▁irritated	-6171
▁Gastroenter	-6172
IST	-6173
▁bub	-6174
▁load	-6175
mission	-6176
▁output	-6177
▁clearly	-6178
▁Secondly	-6179
▁definitive	-6180
▁Cor	-6181
▁mening	-6182
▁Masturbation	-6183
▁Act	-6184
▁hepat	-6185
▁plasma	-6186
CP	-6187
▁directed	-6188
za	-6189
enior	-6190
▁deny	-6191
▁service	-6192
▁gallstones	-6193
▁heel	-6194
▁distress	-6195
▁estimation	-6196
entin	-6197
iciencies	-6198
▁clotting	-6199
▁controlling	-6200
▁transfusion	-6201
▁males	-6202
▁failed	-6203
▁rectum	-6204
▁beating	-6205
▁cholecyst	-6206
▁technique	-6207
▁outer	-6208
▁shingles	-6209
▁menstruation	-6210
care	-6211
▁differenti	-6212
▁hereditary	-6213
▁Gynecologist	-6214
▁ane	-6215
ude	-6216
indly	-6217
▁isol	-6218
▁breastfe	-6219
thal	-6220
uncture	-6221
inse	-6222
▁Has	-6223
▁jump	-6224
▁blade	-6225
vered	-6226
▁lethar	-6227
▁underneath	-6228
aph	-6229
mill	-6230
asive	-6231
erals	-6232
kaline	-6233
▁advanced	-6234
PV	-6235
ION	-6236
tenance	-6237
▁compared	-6238
▁Br	-6239
▁info	-6240
▁tips	-6241
ANT	-6242
iac	-6243
ering	-6244
▁FROM	-6245
▁elevation	-6246
abap	-6247
▁Left	-6248
igestion	-6249
▁shampoo	-6250
born	-6251
▁Genl	-6252
▁Cough	-6253
▁moistur	-6254
▁Cer	-6255
▁elimin	-6256
▁feedback	-6257
ERE	-6258
hem	-6259
▁Cell	-6260
However	-6261
▁meaning	-6262
oped	-6263
▁Sunday	-6264
▁suppose	-6265
▁confidence	-6266
odic	-6267
▁tit	-6268
▁Rad	-6269
▁establ	-6270
▁herbal	-6271
▁direction	-6272
▁lightheaded	-6273
▁agent	-6274
▁sunscreen	-6275
▁DR	-6276
▁cortis	-6277
▁recurring	-6278
▁pantoprazole	-6279
cepha	-6280
▁Very	-6281
▁agree	-6282
▁paran	-6283
▁inserted	-6284
otid	-6285
idone	-6286
▁WHAT	-6287
▁assume	-6288
UE	-6289
▁MED	-6290
▁angina	-6291
▁braces	-6292
BLE	-6293
▁Rem	-6294
▁brought	-6295
▁practic	-6296
▁deficiencies	-6297
▁Amo	-6298
There	-6299
MENT	-6300
▁herniation	-6301
▁waking	-6302
▁salivary	-6303
▁Sorry	-6304
▁prominent	-6305
▁generalized	-6306
▁bipolar	-6307
▁machine	-6308
▁Complete	-6309
▁capacity	-6310
.3	-6311
TIC	-6312
they	-6313
udes	-6314
icious	-6315
▁localized	-6316
▁behavioral	-6317
▁masturbating	-6318
ednes	-6319
▁scars	-6320
ritious	-6321
▁echocardi	-6322
▁SHE	-6323
▁Poly	-6324
▁favor	-6325
▁capsule	-6326
▁42	-6327
▁aggressive	-6328
▁IM	-6329
▁mos	-6330
aginal	-6331
▁confusion	-6332
▁intermittent	-6333
▁bronchodilator	-6334
acic	-6335
▁waist	-6336
▁revealed	-6337
▁scenario	-6338
zz	-6339
▁theres	-6340
▁connected	-6341
aker	-6342
▁fal	-6343
▁Table	-6344
ticasone	-6345
num	-6346
▁bag	-6347
▁surely	-6348
▁bandage	-6349
LA	-6350
ocking	-6351
▁mixed	-6352
▁flutter	-6353
▁cot	-6354
▁sons	-6355
ednesday	-6356
▁Disorder	-6357
VT	-6358
▁core	-6359
▁therapies	-6360
LC	-6361
▁SS	-6362
▁Cong	-6363
▁TENS	-6364
▁Noted	-6365
▁hepatic	-6366
▁digestive	-6367
▁firm	-6368
▁encoura	-6369
▁variety	-6370
pls	-6371
quit	-6372
sens	-6373
▁fibers	-6374
▁Healthy	-6375
▁parameters	-6376
▁sgpt	-6377
▁markers	-6378
▁58	-6379
CVTS	-6380
▁drain	-6381
▁orally	-6382
sa	-6383
▁Lung	-6384
▁Proper	-6385
▁expectancy	-6386
acc	-6387
▁BM	-6388
▁PUT	-6389
▁caffe	-6390
▁sphin	-6391
▁strugg	-6392
▁correction	-6393
orrhea	-6394
▁implantation	-6395
▁ann	-6396
▁rhinitis	-6397
▁depressive	-6398
▁uncontrolled	-6399
▁corticosteroids	-6400
▁pac	-6401
lucid	-6402
omplete	-6403
▁elucid	-6404
▁motile	-6405
▁venous	-6406
▁inhalers	-6407
▁pale	-6408
▁ordered	-6409
▁port	-6410
▁metastasis	-6411
▁Gall	-6412
▁compon	-6413
▁obstructive	-6414
▁comments	-6415
▁hyperplasia	-6416
▁hospitalized	-6417
▁pet	-6418
gered	-6419
▁Viral	-6420
cephaly	-6421
▁ectopic	-6422
▁ischemic	-6423
▁3)	-6424
▁sli	-6425
▁consultations	-6426
▁veg	-6427
▁consume	-6428
▁prolactin	-6429
▁AF	-6430
▁decreases	-6431
▁intensity	-6432
▁paralysis	-6433
▁cran	-6434
tilage	-6435
▁discs	-6436
▁fungus	-6437
▁stature	-6438
▁minerals	-6439
▁nauseous	-6440
▁producing	-6441
▁nutritious	-6442
▁NOW	-6443
▁New	-6444
▁Ph	-6445
axia	-6446
▁mist	-6447
agious	-6448
▁Generally	-6449
▁retention	-6450
▁stem	-6451
▁aneur	-6452
▁afford	-6453
KD	-6454
▁GOT	-6455
ophren	-6456
osacral	-6457
hyse	-6458
▁adverse	-6459
▁Physical	-6460
MS	-6461
▁zinc	-6462
▁lemon	-6463
▁maintenance	-6464
abs	-6465
▁deform	-6466
▁greater	-6467
▁radiates	-6468
▁continuing	-6469
▁fibromyalgia	-6470
▁5-7	-6471
ext	-6472
metic	-6473
usted	-6474
▁item	-6475
▁leuk	-6476
▁packs	-6477
▁plain	-6478
pulmonary	-6479
bc	-6480
oes	-6481
pal	-6482
▁Typ	-6483
▁fre	-6484
▁Stay	-6485
eph	-6486
lder	-6487
reetings	-6488
▁preparation	-6489
▁tabs	-6490
▁reass	-6491
▁covered	-6492
▁dealing	-6493
▁minimum	-6494
▁scaling	-6495
▁vaccination	-6496
lines	-6497
eutic	-6498
▁August	-6499
▁bodies	-6500
▁exercising	-6501
ACK	-6502
▁ax	-6503
abapentin	-6504
▁phenomen	-6505
▁PSA	-6506
▁kit	-6507
▁sil	-6508
▁sugars	-6509
▁weekly	-6510
▁observed	-6511
▁disturbance	-6512
▁Ayurveda	-6513
ding	-6514
▁perit	-6515
▁worth	-6516
▁outcome	-6517
▁followup	-6518
▁Parkinson	-6519
OTH	-6520
▁Gl	-6521
▁vit	-6522
▁resid	-6523
▁nephrologist	-6524
gy	-6525
▁Fib	-6526
▁sym	-6527
▁corrected	-6528
▁indicative	-6529
eric	-6530
umes	-6531
▁via	-6532
▁liquids	-6533
▁Saturday	-6534
pre	-6535
▁gon	-6536
▁roll	-6537
▁plays	-6538
lycemia	-6539
verages	-6540
▁NSAIDs	-6541
▁complains	-6542
▁pediatric	-6543
▁mir	-6544
▁urinalysis	-6545
▁Flu	-6546
▁wise	-6547
uitary	-6548
▁impacted	-6549
▁hypotension	-6550
▁99	-6551
resp	-6552
▁Went	-6553
▁ruptured	-6554
▁omeprazole	-6555
yc	-6556
▁gyn	-6557
▁spir	-6558
▁fixed	-6559
▁triggered	-6560
▁sphincter	-6561
▁insufficiency	-6562
▁chair	-6563
ervation	-6564
▁potential	-6565
▁heavyweight	-6566
▁montelukast	-6567
▁suc	-6568
▁Alcohol	-6569
▁Hospital	-6570
▁Min	-6571
▁Rel	-6572
cancer	-6573
▁boost	-6574
itted	-6575
▁bottle	-6576
▁program	-6577
▁antibody	-6578
▁jan	-6579
minal	-6580
▁influ	-6581
▁explained	-6582
▁requirement	-6583
▁vas	-6584
.......	-6585
▁familial	-6586
erior	-6587
▁Luck	-6588
▁Small	-6589
▁burst	-6590
▁share	-6591
▁tubal	-6592
▁excluded	-6593
▁resistant	-6594
▁contagious	-6595
▁SOME	-6596
ocaine	-6597
▁gest	-6598
▁toot	-6599
ATE	-6600
oderm	-6601
▁reproductive	-6602
▁Op	-6603
▁tb	-6604
iating	-6605
▁falls	-6606
rely	-6607
▁lac	-6608
▁bridge	-6609
▁buttocks	-6610
▁electrolyte	-6611
URE	-6612
alk	-6613
▁Lo	-6614
left	-6615
▁Age	-6616
▁disk	-6617
▁drinks	-6618
eed	-6619
ino	-6620
▁pins	-6621
▁sust	-6622
▁whic	-6623
▁Later	-6624
▁prick	-6625
since	-6626
aiting	-6627
▁Acute	-6628
▁mildly	-6629
▁indigestion	-6630
axis	-6631
▁anyway	-6632
▁estrogen	-6633
▁scanning	-6634
▁visiting	-6635
.6.	-6636
irect	-6637
rotic	-6638
▁nutri	-6639
▁Es	-6640
▁cross	-6641
▁record	-6642
mented	-6643
menting	-6644
▁airway	-6645
▁Ane	-6646
▁alter	-6647
▁rectal	-6648
▁tendency	-6649
onide	-6650
▁TIM	-6651
▁fallopian	-6652
An	-6653
ORM	-6654
lob	-6655
phrag	-6656
▁smooth	-6657
▁switch	-6658
▁Unfortunately	-6659
▁54	-6660
CTOR	-6661
▁PCs	-6662
▁mucous	-6663
▁Exercise	-6664
ifications	-6665
hor	-6666
icle	-6667
▁MON	-6668
▁donor	-6669
▁washing	-6670
▁genitals	-6671
▁numerous	-6672
▁skeletal	-6673
▁beverages	-6674
▁na	-6675
▁vital	-6676
▁waste	-6677
▁thorax	-6678
▁turning	-6679
▁younger	-6680
▁suppress	-6681
▁prevention	-6682
zep	-6683
▁pol	-6684
▁treatable	-6685
▁noticeable	-6686
NS	-6687
even	-6688
▁Urin	-6689
should	-6690
▁content	-6691
▁Syndrome	-6692
well	-6693
▁wart	-6694
▁seven	-6695
▁guided	-6696
▁peptic	-6697
▁du	-6698
▁tom	-6699
month	-6700
▁Nove	-6701
necess	-6702
▁burns	-6703
uestion	-6704
-20	-6705
iatrist	-6706
▁shouldn	-6707
▁acqu	-6708
gastro	-6709
▁.....	-6710
▁eaten	-6711
▁alcoholic	-6712
▁chemicals	-6713
cont	-6714
▁Muscle	-6715
oarthritis	-6716
had	-6717
▁DIS	-6718
▁der	-6719
▁dissol	-6720
RA	-6721
▁ban	-6722
▁Prim	-6723
▁mutated	-6724
ik	-6725
▁56	-6726
▁Ma	-6727
▁thru	-6728
azepam	-6729
peridone	-6730
ores	-6731
▁jud	-6732
▁hydro	-6733
ributed	-6734
▁unwanted	-6735
▁2012	-6736
▁quar	-6737
ymptom	-6738
▁march	-6739
▁settle	-6740
▁attached	-6741
from	-6742
▁Severe	-6743
▁Thursday	-6744
▁Depending	-6745
lod	-6746
▁Om	-6747
▁ol	-6748
▁sup	-6749
▁prep	-6750
▁vertebrae	-6751
▁endometrial	-6752
ein	-6753
▁Besides	-6754
▁neurosurgeon	-6755
▁mamm	-6756
▁false	-6757
▁hairs	-6758
operative	-6759
▁administ	-6760
▁speaking	-6761
▁persisting	-6762
▁neurotrophic	-6763
OC	-6764
▁turns	-6765
▁causative	-6766
▁gastroenteritis	-6767
14	-6768
omic	-6769
▁lady	-6770
EP	-6771
▁symp	-6772
▁elucidated	-6773
▁palm	-6774
▁swelled	-6775
▁herniated	-6776
ta	-6777
▁December	-6778
▁53	-6779
▁8.	-6780
ucle	-6781
▁odd	-6782
▁ensure	-6783
bo	-6784
▁metal	-6785
▁Certain	-6786
▁swimming	-6787
ocetrizine	-6788
ari	-6789
unnel	-6790
▁ignore	-6791
▁prophyl	-6792
da	-6793
▁passes	-6794
cobal	-6795
▁mand	-6796
▁ovum	-6797
▁infants	-6798
uscular	-6799
▁Institute	-6800
▁measuring	-6801
▁OCD	-6802
▁partic	-6803
▁underwent	-6804
▁BLO	-6805
tebral	-6806
▁heals	-6807
▁melan	-6808
▁Tuesday	-6809
▁regimen	-6810
▁November	-6811
▁stronger	-6812
▁aggravate	-6813
▁id	-6814
▁Smo	-6815
aution	-6816
▁Sit	-6817
▁capsules	-6818
▁adequately	-6819
▁spondylosis	-6820
▁anno	-6821
▁Unless	-6822
▁foramin	-6823
▁cerebral	-6824
▁penet	-6825
▁polyps	-6826
▁stable	-6827
▁suitable	-6828
▁Pregnancy	-6829
oz	-6830
▁Te	-6831
▁trim	-6832
ChatDoct	-6833
▁Investig	-6834
▁severely	-6835
▁heartburn	-6836
renal	-6837
▁blow	-6838
▁eyel	-6839
▁fiss	-6840
▁tone	-6841
▁itches	-6842
▁stitches	-6843
▁Ir	-6844
anus	-6845
▁nap	-6846
▁Sugg	-6847
▁Ensure	-6848
▁fractures	-6849
seud	-6850
▁catch	-6851
▁DOCTOR	-6852
▁tremors	-6853
▁unnecess	-6854
ene	-6855
▁um	-6856
ient	-6857
▁Sal	-6858
▁SSRI	-6859
▁ground	-6860
▁purpose	-6861
▁gar	-6862
▁antic	-6863
izophren	-6864
▁yellowish	-6865
AIL	-6866
raw	-6867
rees	-6868
▁October	-6869
▁asthmatic	-6870
▁PH	-6871
angi	-6872
igence	-6873
▁Biopsy	-6874
ryl	-6875
▁Des	-6876
▁Fam	-6877
▁Medicines	-6878
imer	-6879
▁shes	-6880
▁urge	-6881
treated	-6882
▁Top	-6883
▁fun	-6884
▁camp	-6885
ucted	-6886
▁Sperm	-6887
▁pneum	-6888
▁deterior	-6889
▁attending	-6890
▁stressful	-6891
AND	-6892
▁47	-6893
▁alle	-6894
▁hypog	-6895
▁covering	-6896
▁conceived	-6897
▁thrombosis	-6898
5,	-6899
due	-6900
▁??	-6901
▁uses	-6902
▁brace	-6903
▁lunch	-6904
▁pleas	-6905
▁Common	-6906
▁mobility	-6907
GT	-6908
▁jer	-6909
older	-6910
▁mine	-6911
cycline	-6912
▁Increased	-6913
hache	-6914
▁caffeine	-6915
▁postures	-6916
▁transfer	-6917
▁perfectly	-6918
▁Diclofenac	-6919
▁antidepressant	-6920
▁sclerosis	-6921
▁methyl	-6922
▁bothering	-6923
▁metformin	-6924
▁consciousness	-6925
warm	-6926
▁alt	-6927
▁Affected	-6928
▁impaired	-6929
--------	-6930
▁decreasing	-6931
AA	-6932
oxide	-6933
ams	-6934
▁WOR	-6935
▁opt	-6936
ocyte	-6937
rimazole	-6938
▁mechanism	-6939
▁fertilization	-6940
ometry	-6941
▁numbers	-6942
▁suggesting	-6943
▁COM	-6944
▁tor	-6945
▁VERY	-6946
▁halluc	-6947
▁cosmetic	-6948
▁thickening	-6949
umn	-6950
etail	-6951
▁Consider	-6952
▁cartilage	-6953
▁bt	-6954
▁hol	-6955
▁produces	-6956
▁lumbosacral	-6957
oneph	-6958
col	-6959
ylase	-6960
gnosed	-6961
cum	-6962
plz	-6963
▁PP	-6964
▁anesthetic	-6965
▁conclusion	-6966
▁developmental	-6967
may	-6968
pir	-6969
▁PL	-6970
▁ADHD	-6971
▁mold	-6972
▁teen	-6973
▁diffuse	-6974
▁sternum	-6975
leb	-6976
▁tho	-6977
▁Next	-6978
▁shaft	-6979
▁inability	-6980
free	-6981
▁glans	-6982
▁honey	-6983
▁informative	-6984
▁observation	-6985
ror	-6986
▁paren	-6987
▁phenomenon	-6988
Can	-6989
olf	-6990
hope	-6991
▁sonogram	-6992
▁throwing	-6993
▁44	-6994
▁FSH	-6995
farin	-6996
▁sciatica	-6997
▁seriously	-6998
cos	-6999
▁PT	-7000
enital	-7001
▁Advil	-7002
▁initi	-7003
▁perhaps	-7004
infection	-7005
▁meanwhile	-7006
Your	-7007
apsed	-7008
ymptomatic	-7009
▁py	-7010
▁raw	-7011
▁pharm	-7012
▁uncle	-7013
▁Weight	-7014
▁Looking	-7015
FTER	-7016
letion	-7017
ussion	-7018
▁safer	-7019
iding	-7020
▁Dentist	-7021
▁combined	-7022
▁resulted	-7023
▁AG	-7024
▁130	-7025
iling	-7026
▁pulling	-7027
▁antioxid	-7028
▁maintaining	-7029
▁vig	-7030
weeks	-7031
▁lasting	-7032
rowth	-7033
amycin	-7034
▁Apart	-7035
▁carrier	-7036
▁Abs	-7037
▁wan	-7038
▁cotton	-7039
▁dermat	-7040
▁hungry	-7041
▁nutrients	-7042
▁neut	-7043
▁43	-7044
TIVE	-7045
▁Clinic	-7046
▁pillows	-7047
▁pox	-7048
▁adhes	-7049
▁yours	-7050
▁student	-7051
urt	-7052
acerb	-7053
▁granul	-7054
▁Whether	-7055
▁presentation	-7056
ival	-7057
▁Ble	-7058
▁Prog	-7059
▁Brain	-7060
▁stimul	-7061
▁Moreover	-7062
▁phosphat	-7063
▁preparations	-7064
▁Hot	-7065
▁ALSO	-7066
▁email	-7067
▁limits	-7068
▁Urinary	-7069
-9	-7070
uit	-7071
▁OP	-7072
quate	-7073
inally	-7074
▁cigaret	-7075
amination	-7076
FR	-7077
USE	-7078
▁everytime	-7079
anti	-7080
▁ayur	-7081
urrently	-7082
lude	-7083
swer	-7084
▁biting	-7085
▁inject	-7086
▁leaving	-7087
▁responding	-7088
▁guy	-7089
▁quote	-7090
▁readings	-7091
▁Diagnosis	-7092
▁extension	-7093
▁transplantation	-7094
ERG	-7095
ruc	-7096
▁LH	-7097
▁odor	-7098
normally	-7099
▁bruises	-7100
▁Actually	-7101
▁Sub	-7102
▁frag	-7103
▁Tablet	-7104
▁induction	-7105
▁intolerance	-7106
cler	-7107
▁Hey	-7108
▁Long	-7109
▁nurs	-7110
▁driving	-7111
▁sensory	-7112
▁deposits	-7113
▁disturbed	-7114
▁Fl	-7115
▁Bre	-7116
▁TAKE	-7117
▁eats	-7118
▁dengue	-7119
▁rubbing	-7120
▁stimulation	-7121
St	-7122
ribute	-7123
▁react	-7124
▁fermentation	-7125
osper	-7126
▁atrial	-7127
▁electrical	-7128
hypertensive	-7129
▁Tuberculosis	-7130
ALL	-7131
bor	-7132
gment	-7133
ilities	-7134
▁narrow	-7135
▁secretion	-7136
▁connection	-7137
ococ	-7138
▁dye	-7139
▁acts	-7140
▁forearm	-7141
▁asymptomatic	-7142
Any	-7143
▁ket	-7144
juana	-7145
▁Seiz	-7146
lation	-7147
oprolol	-7148
▁osteoporosis	-7149
▁62	-7150
▁Dys	-7151
▁Diet	-7152
▁Type	-7153
▁bloody	-7154
▁exacerb	-7155
opt	-7156
▁brisk	-7157
▁suffers	-7158
▁informed	-7159
▁watching	-7160
ert	-7161
yond	-7162
ruary	-7163
▁ment	-7164
▁blocks	-7165
▁column	-7166
▁events	-7167
▁precaution	-7168
onin	-7169
vast	-7170
▁safely	-7171
bile	-7172
▁swings	-7173
ya	-7174
worm	-7175
ector	-7176
▁arri	-7177
▁lean	-7178
▁soot	-7179
▁optim	-7180
xycycline	-7181
lugg	-7182
esium	-7183
▁LIKE	-7184
▁fold	-7185
agement	-7186
▁endometrium	-7187
▁supplementation	-7188
▁CRP	-7189
▁onto	-7190
▁pulp	-7191
▁nuts	-7192
▁worms	-7193
▁services	-7194
▁comprom	-7195
.1)	-7196
▁gut	-7197
▁caught	-7198
▁fluticasone	-7199
▁rehabilitation	-7200
ME	-7201
ORE	-7202
▁Iam	-7203
uinal	-7204
▁traumatic	-7205
▁significantly	-7206
▁asc	-7207
ences	-7208
▁erect	-7209
▁stays	-7210
▁stretc	-7211
▁peeling	-7212
gastroesophageal	-7213
asy	-7214
▁carried	-7215
▁prevents	-7216
NE	-7217
ama	-7218
!!!!	-7219
▁2013	-7220
udesonide	-7221
▁erectile	-7222
▁breastfeeding	-7223
▁upd	-7224
▁divertic	-7225
▁uncommon	-7226
▁excessively	-7227
▁(3	-7228
▁hv	-7229
arring	-7230
▁assure	-7231
▁deposition	-7232
▁hemorrhage	-7233
▁rheumatoid	-7234
▁Psychotherapy	-7235
ii	-7236
ola	-7237
▁ongoing	-7238
▁internet	-7239
9,	-7240
OUT	-7241
▁gm	-7242
erate	-7243
▁PLEASE	-7244
▁plaque	-7245
▁explanation	-7246
)-	-7247
▁;	-7248
▁160	-7249
▁awhile	-7250
▁foreign	-7251
▁intellectual	-7252
);	-7253
ury	-7254
▁eti	-7255
▁mes	-7256
▁icing	-7257
▁vomited	-7258
▁harmless	-7259
SI	-7260
otin	-7261
▁cup	-7262
▁gent	-7263
▁unex	-7264
▁Anemia	-7265
appy	-7266
▁rapidly	-7267
▁untreated	-7268
▁hr	-7269
▁Amox	-7270
▁albumin	-7271
onitis	-7272
▁Semen	-7273
ospermia	-7274
ocl	-7275
ulty	-7276
▁IUD	-7277
▁mov	-7278
▁hang	-7279
▁awake	-7280
▁floss	-7281
▁concieve	-7282
▁pregabalin	-7283
So	-7284
▁gre	-7285
could	-7286
▁MEDIC	-7287
▁passage	-7288
law	-7289
▁device	-7290
▁dilated	-7291
Doc	-7292
▁85	-7293
▁cip	-7294
▁abst	-7295
inding	-7296
▁Fatty	-7297
▁limiting	-7298
▁troubles	-7299
▁46	-7300
obia	-7301
▁burping	-7302
▁replaced	-7303
,,,	-7304
▁WHO	-7305
▁begins	-7306
roscopic	-7307
▁himself	-7308
▁poll	-7309
▁gained	-7310
▁sneeze	-7311
▁modification	-7312
va	-7313
▁AFTER	-7314
▁cathe	-7315
agulation	-7316
▁correctly	-7317
▁fractured	-7318
▁mus	-7319
▁luke	-7320
izophrenia	-7321
hens	-7322
iles	-7323
▁Esc	-7324
▁dup	-7325
▁vide	-7326
▁induce	-7327
▁protrusion	-7328
WW	-7329
ressure	-7330
▁retain	-7331
▁pleurisy	-7332
▁Ultrasonography	-7333
▁IC	-7334
emale	-7335
using	-7336
▁BEEN	-7337
▁Init	-7338
▁items	-7339
▁irritable	-7340
▁concerning	-7341
▁41	-7342
Hope	-7343
▁Answer	-7344
▁blocker	-7345
▁survive	-7346
▁reliable	-7347
cg	-7348
ULT	-7349
ida	-7350
▁TR	-7351
▁appt	-7352
▁tran	-7353
▁elder	-7354
▁Mostly	-7355
▁distal	-7356
▁clarify	-7357
▁endometriosis	-7358
▁monit	-7359
▁reflex	-7360
▁sonography	-7361
▁Stop	-7362
▁Senior	-7363
▁forgot	-7364
▁thrush	-7365
▁diaphrag	-7366
▁ligaments	-7367
▁seed	-7368
▁disrup	-7369
▁session	-7370
▁pituitary	-7371
▁Ret	-7372
rating	-7373
▁beyond	-7374
▁57	-7375
rocin	-7376
▁busy	-7377
veness	-7378
▁forte	-7379
▁danger	-7380
▁decomp	-7381
▁college	-7382
▁SY	-7383
amic	-7384
▁god	-7385
▁glyc	-7386
▁washed	-7387
▁hemorrhoid	-7388
After	-7389
▁Acid	-7390
▁foul	-7391
▁infar	-7392
▁trial	-7393
▁injected	-7394
▁Ur	-7395
look	-7396
▁Syn	-7397
ggers	-7398
ractor	-7399
▁breaths	-7400
▁extensive	-7401
CI	-7402
auses	-7403
▁popped	-7404
▁regain	-7405
▁199	-7406
▁slept	-7407
▁embolism	-7408
▁specifically	-7409
▁nit	-7410
▁fatal	-7411
ception	-7412
▁pressing	-7413
▁Thus	-7414
▁pock	-7415
▁BLOOD	-7416
▁grows	-7417
▁shoes	-7418
▁Swelling	-7419
hank	-7420
▁benz	-7421
▁laxity	-7422
lycerides	-7423
itude	-7424
%.	-7425
▁shr	-7426
adays	-7427
oxidil	-7428
▁illnesses	-7429
▁determined	-7430
▁improves	-7431
▁complained	-7432
▁DE	-7433
eter	-7434
▁LDL	-7435
mal	-7436
cycl	-7437
ymal	-7438
alore	-7439
jacent	-7440
▁inguinal	-7441
▁lukewarm	-7442
bi	-7443
ats	-7444
isp	-7445
lower	-7446
▁virt	-7447
▁squeeze	-7448
▁viruses	-7449
▁relatively	-7450
▁permanently	-7451
psych	-7452
▁WILL	-7453
▁tens	-7454
oterol	-7455
▁Respected	-7456
avoid	-7457
chers	-7458
▁allevi	-7459
▁series	-7460
▁shiver	-7461
odontist	-7462
IDE	-7463
zhe	-7464
▁mur	-7465
▁diag	-7466
▁click	-7467
ruciating	-7468
▁afterwards	-7469
GG	-7470
hep	-7471
ryn	-7472
▁Occ	-7473
▁Period	-7474
IND	-7475
lem	-7476
uted	-7477
▁rinse	-7478
▁summer	-7479
▁consistent	-7480
RO	-7481
▁OTC	-7482
ibroma	-7483
cutaneous	-7484
romatosis	-7485
▁noticing	-7486
▁CM	-7487
▁Iron	-7488
▁fits	-7489
▁digestion	-7490
%,	-7491
hyp	-7492
obic	-7493
▁handle	-7494
▁fainting	-7495
▁microscopy	-7496
▁sickness	-7497
▁Management	-7498
▁CL	-7499
▁wt	-7500
▁ASA	-7501
asmodic	-7502
▁extrem	-7503
▁Without	-7504
▁spreads	-7505
omyopathy	-7506
py	-7507
.3)	-7508
▁49	-7509
aric	-7510
sient	-7511
inemia	-7512
▁Folic	-7513
▁categ	-7514
▁triple	-7515
▁nearest	-7516
▁penicillin	-7517
▁puls	-7518
▁differential	-7519
omer	-7520
aphyl	-7521
ibular	-7522
rential	-7523
▁somewhere	-7524
.4)	-7525
THER	-7526
toms	-7527
alled	-7528
angalore	-7529
▁modifications	-7530
PA	-7531
OST	-7532
▁.1.	-7533
▁Hist	-7534
▁Early	-7535
▁layer	-7536
▁radio	-7537
▁juices	-7538
▁dropped	-7539
indamycin	-7540
▁incident	-7541
▁recovering	-7542
▁Az	-7543
▁110	-7544
▁team	-7545
▁Prost	-7546
▁adjacent	-7547
▁Bronchitis	-7548
oups	-7549
▁Tri	-7550
tivity	-7551
▁field	-7552
▁paper	-7553
▁fevers	-7554
▁Beta	-7555
▁access	-7556
ocytosis	-7557
▁twitching	-7558
ety	-7559
mond	-7560
bably	-7561
cardi	-7562
▁outb	-7563
▁precip	-7564
▁Multiple	-7565
▁lymphaden	-7566
▁Dermatologist	-7567
Ray	-7568
was	-7569
▁0.5	-7570
▁poop	-7571
▁Researchers	-7572
▁ox	-7573
icians	-7574
openia	-7575
▁varicocele	-7576
▁STI	-7577
▁YEARS	-7578
▁thoracic	-7579
▁performance	-7580
Con	-7581
▁125	-7582
under	-7583
▁harder	-7584
▁subsequ	-7585
▁ischemia	-7586
▁intrauterine	-7587
mar	-7588
▁Total	-7589
roscopy	-7590
▁parench	-7591
vertebral	-7592
▁toothache	-7593
▁Congenital	-7594
▁cellulitis	-7595
GN	-7596
▁mi	-7597
gued	-7598
▁ker	-7599
ctive	-7600
▁Life	-7601
▁fats	-7602
vaginal	-7603
▁PROBLE	-7604
▁destro	-7605
▁relapse	-7606
UST	-7607
▁Hb	-7608
▁oxid	-7609
ameter	-7610
icular	-7611
▁retin	-7612
▁anomal	-7613
▁nodules	-7614
▁encephal	-7615
RING	-7616
▁Val	-7617
ausea	-7618
▁BACK	-7619
▁stick	-7620
▁master	-7621
▁photograph	-7622
asse	-7623
▁knows	-7624
▁skill	-7625
▁butter	-7626
▁carbon	-7627
▁Firstly	-7628
▁encourage	-7629
▁interfere	-7630
aves	-7631
▁flare	-7632
▁slipped	-7633
▁whom	-7634
▁Inter	-7635
▁wakes	-7636
▁clears	-7637
▁transp	-7638
▁pushing	-7639
▁realize	-7640
▁myopathy	-7641
▁64	-7642
▁finish	-7643
▁smoked	-7644
▁consequ	-7645
▁monitored	-7646
▁meningitis	-7647
▁therapeutic	-7648
▁excruciating	-7649
ora	-7650
▁63	-7651
raum	-7652
▁Chem	-7653
▁cast	-7654
▁drank	-7655
▁wheat	-7656
ciation	-7657
▁ChatDoc	-7658
▁ovulating	-7659
▁AV	-7660
oneal	-7661
▁phone	-7662
itating	-7663
▁improper	-7664
▁exhausted	-7665
▁(5	-7666
▁Horm	-7667
▁bout	-7668
astric	-7669
▁Patients	-7670
▁1:	-7671
▁torn	-7672
emaker	-7673
▁paining	-7674
▁obviously	-7675
▁osteoarthritis	-7676
cha	-7677
▁PET	-7678
▁acids	-7679
▁popping	-7680
As	-7681
DI	-7682
idd	-7683
▁lives	-7684
▁scoliosis	-7685
▁attributed	-7686
▁pathological	-7687
aked	-7688
apine	-7689
▁blot	-7690
ractice	-7691
▁density	-7692
▁message	-7693
▁aneurysm	-7694
▁menopause	-7695
▁protective	-7696
etc	-7697
rans	-7698
udden	-7699
▁Echo	-7700
▁scab	-7701
▁tailbone	-7702
8,	-7703
ura	-7704
▁EM	-7705
▁jog	-7706
otrin	-7707
▁immo	-7708
arcoma	-7709
▁disloc	-7710
▁angioplasty	-7711
▁constipated	-7712
▁51	-7713
atous	-7714
ference	-7715
▁portal	-7716
▁patency	-7717
▁presents	-7718
▁esophageal	-7719
lin	-7720
▁displ	-7721
▁Always	-7722
▁boiled	-7723
▁observe	-7724
ALLY	-7725
iring	-7726
ulsive	-7727
▁tells	-7728
▁migraines	-7729
▁organisms	-7730
▁palpitation	-7731
fied	-7732
idym	-7733
▁forming	-7734
▁expector	-7735
▁landed	-7736
▁mature	-7737
▁Cognitive	-7738
▁secretions	-7739
oxy	-7740
▁5-	-7741
▁Upper	-7742
onscious	-7743
▁PE	-7744
▁saf	-7745
roxen	-7746
▁Seizures	-7747
▁physiological	-7748
inge	-7749
▁thy	-7750
▁ASAP	-7751
▁Trans	-7752
▁Orthop	-7753
▁Infectious	-7754
▁metastatic	-7755
▁testicular	-7756
rite	-7757
▁belt	-7758
▁holding	-7759
▁Addition	-7760
▁benefits	-7761
▁OD	-7762
▁PA	-7763
orta	-7764
▁cla	-7765
omnia	-7766
▁Cause	-7767
▁Never	-7768
▁ambul	-7769
▁hoping	-7770
▁Wednesday	-7771
tib	-7772
▁POD	-7773
▁por	-7774
▁clav	-7775
▁drive	-7776
▁Detail	-7777
▁Holder	-7778
illation	-7779
▁private	-7780
▁maintained	-7781
▁complicated	-7782
▁yo	-7783
hast	-7784
oconut	-7785
▁Creat	-7786
▁palsy	-7787
▁frontal	-7788
▁mosquit	-7789
irt	-7790
▁Neph	-7791
ecreased	-7792
▁predict	-7793
▁triggers	-7794
brow	-7795
▁Our	-7796
thood	-7797
▁clue	-7798
▁dots	-7799
itched	-7800
▁extend	-7801
▁enhance	-7802
▁3-5	-7803
about	-7804
ancies	-7805
▁xrays	-7806
▁Emergency	-7807
▁guidelines	-7808
▁MONTH	-7809
▁fistula	-7810
dish	-7811
▁cong	-7812
▁Micro	-7813
▁Lately	-7814
▁daughters	-7815
aring	-7816
ipine	-7817
meric	-7818
▁comb	-7819
▁april	-7820
▁antigen	-7821
▁calling	-7822
▁families	-7823
CA	-7824
atio	-7825
▁INF	-7826
iscus	-7827
▁degrees	-7828
▁mineral	-7829
▁staying	-7830
▁workout	-7831
▁multivitamins	-7832
pill	-7833
▁lob	-7834
▁tonsil	-7835
▁catheter	-7836
▁diameter	-7837
▁calcification	-7838
▁HSG	-7839
▁neither	-7840
▁fatigued	-7841
▁discussed	-7842
ager	-7843
▁plant	-7844
▁embryo	-7845
▁10.	-7846
▁Cat	-7847
▁gout	-7848
▁apnea	-7849
▁kinds	-7850
▁linked	-7851
▁pulses	-7852
▁states	-7853
▁abnormally	-7854
▁environmental	-7855
▁apple	-7856
▁focal	-7857
▁impos	-7858
▁friction	-7859
▁grandson	-7860
▁Abdominal	-7861
▁polycystic	-7862
ABLE	-7863
icate	-7864
▁teet	-7865
▁pubic	-7866
▁impression	-7867
osal	-7868
tery	-7869
uses	-7870
ortun	-7871
▁eyebrow	-7872
▁resolves	-7873
▁scarring	-7874
▁borderline	-7875
▁correlation	-7876
TR	-7877
odia	-7878
▁van	-7879
▁Yoga	-7880
▁umbil	-7881
▁demand	-7882
▁antacids	-7883
▁scratching	-7884
▁ED	-7885
▁hal	-7886
gging	-7887
hexid	-7888
▁Lower	-7889
▁testes	-7890
MA	-7891
SE	-7892
odon	-7893
▁aim	-7894
▁amp	-7895
▁glut	-7896
▁Again	-7897
ellitus	-7898
▁Problem	-7899
▁biliary	-7900
▁killers	-7901
inations	-7902
▁fathers	-7903
igmentation	-7904
▁breathless	-7905
eps	-7906
▁Ver	-7907
▁mac	-7908
▁Radi	-7909
▁Americ	-7910
▁friday	-7911
▁monthly	-7912
▁microscopic	-7913
▁Escitalopram	-7914
PL	-7915
gin	-7916
▁!!	-7917
isin	-7918
olid	-7919
▁und	-7920
helial	-7921
▁Add	-7922
▁save	-7923
entral	-7924
▁orange	-7925
▁worsens	-7926
▁calamine	-7927
▁Greetings	-7928
▁histopath	-7929
yed	-7930
▁Ref	-7931
▁lic	-7932
aches	-7933
▁consultant	-7934
▁(4	-7935
▁gp	-7936
▁tick	-7937
▁Defin	-7938
▁witChatDoctor	-7939
0,	-7940
▁fro	-7941
opril	-7942
▁tears	-7943
▁invasive	-7944
▁unfortunately	-7945
▁OLD	-7946
▁animal	-7947
▁incomplete	-7948
cepti	-7949
▁sett	-7950
▁stability	-7951
hand	-7952
▁ova	-7953
opedia	-7954
▁herself	-7955
▁annoying	-7956
▁contribute	-7957
IH	-7958
ega	-7959
raline	-7960
▁bleeds	-7961
▁fibrous	-7962
▁majority	-7963
▁angiogram	-7964
▁Depression	-7965
▁Da	-7966
feel	-7967
▁sulf	-7968
▁loosing	-7969
▁plastic	-7970
cyclopedia	-7971
▁Acetaminophen	-7972
ued	-7973
▁spi	-7974
▁wip	-7975
▁humid	-7976
▁infilt	-7977
▁learning	-7978
▁reversible	-7979
opat	-7980
rich	-7981
bling	-7982
▁TREAT	-7983
▁ingred	-7984
hexidine	-7985
▁homeopathy	-7986
▁impossible	-7987
▁Encyclopedia	-7988
rea	-7989
oking	-7990
▁lith	-7991
ficial	-7992
▁laugh	-7993
▁objects	-7994
sometimes	-7995
▁concussion	-7996
ECT	-7997
▁tram	-7998
▁artic	-7999
▁attach	-8000
▁physio	-8001
▁curious	-8002
▁partners	-8003
0000	-8004
▁102	-8005
▁HPV	-8006
▁mum	-8007
▁une	-8008
▁pacemaker	-8009
▁discharged	-8010
gan	-8011
▁eight	-8012
▁feeds	-8013
▁threw	-8014
omiting	-8015
ulthood	-8016
diopathic	-8017
▁restricted	-8018
▁intravenous	-8019
▁laparoscopy	-8020
▁decongestants	-8021
olo	-8022
▁BMI	-8023
▁Alzhe	-8024
▁eruption	-8025
▁discontin	-8026
▁ventricular	-8027
ios	-8028
down	-8029
iced	-8030
▁Cerv	-8031
▁Chol	-8032
inence	-8033
▁alpha	-8034
▁ducts	-8035
▁darker	-8036
▁ventil	-8037
▁poisoning	-8038
▁Psychiatrist	-8039
▁12.	-8040
▁3.5	-8041
▁Men	-8042
▁net	-8043
rough	-8044
▁THAN	-8045
ologic	-8046
idental	-8047
▁absent	-8048
entially	-8049
▁Smoking	-8050
▁ayurvedic	-8051
▁6-8	-8052
illed	-8053
▁Prol	-8054
▁nost	-8055
▁lines	-8056
▁noise	-8057
▁cortisone	-8058
la	-8059
lip	-8060
▁tur	-8061
Avoid	-8062
▁TEST	-8063
cribed	-8064
▁gentle	-8065
▁critical	-8066
omid	-8067
ounter	-8068
▁anemic	-8069
▁tunnel	-8070
▁residual	-8071
▁antidepressants	-8072
▁clu	-8073
otrex	-8074
uling	-8075
▁Deep	-8076
▁FEEL	-8077
▁termin	-8078
▁achieve	-8079
▁protocol	-8080
▁Ster	-8081
ococcal	-8082
athyroid	-8083
▁Recurrent	-8084
▁Neurologist	-8085
▁MRSA	-8086
ranial	-8087
▁THERE	-8088
▁terri	-8089
▁closely	-8090
▁systems	-8091
▁methylcobal	-8092
oor	-8093
▁:-	-8094
enta	-8095
hest	-8096
▁Lim	-8097
▁aortic	-8098
▁hypertensive	-8099
asp	-8100
ecia	-8101
▁lub	-8102
ypical	-8103
luggish	-8104
▁lactose	-8105
▁seasonal	-8106
inflammation	-8107
ands	-8108
hesis	-8109
▁Stud	-8110
▁graft	-8111
▁Breast	-8112
▁etiology	-8113
▁interested	-8114
mary	-8115
▁Nor	-8116
▁til	-8117
▁recept	-8118
▁Ste	-8119
▁bac	-8120
▁chirop	-8121
▁condoms	-8122
▁scabies	-8123
▁thinning	-8124
▁rt	-8125
▁III	-8126
▁led	-8127
▁teac	-8128
▁thecal	-8129
▁diligence	-8130
iar	-8131
▁mcg	-8132
▁oint	-8133
ngitis	-8134
▁regurg	-8135
▁separate	-8136
▁respective	-8137
lean	-8138
orax	-8139
▁Whenever	-8140
formoterol	-8141
▁aid	-8142
▁Wear	-8143
▁pati	-8144
▁quad	-8145
▁adoles	-8146
▁reached	-8147
▁blockers	-8148
▁ChatDoctorIn	-8149
SF	-8150
CER	-8151
▁Inc	-8152
outine	-8153
assemia	-8154
▁breaks	-8155
▁ventric	-8156
▁discontinue	-8157
rem	-8158
▁Ext	-8159
▁Wash	-8160
▁paranoid	-8161
▁component	-8162
▁Been	-8163
▁dysp	-8164
▁stayed	-8165
▁tremor	-8166
▁pictures	-8167
▁regulate	-8168
▁colic	-8169
adequate	-8170
Reg	-8171
▁oo	-8172
▁channel	-8173
▁immunotherapy	-8174
uro	-8175
▁easier	-8176
▁Morning	-8177
And	-8178
aken	-8179
elvic	-8180
▁clon	-8181
▁Coming	-8182
▁flucon	-8183
▁mitral	-8184
▁mornings	-8185
wel	-8186
▁Nov	-8187
ients	-8188
▁defic	-8189
▁Excess	-8190
▁bowels	-8191
▁winter	-8192
otrexate	-8193
▁Calcium	-8194
▁nipples	-8195
▁Wellcome	-8196
ayed	-8197
stet	-8198
▁180	-8199
▁reocc	-8200
▁Contact	-8201
▁reddish	-8202
diagnosed	-8203
▁September	-8204
▁consuming	-8205
CL	-8206
elly	-8207
▁30%	-8208
opecia	-8209
▁corner	-8210
▁leaves	-8211
▁pushed	-8212
▁infancy	-8213
▁underwear	-8214
201	-8215
untary	-8216
▁preval	-8217
▁suscepti	-8218
▁vaccinated	-8219
ococc	-8220
▁mari	-8221
▁diaper	-8222
▁partially	-8223
ocetirizine	-8224
▁SA	-8225
▁Cip	-8226
eliac	-8227
tical	-8228
▁abuse	-8229
▁choose	-8230
rinologist	-8231
▁overnight	-8232
▁receiving	-8233
▁Investigations	-8234
▁ther	-8235
▁trip	-8236
▁artif	-8237
▁nostril	-8238
ICH	-8239
▁OUT	-8240
▁pure	-8241
▁toward	-8242
▁connect	-8243
▁isolated	-8244
don	-8245
iap	-8246
icyl	-8247
arget	-8248
▁educ	-8249
▁pierc	-8250
▁written	-8251
▁hematologist	-8252
▁spontaneously	-8253
thle	-8254
plained	-8255
▁acquired	-8256
▁resolution	-8257
▁Mar	-8258
▁som	-8259
▁8-10	-8260
▁cuff	-8261
▁occas	-8262
▁monday	-8263
▁leaking	-8264
▁eliminate	-8265
▁ointments	-8266
nut	-8267
▁TIME	-8268
▁july	-8269
▁Primary	-8270
▁Children	-8271
▁obsession	-8272
icks	-8273
rape	-8274
ritin	-8275
lusion	-8276
▁spong	-8277
phy	-8278
▁Bone	-8279
▁loud	-8280
▁alarm	-8281
▁facet	-8282
▁techn	-8283
▁cheese	-8284
▁electric	-8285
▁fas	-8286
rednis	-8287
▁awful	-8288
▁fissure	-8289
▁Practice	-8290
12,	-8291
hrs	-8292
▁june	-8293
requent	-8294
thyroidism	-8295
▁neuralgia	-8296
▁satisfaction	-8297
sal	-8298
▁LOW	-8299
▁key	-8300
▁tap	-8301
▁wid	-8302
▁Local	-8303
▁gangl	-8304
▁sites	-8305
▁smelling	-8306
▁automatic	-8307
▁fluttering	-8308
▁Amoxicillin	-8309
▁Af	-8310
▁El	-8311
apar	-8312
▁4-7	-8313
thalm	-8314
▁pool	-8315
▁Cereb	-8316
ologies	-8317
▁Bleeding	-8318
▁probiotics	-8319
▁Sch	-8320
onest	-8321
▁palms	-8322
ata	-8323
▁pm	-8324
itory	-8325
▁Being	-8326
▁aorta	-8327
▁neurof	-8328
▁stream	-8329
▁unclear	-8330
ubercular	-8331
▁fluconazole	-8332
▁contractions	-8333
▁ataxia	-8334
▁simult	-8335
▁temple	-8336
▁bronchi	-8337
▁organic	-8338
▁Male	-8339
ention	-8340
▁original	-8341
▁primarily	-8342
OLL	-8343
▁Ig	-8344
ococcus	-8345
▁obtained	-8346
▁Considering	-8347
aj	-8348
▁10%	-8349
ipped	-8350
▁spend	-8351
▁ovulate	-8352
struction	-8353
▁intervals	-8354
▁mono	-8355
▁arising	-8356
▁avoidance	-8357
▁diaphragm	-8358
▁aggravated	-8359
ICE	-8360
TER	-8361
OLOG	-8362
olol	-8363
▁bic	-8364
ORMAL	-8365
lovir	-8366
mother	-8367
▁Write	-8368
▁whose	-8369
▁context	-8370
▁tetanus	-8371
▁Orthopedic	-8372
▁Si	-8373
▁ana	-8374
aract	-8375
eside	-8376
▁finds	-8377
▁embarr	-8378
▁blurred	-8379
▁appearing	-8380
ffic	-8381
▁chocol	-8382
▁papill	-8383
▁massive	-8384
▁February	-8385
▁circumst	-8386
▁Currently	-8387
▁fibrillation	-8388
osite	-8389
▁eryth	-8390
▁proved	-8391
▁measured	-8392
/1	-8393
▁Sleep	-8394
atation	-8395
▁virtual	-8396
▁epidural	-8397
▁ejaculated	-8398
-12	-8399
NOW	-8400
eria	-8401
▁Mel	-8402
▁coc	-8403
allerg	-8404
▁ideal	-8405
▁infant	-8406
▁marker	-8407
▁patience	-8408
▁occasions	-8409
▁personally	-8410
▁malformation	-8411
pf	-8412
▁fed	-8413
▁Food	-8414
codone	-8415
▁belie	-8416
▁warfarin	-8417
uz	-8418
For	-8419
ita	-8420
oses	-8421
your	-8422
first	-8423
odiazep	-8424
▁azithromycin	-8425
▁HDL	-8426
▁Ins	-8427
▁mail	-8428
epilep	-8429
▁analy	-8430
▁coagulation	-8431
▁clotrimazole	-8432
)?	-8433
VING	-8434
▁murm	-8435
▁puber	-8436
▁usage	-8437
hr	-8438
▁AP	-8439
▁insist	-8440
▁elderly	-8441
▁adulthood	-8442
▁marijuana	-8443
▁antibacterial	-8444
ITY	-8445
lig	-8446
anax	-8447
ausal	-8448
ospor	-8449
▁2009	-8450
▁labs	-8451
▁lary	-8452
▁nails	-8453
▁Topical	-8454
▁absorption	-8455
▁superficial	-8456
▁GGT	-8457
traline	-8458
▁recogn	-8459
▁breaking	-8460
enic	-8461
vell	-8462
▁coconut	-8463
▁counsel	-8464
ofen	-8465
▁101	-8466
anged	-8467
▁Immun	-8468
▁Using	-8469
▁claim	-8470
▁judge	-8471
▁images	-8472
▁account	-8473
▁calorie	-8474
▁cardiomyopathy	-8475
IF	-8476
max	-8477
▁cms	-8478
▁crac	-8479
▁prompt	-8480
▁Inflamm	-8481
▁68	-8482
▁Few	-8483
▁corp	-8484
▁neurop	-8485
▁signal	-8486
▁suspic	-8487
▁HS	-8488
▁Hyd	-8489
▁ail	-8490
▁box	-8491
▁tel	-8492
▁flap	-8493
▁inqu	-8494
▁Happy	-8495
▁prophylaxis	-8496
lier	-8497
▁golf	-8498
▁span	-8499
▁motiv	-8500
certain	-8501
▁building	-8502
▁endoscopic	-8503
▁INR	-8504
▁ONE	-8505
▁nov	-8506
▁racing	-8507
▁alkaline	-8508
▁tramadol	-8509
▁magnesium	-8510
unc	-8511
usp	-8512
only	-8513
▁IUI	-8514
▁Sha	-8515
amous	-8516
▁coma	-8517
▁ends	-8518
▁latest	-8519
▁lubric	-8520
▁denture	-8521
▁leakage	-8522
▁cholecystectomy	-8523
▁recommendations	-8524
▁BY	-8525
▁Plz	-8526
▁buy	-8527
▁bene	-8528
▁synt	-8529
▁excer	-8530
▁workup	-8531
▁newborn	-8532
▁tolerate	-8533
▁unrelated	-8534
▁describing	-8535
▁sug	-8536
▁outlook	-8537
.).	-8538
bles	-8539
▁wks	-8540
odine	-8541
▁garlic	-8542
▁Discuss	-8543
▁Cervical	-8544
▁67	-8545
angu	-8546
ette	-8547
oplasm	-8548
▁bland	-8549
readmill	-8550
▁clothing	-8551
▁diuretics	-8552
▁remission	-8553
▁Medication	-8554
hee	-8555
ivitis	-8556
▁vigor	-8557
▁retard	-8558
▁stents	-8559
▁progresses	-8560
anth	-8561
isis	-8562
will	-8563
▁Fer	-8564
▁bent	-8565
selves	-8566
utions	-8567
▁Pediatr	-8568
aff	-8569
▁BD	-8570
monia	-8571
▁bald	-8572
▁conj	-8573
▁Rheum	-8574
▁aging	-8575
▁india	-8576
clerosis	-8577
▁Neurological	-8578
▁scientifically	-8579
nai	-8580
▁IG	-8581
rocy	-8582
▁Cost	-8583
risome	-8584
▁penile	-8585
▁consists	-8586
▁worrisome	-8587
chy	-8588
key	-8589
oin	-8590
▁anat	-8591
▁bike	-8592
▁rush	-8593
health	-8594
▁Maybe	-8595
▁boils	-8596
▁spent	-8597
onazole	-8598
ostosis	-8599
▁texture	-8600
▁shivering	-8601
ERD	-8602
lot	-8603
▁ekg	-8604
▁stor	-8605
▁hairline	-8606
sensitivity	-8607
▁DVT	-8608
▁sep	-8609
▁Plus	-8610
uclear	-8611
▁paint	-8612
iapical	-8613
▁Friend	-8614
▁lowering	-8615
▁meniscus	-8616
▁HelloWelcome	-8617
▁wi	-8618
anal	-8619
▁Mang	-8620
▁edge	-8621
▁hate	-8622
▁synd	-8623
▁wanna	-8624
▁3-	-8625
umber	-8626
ialysis	-8627
halassemia	-8628
▁Initially	-8629
▁foraminal	-8630
▁Everything	-8631
Hyp	-8632
sha	-8633
▁Bag	-8634
▁ham	-8635
anging	-8636
illitis	-8637
▁drained	-8638
▁tylenol	-8639
▁mellitus	-8640
▁morphine	-8641
▁relative	-8642
▁urgently	-8643
▁66	-8644
hane	-8645
phal	-8646
▁regen	-8647
▁wanting	-8648
▁Antihist	-8649
▁estimated	-8650
▁consistency	-8651
▁parenchymal	-8652
fall	-8653
▁Ide	-8654
▁hiat	-8655
▁upto	-8656
▁sticky	-8657
▁beneath	-8658
▁decayed	-8659
▁squeezing	-8660
ilk	-8661
▁gram	-8662
▁Intra	-8663
▁athle	-8664
▁Individual	-8665
HE	-8666
TIS	-8667
ere	-8668
icc	-8669
▁ages	-8670
idocaine	-8671
vastatin	-8672
▁cortical	-8673
▁straining	-8674
agul	-8675
▁vul	-8676
legra	-8677
▁mask	-8678
▁Hemat	-8679
▁arise	-8680
▁bouts	-8681
▁acidic	-8682
▁adrenal	-8683
▁camphene	-8684
▁rig	-8685
umbar	-8686
▁ALLERG	-8687
▁gently	-8688
▁mosquito	-8689
▁embarrass	-8690
▁accidentally	-8691
▁schizophrenia	-8692
▁cour	-8693
▁disab	-8694
▁cholest	-8695
▁Hopefully	-8696
▁antiviral	-8697
▁necessarily	-8698
Bl	-8699
▁sin	-8700
▁THEY	-8701
▁White	-8702
ostatic	-8703
ithelial	-8704
▁quarter	-8705
enza	-8706
▁HCV	-8707
brane	-8708
izers	-8709
▁trace	-8710
ipheral	-8711
▁holder	-8712
▁skills	-8713
-30	-8714
hab	-8715
▁haem	-8716
▁Hypot	-8717
▁deeply	-8718
▁mobile	-8719
▁puncture	-8720
budesonide	-8721
▁interaction	-8722
HO	-8723
▁Bar	-8724
elled	-8725
▁NEED	-8726
oderma	-8727
▁serve	-8728
▁smells	-8729
▁instant	-8730
▁shortly	-8731
▁carrying	-8732
CC	-8733
ka	-8734
▁infe	-8735
haston	-8736
▁Where	-8737
▁Causes	-8738
▁History	-8739
▁puberty	-8740
▁restric	-8741
omuscular	-8742
rofloxacin	-8743
?)	-8744
▁CKD	-8745
▁hom	-8746
inary	-8747
monds	-8748
▁news	-8749
▁adding	-8750
▁1,	-8751
▁Anal	-8752
▁RIGHT	-8753
▁store	-8754
▁chromosomes	-8755
▁administered	-8756
ads	-8757
▁IR	-8758
▁Ant	-8759
▁WHEN	-8760
▁shad	-8761
▁bread	-8762
tibular	-8763
ulations	-8764
▁buttock	-8765
▁extended	-8766
▁pinching	-8767
▁hallucinations	-8768
RY	-8769
▁flight	-8770
activity	-8771
▁structural	-8772
▁2-	-8773
▁fol	-8774
▁Relax	-8775
▁coord	-8776
▁dream	-8777
othorax	-8778
▁realized	-8779
▁hosp	-8780
▁Count	-8781
▁Manga	-8782
▁screw	-8783
anxiety	-8784
▁closer	-8785
▁Aplasia	-8786
▁researc	-8787
▁contribut	-8788
▁obsessive	-8789
▁Augmenting	-8790
▁cous	-8791
▁imag	-8792
▁Colon	-8793
tipation	-8794
▁alleviate	-8795
▁disturbing	-8796
OUS	-8797
flu	-8798
▁bud	-8799
▁sec	-8800
▁sand	-8801
▁units	-8802
▁gestational	-8803
▁respectively	-8804
Jay	-8805
▁Inj	-8806
▁TMJ	-8807
▁thinner	-8808
▁gingival	-8809
▁probiotic	-8810
▁abstinence	-8811
▁suspicious	-8812
hav	-8813
▁Warm	-8814
roxine	-8815
▁incidence	-8816
ORT	-8817
▁WHICH	-8818
▁miles	-8819
anguage	-8820
▁infest	-8821
ontinence	-8822
▁Betadine	-8823
▁worsened	-8824
▁irritating	-8825
▁effectively	-8826
▁aren	-8827
▁Nerve	-8828
▁video	-8829
▁pleura	-8830
aid	-8831
bet	-8832
▁:(	-8833
lant	-8834
▁PRE	-8835
icked	-8836
▁burs	-8837
▁Brief	-8838
▁staph	-8839
▁update	-8840
▁needful	-8841
▁palliative	-8842
MRI	-8843
▁WEE	-8844
adryl	-8845
hered	-8846
▁exams	-8847
▁excre	-8848
▁nursing	-8849
▁researchers	-8850
▁Hypertension	-8851
▁Talk	-8852
▁clus	-8853
▁shed	-8854
▁spit	-8855
venile	-8856
fectious	-8857
▁Typhoid	-8858
▁cutting	-8859
▁squeezed	-8860
▁presently	-8861
▁transient	-8862
▁lymphocytes	-8863
▁cum	-8864
oring	-8865
▁occup	-8866
osterior	-8867
60	-8868
OUND	-8869
▁Elev	-8870
▁rear	-8871
▁funny	-8872
▁blades	-8873
▁static	-8874
▁insomnia	-8875
▁59	-8876
▁cep	-8877
▁Root	-8878
▁Repeat	-8879
▁masterb	-8880
▁sunlight	-8881
▁Pneumonia	-8882
hew	-8883
▁tha	-8884
▁debr	-8885
▁sequ	-8886
▁waves	-8887
▁gaining	-8888
▁circumstances	-8889
Ex	-8890
PE	-8891
▁4)	-8892
mental	-8893
▁picked	-8894
▁citrate	-8895
striction	-8896
▁Allergic	-8897
▁pleasure	-8898
lim	-8899
ugar	-8900
▁11.	-8901
idine	-8902
▁spor	-8903
▁Sudden	-8904
▁unwell	-8905
▁wouldn	-8906
▁glasses	-8907
▁Individuals	-8908
▁specialists	-8909
▁regurgitation	-8910
▁BAD	-8911
legia	-8912
osphat	-8913
▁pylori	-8914
▁regions	-8915
▁ablation	-8916
odg	-8917
▁DAYS	-8918
▁viol	-8919
▁index	-8920
▁brownish	-8921
▁deletion	-8922
▁lethargic	-8923
▁hypertrophy	-8924
OID	-8925
▁Gu	-8926
▁ratio	-8927
▁target	-8928
▁attempt	-8929
▁trimester	-8930
▁ANA	-8931
▁ride	-8932
▁precise	-8933
▁distance	-8934
▁repeatedly	-8935
Re	-8936
ls	-8937
▁SM	-8938
illi	-8939
▁95%	-8940
▁bran	-8941
▁travell	-8942
▁themselves	-8943
aut	-8944
uated	-8945
▁PROBLEM	-8946
▁hemolytic	-8947
atus	-8948
▁tan	-8949
ogurt	-8950
▁ABOUT	-8951
▁cloth	-8952
▁jogging	-8953
ofenadine	-8954
▁inactive	-8955
▁membrane	-8956
▁mentally	-8957
▁expecting	-8958
▁pollution	-8959
mis	-8960
oxic	-8961
▁cav	-8962
aries	-8963
blast	-8964
kindly	-8965
▁micros	-8966
▁scream	-8967
▁insertion	-8968
▁scratched	-8969
▁spondylitis	-8970
▁q	-8971
domen	-8972
▁varicose	-8973
▁detection	-8974
OK	-8975
▁potato	-8976
▁hypoglycemia	-8977
non	-8978
▁2,	-8979
▁OB	-8980
iter	-8981
▁eros	-8982
▁intro	-8983
▁spider	-8984
▁carries	-8985
▁randomly	-8986
▁apparently	-8987
sed	-8988
▁COU	-8989
▁achy	-8990
▁pinch	-8991
▁hemorrhoids	-8992
▁automatically	-8993
tly	-8994
mias	-8995
▁NIH	-8996
▁100.	-8997
because	-8998
▁buildup	-8999
▁company	-9000
oconazole	-9001
▁language	-9002
▁dependent	-9003
AG	-9004
▁PS	-9005
▁Bas	-9006
▁HIS	-9007
itish	-9008
raind	-9009
▁Lump	-9010
▁irre	-9011
hennai	-9012
urring	-9013
▁sweet	-9014
▁ultim	-9015
▁august	-9016
▁canker	-9017
isinopril	-9018
tis	-9019
▁Seb	-9020
berry	-9021
heart	-9022
▁cere	-9023
▁shut	-9024
▁coughs	-9025
▁patent	-9026
▁teething	-9027
▁scientific	-9028
▁endocrinologist	-9029
15	-9030
een	-9031
spr	-9032
▁ft	-9033
high	-9034
▁CONS	-9035
▁semi	-9036
▁Medicine	-9037
▁indirect	-9038
▁Disorders	-9039
▁mammogram	-9040
▁unconscious	-9041
▁Progesterone	-9042
▁triglycerides	-9043
▁bc	-9044
▁LAST	-9045
odgkin	-9046
▁scrotal	-9047
▁sending	-9048
▁hospitals	-9049
▁localizing	-9050
▁inferential	-9051
?.	-9052
ops	-9053
▁ADD	-9054
▁ped	-9055
ailure	-9056
▁pract	-9057
▁neglect	-9058
▁soothing	-9059
▁histamine	-9060
▁decompression	-9061
van	-9062
romb	-9063
ardial	-9064
▁postp	-9065
▁public	-9066
▁Probably	-9067
ocytopenia	-9068
▁adhesions	-9069
▁mitochond	-9070
▁Chemotherapy	-9071
ham	-9072
▁61	-9073
▁95	-9074
rohn	-9075
▁fallen	-9076
▁insight	-9077
▁Endoscopy	-9078
▁variation	-9079
-0	-9080
ERS	-9081
tage	-9082
uate	-9083
▁arch	-9084
▁pipe	-9085
rician	-9086
▁Doing	-9087
▁groups	-9088
daughter	-9089
▁assuming	-9090
▁opportun	-9091
het	-9092
rep	-9093
▁acet	-9094
▁syst	-9095
▁SHOULD	-9096
▁ceiling	-9097
▁healthcare	-9098
▁benzodiazep	-9099
aya	-9100
▁BR	-9101
▁FO	-9102
actic	-9103
artan	-9104
▁wheeze	-9105
lodipine	-9106
▁Instead	-9107
cancerous	-9108
▁hypoplasia	-9109
▁temporarily	-9110
▁cardiovascular	-9111
hour	-9112
▁Pen	-9113
▁knew	-9114
▁pole	-9115
▁tree	-9116
▁Sinus	-9117
▁pseud	-9118
rapment	-9119
▁diagon	-9120
sociated	-9121
▁lifetime	-9122
▁occurrence	-9123
▁unexplained	-9124
vial	-9125
▁20%	-9126
▁hey	-9127
ipping	-9128
isions	-9129
luding	-9130
▁10-15	-9131
▁maxill	-9132
▁congestive	-9133
▁population	-9134
YS	-9135
▁syncope	-9136
▁emotions	-9137
▁UP	-9138
izes	-9139
ulum	-9140
▁Plan	-9141
▁Inhal	-9142
▁taper	-9143
▁toothp	-9144
▁consumed	-9145
ONG	-9146
▁AK	-9147
▁fails	-9148
▁walls	-9149
ruction	-9150
▁rating	-9151
ails	-9152
both	-9153
▁score	-9154
▁elbows	-9155
▁painfull	-9156
▁blockages	-9157
▁Antibiotic	-9158
▁restriction	-9159
ey	-9160
▁Rarely	-9161
▁shaped	-9162
▁Muscular	-9163
▁placenta	-9164
▁idiopathic	-9165
who	-9166
▁cuts	-9167
▁behavi	-9168
▁protrud	-9169
racranial	-9170
▁reaching	-9171
aby	-9172
ips	-9173
▁Until	-9174
▁plans	-9175
▁contraind	-9176
▁subcutaneous	-9177
▁chlorhexidine	-9178
rub	-9179
agen	-9180
▁ANTI	-9181
▁PCOS	-9182
rabies	-9183
▁Lapar	-9184
▁digest	-9185
▁ruling	-9186
▁Diabetic	-9187
▁simultaneously	-9188
eck	-9189
plex	-9190
▁scary	-9191
izziness	-9192
▁opposite	-9193
▁suicidal	-9194
Hypoplasia	-9195
roke	-9196
lysis	-9197
osupp	-9198
cholic	-9199
▁towel	-9200
▁contents	-9201
▁addiction	-9202
▁resolving	-9203
▁disappeared	-9204
▁unnecessarily	-9205
▁Angi	-9206
▁unit	-9207
▁wine	-9208
▁carotid	-9209
▁chiropractor	-9210
-1.	-9211
flex	-9212
▁fec	-9213
ophane	-9214
healthy	-9215
▁Almost	-9216
▁proven	-9217
▁extract	-9218
▁Metformin	-9219
▁psychotic	-9220
▁Intellectual	-9221
TE	-9222
▁Tum	-9223
erable	-9224
▁convin	-9225
▁gender	-9226
▁reverse	-9227
▁nil	-9228
point	-9229
oidosis	-9230
smo	-9231
ocar	-9232
idemia	-9233
▁circle	-9234
iddiness	-9235
▁fullness	-9236
▁prevented	-9237
▁mentioning	-9238
▁transmission	-9239
mus	-9240
▁TMT	-9241
least	-9242
▁town	-9243
derall	-9244
▁Allerg	-9245
▁Altern	-9246
▁bursitis	-9247
▁studying	-9248
▁artificial	-9249
▁connective	-9250
.6	-9251
zes	-9252
▁SIN	-9253
▁oph	-9254
▁tib	-9255
oline	-9256
oprot	-9257
virus	-9258
▁route	-9259
▁withd	-9260
▁hyperp	-9261
▁weighs	-9262
▁Medications	-9263
▁experiences	-9264
rant	-9265
▁nic	-9266
▁1000	-9267
▁brand	-9268
▁Howell	-9269
▁effected	-9270
▁grandmother	-9271
auc	-9272
cap	-9273
ATED	-9274
chan	-9275
▁scale	-9276
▁pocket	-9277
▁sunday	-9278
▁adviced	-9279
▁stabilize	-9280
▁treadmill	-9281
No	-9282
USG	-9283
pan	-9284
lets	-9285
surg	-9286
▁UND	-9287
▁desper	-9288
▁indeed	-9289
▁hitting	-9290
▁pressed	-9291
▁strokes	-9292
▁gabapentin	-9293
▁neuromuscular	-9294
ero	-9295
▁bled	-9296
▁soda	-9297
▁anter	-9298
▁scaly	-9299
▁bilious	-9300
▁calculi	-9301
▁suspicion	-9302
▁contracted	-9303
▁hyperthyroidism	-9304
hoe	-9305
▁nt	-9306
trade	-9307
▁Less	-9308
usually	-9309
▁resear	-9310
▁Prostate	-9311
▁peroxide	-9312
onephritis	-9313
▁countries	-9314
40	-9315
DE	-9316
▁CO	-9317
▁Ul	-9318
▁hypo	-9319
▁Stage	-9320
▁meant	-9321
iration	-9322
LL	-9323
▁HR	-9324
uish	-9325
otomy	-9326
ECTION	-9327
Regards	-9328
▁mandatory	-9329
▁diverticulitis	-9330
Th	-9331
▁CB	-9332
▁uns	-9333
acement	-9334
▁United	-9335
▁banana	-9336
▁door	-9337
▁gels	-9338
etitive	-9339
▁clomid	-9340
▁valves	-9341
▁parasite	-9342
▁rupturing	-9343
3-	-9344
ften	-9345
▁Who	-9346
oglob	-9347
▁Each	-9348
▁Vent	-9349
▁sgot	-9350
▁needy	-9351
▁literature	-9352
mas	-9353
▁PV	-9354
amma	-9355
▁Cold	-9356
▁biop	-9357
▁fire	-9358
strual	-9359
uscult	-9360
▁holiday	-9361
▁vacation	-9362
▁establish	-9363
▁Cetirizine	-9364
▁dilatation	-9365
▁Mr	-9366
▁Comp	-9367
ophils	-9368
▁antisp	-9369
▁suicide	-9370
▁Occasion	-9371
▁supports	-9372
▁TW	-9373
arditis	-9374
umbness	-9375
▁Nausea	-9376
▁conver	-9377
▁copper	-9378
▁assured	-9379
▁probability	-9380
▁incontinence	-9381
▁intervertebral	-9382
▁ut	-9383
ists	-9384
▁103	-9385
absor	-9386
▁SCAN	-9387
▁facility	-9388
▁imbalances	-9389
▁involuntary	-9390
llen	-9391
▁RCT	-9392
▁warr	-9393
▁Sever	-9394
▁comfort	-9395
▁flashes	-9396
▁achieved	-9397
▁acidosis	-9398
▁passages	-9399
▁Examination	-9400
ARY	-9401
▁78	-9402
▁ICU	-9403
▁Sex	-9404
athic	-9405
istics	-9406
▁indul	-9407
medical	-9408
▁baseline	-9409
▁Cellophane	-9410
▁progressively	-9411
▁glo	-9412
▁gluten	-9413
▁symtoms	-9414
▁ms	-9415
▁ni	-9416
cold	-9417
▁views	-9418
▁safety	-9419
ulopathy	-9420
▁nauseated	-9421
▁positions	-9422
▁tolerance	-9423
▁RegardsJay	-9424
▁rheumatologist	-9425
tin	-9426
rica	-9427
▁ADV	-9428
ground	-9429
icated	-9430
▁nowadays	-9431
▁pounding	-9432
▁prevalence	-9433
CR	-9434
DA	-9435
▁CAR	-9436
▁Sim	-9437
▁2014	-9438
▁duod	-9439
▁folds	-9440
▁antioxidants	-9441
4-5	-9442
gel	-9443
▁ups	-9444
▁SUGG	-9445
▁outbre	-9446
▁cracked	-9447
▁pigment	-9448
▁patterns	-9449
▁stinging	-9450
▁particles	-9451
ChatDoctore	-9452
▁entrapment	-9453
▁compressing	-9454
:1)	-9455
VEN	-9456
▁MAY	-9457
▁Mac	-9458
odium	-9459
hasone	-9460
Consult	-9461
regards	-9462
▁Within	-9463
▁Hemoglobin	-9464
▁pregnancies	-9465
AME	-9466
ias	-9467
oil	-9468
Anti	-9469
▁Pot	-9470
artment	-9471
▁potent	-9472
▁salicyl	-9473
▁Psoriasis	-9474
▁pt	-9475
▁ignored	-9476
▁numbing	-9477
▁Bilirubin	-9478
▁laparoscopic	-9479
2-	-9480
ss	-9481
▁Cy	-9482
▁Muc	-9483
▁Lots	-9484
▁flank	-9485
▁peels	-9486
ventive	-9487
▁shrink	-9488
▁thirst	-9489
enomegaly	-9490
▁examinations	-9491
▁levocetirizine	-9492
AX	-9493
dil	-9494
oeb	-9495
diab	-9496
oidal	-9497
▁Loss	-9498
odeoxy	-9499
▁Varic	-9500
▁knuck	-9501
▁bought	-9502
▁desire	-9503
▁murmur	-9504
▁tingly	-9505
▁segment	-9506
▁atypical	-9507
▁classical	-9508
▁granuloma	-9509
▁periapical	-9510
ulp	-9511
▁AKT	-9512
▁mas	-9513
▁gold	-9514
▁NORMAL	-9515
▁cleans	-9516
▁subject	-9517
▁Omeprazole	-9518
hors	-9519
▁???	-9520
▁XXX	-9521
▁coz	-9522
▁KNOW	-9523
▁aunt	-9524
▁goal	-9525
▁Breat	-9526
▁States	-9527
▁honest	-9528
▁recall	-9529
▁contamin	-9530
gl	-9531
▁CP	-9532
▁SI	-9533
▁PCP	-9534
▁Ple	-9535
allic	-9536
tening	-9537
veolar	-9538
▁2011.	-9539
geminal	-9540
▁Female	-9541
▁shadow	-9542
▁impinge	-9543
▁frustrated	-9544
▁potentially	-9545
▁600	-9546
▁Fru	-9547
▁cope	-9548
inting	-9549
▁avail	-9550
▁opened	-9551
▁visits	-9552
odactyly	-9553
▁switched	-9554
▁Alzheimer	-9555
▁appropriately	-9556
▁DS	-9557
▁Den	-9558
▁Pat	-9559
cules	-9560
▁Lyme	-9561
▁START	-9562
▁caries	-9563
▁resume	-9564
▁signals	-9565
▁fighting	-9566
▁infestation	-9567
amed	-9568
utive	-9569
itated	-9570
▁2010.	-9571
▁Hernia	-9572
▁absorbed	-9573
▁bronchial	-9574
▁periodically	-9575
rus	-9576
▁centre	-9577
▁effort	-9578
▁molars	-9579
▁widely	-9580
▁ferritin	-9581
▁moisturizer	-9582
80	-9583
:30	-9584
lon	-9585
urnal	-9586
▁asap	-9587
▁wipe	-9588
▁differentiate	-9589
ght	-9590
icin	-9591
▁pun	-9592
otrop	-9593
▁Hair	-9594
▁docu	-9595
▁ling	-9596
▁loos	-9597
oscope	-9598
▁peric	-9599
▁quiet	-9600
▁returns	-9601
▁umbilical	-9602
▁BEC	-9603
▁bun	-9604
▁Took	-9605
ospasm	-9606
▁torso	-9607
▁Mother	-9608
▁listen	-9609
ser	-9610
arms	-9611
▁Wait	-9612
optysis	-9613
▁heavily	-9614
5)	-9615
tw	-9616
hysema	-9617
▁flora	-9618
▁gross	-9619
ulatory	-9620
▁market	-9621
▁toxins	-9622
▁Allergy	-9623
▁somehow	-9624
▁Ovulation	-9625
▁decongestant	-9626
▁consideration	-9627
TING	-9628
lamy	-9629
▁Cir	-9630
▁mim	-9631
astolic	-9632
▁pieces	-9633
▁lethargy	-9634
▁receptor	-9635
▁toothpaste	-9636
▁granddaughter	-9637
que	-9638
lies	-9639
called	-9640
roaden	-9641
▁Herpes	-9642
▁bubble	-9643
▁Feeling	-9644
▁tendons	-9645
▁melanoma	-9646
▁molecules	-9647
▁gingivitis	-9648
▁spirometry	-9649
ATH	-9650
week	-9651
▁dan	-9652
▁basal	-9653
▁Spinal	-9654
▁sprays	-9655
▁unsure	-9656
▁whitish	-9657
▁diuretic	-9658
▁congested	-9659
roat	-9660
▁800	-9661
▁dee	-9662
▁oozing	-9663
▁sooner	-9664
▁ascites	-9665
▁forever	-9666
▁commonest	-9667
▁compromised	-9668
▁Cardiologist	-9669
▁LC	-9670
▁para	-9671
▁fewer	-9672
▁extens	-9673
▁strained	-9674
▁microscope	-9675
▁TV	-9676
hale	-9677
▁fly	-9678
cence	-9679
▁Fall	-9680
▁insp	-9681
antile	-9682
▁effic	-9683
▁warts	-9684
reatment	-9685
▁daytime	-9686
▁digital	-9687
▁dentures	-9688
▁implants	-9689
▁2-4	-9690
▁Pus	-9691
▁div	-9692
aedic	-9693
▁medium	-9694
▁Ovarian	-9695
▁pumping	-9696
▁cigarettes	-9697
▁radiologist	-9698
▁tonsillitis	-9699
otics	-9700
▁compressed	-9701
igo	-9702
▁Ro	-9703
scan	-9704
ults	-9705
▁170	-9706
▁Vol	-9707
chest	-9708
▁7-10	-9709
▁docs	-9710
▁grew	-9711
▁word	-9712
hyseal	-9713
ulates	-9714
alcohol	-9715
lamydia	-9716
▁erythe	-9717
▁ranges	-9718
▁setting	-9719
abdominal	-9720
▁pregnent	-9721
▁sertraline	-9722
▁Progressive	-9723
▁thalassemia	-9724
▁UN	-9725
▁nu	-9726
Some	-9727
irty	-9728
▁40%	-9729
▁lor	-9730
omyel	-9731
▁depo	-9732
▁limp	-9733
uating	-9734
▁prove	-9735
▁introd	-9736
▁rightly	-9737
eficiency	-9738
▁temporal	-9739
MP	-9740
VEL	-9741
▁RES	-9742
dering	-9743
▁align	-9744
▁gynec	-9745
▁jelly	-9746
▁career	-9747
▁ranging	-9748
ofloxacin	-9749
▁interfer	-9750
▁clindamycin	-9751
▁frm	-9752
natal	-9753
▁spoon	-9754
▁hanging	-9755
▁clearing	-9756
▁epididym	-9757
▁postural	-9758
▁Rh	-9759
▁REC	-9760
▁SOS	-9761
▁uti	-9762
▁norm	-9763
havior	-9764
stream	-9765
culitis	-9766
welcome	-9767
▁retardation	-9768
▁satisfactor	-9769
II	-9770
▁(24	-9771
▁80%	-9772
antly	-9773
▁Indian	-9774
▁stimulate	-9775
▁measurement	-9776
cks	-9777
xia	-9778
kers	-9779
rena	-9780
▁HbA	-9781
▁bra	-9782
ectasis	-9783
▁nighttime	-9784
uscultation	-9785
▁doxycycline	-9786
ket	-9787
larged	-9788
▁panel	-9789
▁surpr	-9790
▁tough	-9791
▁cousin	-9792
▁mirror	-9793
▁reaches	-9794
▁risperidone	-9795
nee	-9796
nex	-9797
▁sedi	-9798
▁balls	-9799
▁names	-9800
▁teasp	-9801
ressing	-9802
▁stuffy	-9803
▁killing	-9804
▁minoxidil	-9805
▁struggling	-9806
vern	-9807
▁AFB	-9808
▁Ton	-9809
▁lightly	-9810
▁vaccines	-9811
▁practition	-9812
vol	-9813
▁av	-9814
ingly	-9815
▁Body	-9816
▁biotin	-9817
▁sponging	-9818
▁convinced	-9819
▁Creatinine	-9820
▁moderately	-9821
▁triggering	-9822
▁destruction	-9823
opia	-9824
▁qua	-9825
Blood	-9826
Hence	-9827
before	-9828
▁piles	-9829
odontic	-9830
viously	-9831
▁Benign	-9832
▁Simple	-9833
▁Getting	-9834
▁neutroph	-9835
▁transmit	-9836
▁diagnosing	-9837
ILD	-9838
lav	-9839
▁EN	-9840
▁tat	-9841
inking	-9842
rasion	-9843
▁girls	-9844
▁split	-9845
▁Definite	-9846
▁pinpoint	-9847
▁surgeons	-9848
▁TREATMENT	-9849
▁placement	-9850
▁swallowed	-9851
odeoxycholic	-9852
▁spontaneous	-9853
hpf	-9854
orted	-9855
▁devi	-9856
▁medi	-9857
▁2012.	-9858
▁shake	-9859
▁remained	-9860
▁Decreased	-9861
▁irritability	-9862
▁pu	-9863
▁625	-9864
▁COL	-9865
▁Dan	-9866
▁dot	-9867
▁gait	-9868
▁Aspir	-9869
▁blunt	-9870
▁celiac	-9871
▁challen	-9872
▁ophthalm	-9873
▁vomitting	-9874
▁methotrexate	-9875
UC	-9876
▁ORS	-9877
▁wed	-9878
▁COULD	-9879
▁erupt	-9880
▁image	-9881
mination	-9882
▁convers	-9883
▁Bangalore	-9884
▁immunosupp	-9885
▁ingredients	-9886
▁nebulization	-9887
▁ecg	-9888
▁thi	-9889
check	-9890
▁olive	-9891
▁frozen	-9892
▁glomer	-9893
ryngitis	-9894
▁apprehens	-9895
▁swellings	-9896
IV	-9897
sir	-9898
▁Kg	-9899
amox	-9900
▁coug	-9901
growth	-9902
tified	-9903
▁train	-9904
▁instru	-9905
▁rising	-9906
▁spaces	-9907
▁yogurt	-9908
▁osteophy	-9909
▁trusting	-9910
▁preventive	-9911
▁subsequent	-9912
ece	-9913
▁LO	-9914
▁Ill	-9915
oloft	-9916
▁LEFT	-9917
▁Sens	-9918
aching	-9919
ocytic	-9920
▁occult	-9921
▁Control	-9922
▁established	-9923
▁orthostatic	-9924
▁manifestation	-9925
▁:)	-9926
▁DON	-9927
eness	-9928
orate	-9929
▁cryst	-9930
section	-9931
▁giddiness	-9932
PFT	-9933
▁98	-9934
ilis	-9935
▁PPI	-9936
▁boo	-9937
urred	-9938
▁Char	-9939
▁pers	-9940
ipital	-9941
▁Clean	-9942
▁Elect	-9943
▁Steam	-9944
▁TAKING	-9945
▁carboy	-9946
▁Cardiac	-9947
▁meeting	-9948
▁spastic	-9949
▁creatine	-9950
▁variable	-9951
PLE	-9952
pox	-9953
▁GR	-9954
ophilia	-9955
▁ginger	-9956
▁Detailed	-9957
▁drainage	-9958
mad	-9959
anit	-9960
wide	-9961
▁cow	-9962
every	-9963
▁fles	-9964
▁antico	-9965
▁lipase	-9966
▁trained	-9967
▁irritant	-9968
stetrician	-9969
▁counselor	-9970
▁expensive	-9971
arse	-9972
▁tsp	-9973
PRESS	-9974
Kindly	-9975
▁beside	-9976
▁Protein	-9977
▁disting	-9978
▁immobil	-9979
▁literally	-9980
kine	-9981
rict	-9982
▁SUR	-9983
urant	-9984
ystag	-9985
▁anim	-9986
▁rays	-9987
▁dates	-9988
lection	-9989
▁Advise	-9990
▁arises	-9991
▁Several	-9992
Get	-9993
▁JUST	-9994
▁ONLY	-9995
▁rely	-9996
▁cloud	-9997
alities	-9998
▁orgasm	-9999
▁impingement	-10000
---	-10001
▁74	-10002
▁Id	-10003
loss	-10004
oken	-10005
▁cam	-10006
▁book	-10007
▁fade	-10008
asting	-10009
mentin	-10010
efaction	-10011
▁arterial	-10012
▁sincerely	-10013
▁productive	-10014
VERY	-10015
▁drs	-10016
OTHER	-10017
▁game	-10018
▁prox	-10019
▁gradual	-10020
▁Vomiting	-10021
▁Constipation	-10022
▁neurofibroma	-10023
uti	-10024
▁Camp	-10025
▁forth	-10026
cturnal	-10027
▁layers	-10028
▁seeking	-10029
▁hypotonia	-10030
▁mechanical	-10031
▁dehydration	-10032
imp	-10033
ilst	-10034
▁Neg	-10035
▁mad	-10036
THING	-10037
ilial	-10038
▁marg	-10039
kidney	-10040
▁OTHER	-10041
▁UNDER	-10042
▁narco	-10043
▁nodal	-10044
▁paste	-10045
▁carpal	-10046
▁hyster	-10047
▁ingestion	-10048
▁specialized	-10049
At	-10050
▁iu	-10051
▁Vit	-10052
▁incon	-10053
▁story	-10054
▁walks	-10055
▁sleeps	-10056
▁tensed	-10057
▁circles	-10058
▁excised	-10059
▁satisfy	-10060
xofenadine	-10061
▁disappears	-10062
▁photographs	-10063
▁levocetrizine	-10064
▁recommendation	-10065
thy	-10066
▁urs	-10067
▁demon	-10068
▁recon	-10069
atories	-10070
rogenase	-10071
▁travels	-10072
▁Pressure	-10073
▁existing	-10074
nit	-10075
▁esp	-10076
▁lod	-10077
▁Oste	-10078
atelet	-10079
▁brings	-10080
▁metallic	-10081
1-	-10082
:00	-10083
▁Mc	-10084
▁ho	-10085
▁CAT	-10086
orter	-10087
▁mini	-10088
▁wond	-10089
atigue	-10090
lective	-10091
▁Inform	-10092
▁allowed	-10093
▁evident	-10094
▁storage	-10095
▁controls	-10096
▁successfully	-10097
?2.	-10098
olk	-10099
pin	-10100
▁9.	-10101
▁Mod	-10102
tomach	-10103
▁Report	-10104
▁elevate	-10105
▁plantar	-10106
▁restless	-10107
▁phosphatase	-10108
▁immunization	-10109
SD	-10110
▁shunt	-10111
▁MONTHS	-10112
ications	-10113
▁Delayed	-10114
▁relaxing	-10115
▁turmeric	-10116
▁intracranial	-10117
▁Oct	-10118
▁wax	-10119
tired	-10120
tives	-10121
▁Supp	-10122
▁cycl	-10123
▁shaky	-10124
▁Peripheral	-10125
"".	-10126
cial	-10127
tons	-10128
▁4.5	-10129
▁clog	-10130
▁puts	-10131
▁tric	-10132
▁Joint	-10133
▁coccy	-10134
▁smokes	-10135
▁amylase	-10136
▁centers	-10137
spasmodic	-10138
▁periodic	-10139
▁systolic	-10140
▁bloodwork	-10141
▁Mit	-10142
▁bee	-10143
brush	-10144
oxysm	-10145
▁gray	-10146
▁grace	-10147
▁HAVING	-10148
▁strept	-10149
▁erosion	-10150
▁Jaundice	-10151
▁attitude	-10152
▁withdraw	-10153
▁chocolate	-10154
▁Azithromycin	-10155
▁confirmatory	-10156
▁BC	-10157
▁Gr	-10158
rile	-10159
▁ITP	-10160
▁Nar	-10161
▁Nat	-10162
▁dying	-10163
develop	-10164
ofacial	-10165
▁wounds	-10166
▁assumed	-10167
▁Headache	-10168
▁restrict	-10169
▁strictly	-10170
▁inadequate	-10171
ELY	-10172
elt	-10173
▁dim	-10174
icles	-10175
matic	-10176
ripty	-10177
bronch	-10178
initis	-10179
oration	-10180
through	-10181
▁biopsi	-10182
▁temper	-10183
▁efficacy	-10184
▁inferior	-10185
▁vigorous	-10186
▁medically	-10187
▁parasitic	-10188
▁bronchoscopy	-10189
▁prednisolone	-10190
▁EL	-10191
▁Pers	-10192
themia	-10193
▁debris	-10194
▁heating	-10195
▁presume	-10196
▁echogenic	-10197
▁examining	-10198
▁extremities	-10199
▁echocardiogram	-10200
▁69	-10201
▁25%	-10202
▁Oxy	-10203
▁cleft	-10204
▁sight	-10205
oxysmal	-10206
▁crease	-10207
▁splint	-10208
▁predisp	-10209
▁confident	-10210
chromatosis	-10211
AYS	-10212
▁Ca	-10213
▁FL	-10214
▁Find	-10215
▁SIDE	-10216
▁emerg	-10217
▁peace	-10218
▁docter	-10219
▁lichen	-10220
▁Coronary	-10221
▁os	-10222
inol	-10223
based	-10224
▁THEN	-10225
▁coil	-10226
▁nine	-10227
▁tool	-10228
onsive	-10229
▁faith	-10230
▁horse	-10231
▁risky	-10232
▁spell	-10233
ramadol	-10234
▁vomits	-10235
ventricular	-10236
▁consequences	-10237
▁cholecystitis	-10238
▁).	-10239
ifen	-10240
▁chat	-10241
▁Night	-10242
▁Motrin	-10243
▁seminal	-10244
▁psychosis	-10245
▁indicating	-10246
▁physicians	-10247
▁travelling	-10248
▁6-7	-10249
▁Max	-10250
▁Lact	-10251
▁wean	-10252
ecutive	-10253
▁Family	-10254
▁calories	-10255
▁entirely	-10256
▁breakdown	-10257
▁resection	-10258
▁ventricle	-10259
▁ketoconazole	-10260
pret	-10261
▁60%	-10262
▁abt	-10263
onset	-10264
▁vera	-10265
onucle	-10266
▁Green	-10267
▁amoeb	-10268
▁swells	-10269
▁pharmac	-10270
▁itchiness	-10271
▁Cholesterol	-10272
▁dehydrogenase	-10273
▁lightheadedness	-10274
bic	-10275
▁3,	-10276
...,	-10277
▁PUB	-10278
▁infect	-10279
▁liters	-10280
▁allowing	-10281
▁dissolve	-10282
▁irritate	-10283
▁deformity	-10284
▁recording	-10285
▁traveling	-10286
▁sedimentation	-10287
▁MM	-10288
tomy	-10289
▁oct	-10290
fever	-10291
▁newer	-10292
▁rinsing	-10293
oglobulin	-10294
riptyline	-10295
▁squamous	-10296
▁unhealthy	-10297
▁clonazepam	-10298
▁confirming	-10299
▁modalities	-10300
▁indentation	-10301
top	-10302
▁tht	-10303
▁Lupus	-10304
▁tomato	-10305
▁Failure	-10306
▁sticking	-10307
▁calcified	-10308
▁practitioner	-10309
rams	-10310
▁APP	-10311
▁OPG	-10312
▁Sing	-10313
▁curd	-10314
▁costs	-10315
arkable	-10316
sistent	-10317
▁repres	-10318
▁smelly	-10319
▁drinker	-10320
▁shaving	-10321
▁Elevated	-10322
ACT	-10323
gra	-10324
▁SW	-10325
▁TIA	-10326
▁nep	-10327
▁porn	-10328
▁seat	-10329
▁Impro	-10330
▁allows	-10331
▁walked	-10332
▁sprouts	-10333
▁willing	-10334
▁sustained	-10335
ARD	-10336
esia	-10337
▁HBV	-10338
▁15-20	-10339
▁attend	-10340
▁timing	-10341
▁Arthritis	-10342
▁bloodstream	-10343
▁opportunity	-10344
cor	-10345
abad	-10346
▁buc	-10347
▁Gast	-10348
▁bill	-10349
married	-10350
▁arrest	-10351
▁matters	-10352
▁samples	-10353
psychotic	-10354
▁Frequent	-10355
▁oxidants	-10356
▁diagnoses	-10357
▁diastolic	-10358
ca	-10359
bend	-10360
flow	-10361
osum	-10362
prod	-10363
▁Often	-10364
▁American	-10365
▁Behavior	-10366
▁adjusted	-10367
▁millions	-10368
▁wondered	-10369
▁Gabapentin	-10370
▁everywhere	-10371
▁Symptomatic	-10372
ded	-10373
▁TT	-10374
▁14.	-10375
oplastic	-10376
▁categor	-10377
fertility	-10378
▁climbing	-10379
▁erupting	-10380
▁protruding	-10381
▁association	-10382
ISE	-10383
iam	-10384
▁wk	-10385
eanut	-10386
▁lies	-10387
▁soup	-10388
alking	-10389
▁intact	-10390
▁iodine	-10391
▁regime	-10392
▁deficit	-10393
Therefore	-10394
onucleosis	-10395
▁peritoneal	-10396
▁dislocation	-10397
▁76	-10398
heck	-10399
odes	-10400
▁(10	-10401
▁KID	-10402
▁diar	-10403
▁mite	-10404
▁oils	-10405
▁skip	-10406
▁2013.	-10407
bearing	-10408
▁Either	-10409
▁atleast	-10410
▁creates	-10411
▁emphysema	-10412
Ult	-10413
▁Bow	-10414
▁wen	-10415
▁grey	-10416
string	-10417
▁criteria	-10418
▁prepared	-10419
OSE	-10420
▁PD	-10421
neal	-10422
▁13.	-10423
▁star	-10424
▁wiped	-10425
▁perfor	-10426
versible	-10427
▁cooking	-10428
▁stretched	-10429
ASH	-10430
▁SLE	-10431
▁comm	-10432
cectomy	-10433
▁eradic	-10434
▁window	-10435
ocardial	-10436
including	-10437
▁Motility	-10438
▁carbonated	-10439
▁ultimately	-10440
▁encephalopathy	-10441
▁DM	-10442
▁Cut	-10443
▁Wat	-10444
▁rab	-10445
▁bowl	-10446
▁nephew	-10447
▁naproxen	-10448
END	-10449
)...	-10450
ICAL	-10451
Other	-10452
afness	-10453
alping	-10454
▁Started	-10455
▁radiate	-10456
▁Familial	-10457
▁importance	-10458
upi	-10459
▁Ast	-10460
▁belong	-10461
▁aerobic	-10462
▁animals	-10463
▁wouldnt	-10464
▁Hormonal	-10465
▁cavities	-10466
▁creating	-10467
luv	-10468
▁Up	-10469
▁IGE	-10470
still	-10471
▁athe	-10472
▁pron	-10473
▁suck	-10474
▁vers	-10475
▁blind	-10476
▁pants	-10477
▁Develop	-10478
atomegaly	-10479
▁included	-10480
especially	-10481
▁injectable	-10482
▁thereafter	-10483
▁insemination	-10484
AV	-10485
IG	-10486
ULAR	-10487
ether	-10488
phaly	-10489
▁Epid	-10490
▁divid	-10491
▁soles	-10492
raumatic	-10493
▁conduct	-10494
▁mistake	-10495
▁alarming	-10496
▁believed	-10497
▁toothbrush	-10498
▁et	-10499
land	-10500
▁Las	-10501
▁MAN	-10502
ading	-10503
▁0000	-10504
▁dogs	-10505
▁Thromb	-10506
▁abcess	-10507
ystagmus	-10508
▁solutions	-10509
▁Pantoprazole	-10510
70	-10511
RS	-10512
doc	-10513
wing	-10514
ascar	-10515
▁stri	-10516
▁womb	-10517
ositis	-10518
▁tries	-10519
▁Lumbar	-10520
▁Prednis	-10521
▁rotator	-10522
Treatment	-10523
epileptic	-10524
▁necrosis	-10525
▁Analgesic	-10526
▁endocrine	-10527
▁worldwide	-10528
▁infarction	-10529
▁adolescence	-10530
arb	-10531
achn	-10532
imot	-10533
▁Alp	-10534
▁Ris	-10535
▁fur	-10536
ented	-10537
riers	-10538
▁ECHO	-10539
rapped	-10540
▁Stool	-10541
▁instit	-10542
▁Ideally	-10543
▁roughly	-10544
▁trapped	-10545
▁indications	-10546
bu	-10547
bran	-10548
▁104	-10549
▁Ice	-10550
▁dnt	-10551
▁Costco	-10552
ogenesis	-10553
▁parasites	-10554
▁progressed	-10555
▁suspecting	-10556
▁fexofenadine	-10557
▁characteristics	-10558
Sh	-10559
▁1%	-10560
umps	-10561
urine	-10562
▁Lear	-10563
ochrom	-10564
▁parap	-10565
▁Panama	-10566
▁stains	-10567
▁Allegra	-10568
▁Concern	-10569
▁Stomach	-10570
▁substit	-10571
▁axillary	-10572
▁allergist	-10573
▁reference	-10574
▁relatives	-10575
▁vegetable	-10576
▁homeopathic	-10577
▁contaminated	-10578
▁malformations	-10579
nar	-10580
oqu	-10581
▁CV	-10582
anon	-10583
Since	-10584
epend	-10585
idosis	-10586
luvium	-10587
urable	-10588
▁Crohn	-10589
Surgeon	-10590
estions	-10591
▁threat	-10592
▁convuls	-10593
▁needing	-10594
▁football	-10595
▁sprained	-10596
▁undergar	-10597
?3.	-10598
▁Jo	-10599
▁Nut	-10600
stein	-10601
otonin	-10602
▁Three	-10603
▁games	-10604
▁holes	-10605
▁spite	-10606
▁classi	-10607
ifestyle	-10608
▁Tonight	-10609
▁junction	-10610
▁Endometri	-10611
▁background	-10612
conf	-10613
toma	-10614
▁arr	-10615
▁row	-10616
▁wave	-10617
▁punct	-10618
▁tennis	-10619
▁Presence	-10620
▁referral	-10621
▁acceptable	-10622
▁communicate	-10623
Good	-10624
▁PID	-10625
▁jus	-10626
▁HIGH	-10627
▁tele	-10628
▁TABLE	-10629
▁Those	-10630
▁lobes	-10631
▁scope	-10632
▁killer	-10633
blastoma	-10634
▁warning	-10635
▁Remember	-10636
▁Tramadol	-10637
▁responds	-10638
depressant	-10639
▁Sebaceous	-10640
icky	-10641
▁amen	-10642
▁Fruits	-10643
▁highest	-10644
▁overload	-10645
opa	-10646
▁ru	-10647
OSIS	-10648
▁EMG	-10649
▁poo	-10650
▁fort	-10651
emetic	-10652
▁wrists	-10653
▁Chances	-10654
▁hemoptysis	-10655
▁susceptible	-10656
-40	-10657
ius	-10658
▁CSF	-10659
retic	-10660
ustom	-10661
▁Tell	-10662
▁Tina	-10663
onomic	-10664
▁Chlor	-10665
▁covid	-10666
▁rates	-10667
OLOGIST	-10668
▁figured	-10669
▁Diseases	-10670
▁sluggish	-10671
cardiogram	-10672
▁folliculitis	-10673
To	-10674
els	-10675
vis	-10676
ibly	-10677
▁fund	-10678
▁toen	-10679
▁heter	-10680
▁reapp	-10681
▁Include	-10682
▁Hypoplasia	-10683
▁paroxetine	-10684
▁Respiratory	-10685
▁eosinophilic	-10686
▁pneumothorax	-10687
▁0,	-10688
▁Wor	-10689
rates	-10690
vature	-10691
▁lesser	-10692
encephal	-10693
▁CONSULT	-10694
▁hospitalization	-10695
13	-10696
once	-10697
▁aud	-10698
iform	-10699
▁Into	-10700
▁film	-10701
▁kiss	-10702
eating	-10703
idents	-10704
▁saved	-10705
▁grinding	-10706
▁piercing	-10707
▁education	-10708
▁hopefully	-10709
▁penetration	-10710
does	-10711
▁5-10	-10712
▁rock	-10713
▁fumes	-10714
▁tumour	-10715
▁armpits	-10716
▁alopecia	-10717
▁repaired	-10718
amethasone	-10719
ChatDoctored	-10720
zo	-10721
▁73	-10722
made	-10723
rawn	-10724
▁pant	-10725
▁blank	-10726
▁Christ	-10727
▁Rabies	-10728
▁annular	-10729
▁authors	-10730
▁Cerebral	-10731
▁addicted	-10732
▁Injection	-10733
▁complexion	-10734
▁bronchospasm	-10735
▁lymphadenopathy	-10736
nx	-10737
yes	-10738
ulse	-10739
▁tar	-10740
cough	-10741
today	-10742
umbai	-10743
▁SUFF	-10744
▁Mouth	-10745
▁Active	-10746
▁septal	-10747
▁suppos	-10748
▁ascertain	-10749
▁adjustment	-10750
▁distension	-10751
▁pathologies	-10752
▁pharyngitis	-10753
CY	-10754
▁Ra	-10755
▁nw	-10756
amel	-10757
▁Dont	-10758
▁road	-10759
▁tamp	-10760
▁scrap	-10761
▁deeper	-10762
▁peanut	-10763
▁elastic	-10764
▁neurons	-10765
▁twisted	-10766
▁collagen	-10767
▁Dizziness	-10768
▁unusually	-10769
▁fluoxetine	-10770
▁pathologist	-10771
eds	-10772
psis	-10773
▁70%	-10774
▁Ure	-10775
▁vic	-10776
▁cush	-10777
▁nour	-10778
▁sole	-10779
entary	-10780
▁perine	-10781
▁decline	-10782
▁Increase	-10783
▁Montelukast	-10784
ACH	-10785
hoea	-10786
▁Egg	-10787
▁Hit	-10788
▁Pap	-10789
▁bpm	-10790
▁kil	-10791
chlor	-10792
▁OVER	-10793
▁craw	-10794
▁prem	-10795
akness	-10796
▁stain	-10797
▁fitted	-10798
▁spices	-10799
upirocin	-10800
▁Monitor	-10801
▁elements	-10802
▁fibrotic	-10803
▁saturday	-10804
19	-10805
dr	-10806
▁tag	-10807
acidity	-10808
ordosis	-10809
▁abdomin	-10810
▁anybody	-10811
▁compare	-10812
▁created	-10813
▁strateg	-10814
▁thereby	-10815
▁ganglion	-10816
▁extending	-10817
▁Neurosurgeon	-10818
▁consistently	-10819
,2	-10820
▁PM	-10821
hage	-10822
▁Obs	-10823
▁REL	-10824
▁lin	-10825
maybe	-10826
▁narr	-10827
▁Morph	-10828
▁admit	-10829
▁medial	-10830
▁poorly	-10831
▁bothers	-10832
▁growths	-10833
▁halogen	-10834
▁violent	-10835
▁contusion	-10836
▁operative	-10837
▁returning	-10838
▁variations	-10839
▁orthopaedic	-10840
Pro	-10841
two	-10842
ryth	-10843
▁lav	-10844
ushes	-10845
▁auto	-10846
chronic	-10847
▁Marian	-10848
▁prolif	-10849
▁choking	-10850
▁coughed	-10851
▁succeed	-10852
▁Thanking	-10853
▁clavicle	-10854
▁orthoped	-10855
▁spinning	-10856
▁Ayurvedic	-10857
▁ambulatory	-10858
▁tightening	-10859
▁ultrasounds	-10860
75	-10861
OX	-10862
iligo	-10863
▁WOULD	-10864
▁puffy	-10865
▁design	-10866
▁bothered	-10867
▁contraceptives	-10868
BB	-10869
nic	-10870
When	-10871
orch	-10872
rive	-10873
▁ITS	-10874
liver	-10875
tosis	-10876
▁Dist	-10877
sprint	-10878
▁fourth	-10879
▁restroom	-10880
▁irreversible	-10881
.5)	-10882
arth	-10883
▁TID	-10884
▁Wil	-10885
▁abd	-10886
halin	-10887
▁Fluc	-10888
▁retina	-10889
▁thinners	-10890
▁thickened	-10891
tab	-10892
▁text	-10893
▁coinc	-10894
▁bleach	-10895
▁Earlier	-10896
regabalin	-10897
▁december	-10898
▁dystonia	-10899
▁twisting	-10900
absorption	-10901
▁discontinued	-10902
▁regeneration	-10903
▁84	-10904
ATER	-10905
inex	-10906
iphy	-10907
▁Cry	-10908
▁Pri	-10909
▁ans	-10910
▁bum	-10911
edema	-10912
▁Neur	-10913
▁carp	-10914
▁wood	-10915
stable	-10916
▁Sugar	-10917
▁gonna	-10918
▁damages	-10919
▁fitness	-10920
▁Research	-10921
▁ejection	-10922
ectiveness	-10923
▁disappointment	-10924
CBC	-10925
cho	-10926
ger	-10927
tec	-10928
uno	-10929
lish	-10930
vable	-10931
▁boys	-10932
▁matt	-10933
enting	-10934
▁abrup	-10935
▁madam	-10936
▁Change	-10937
▁traction	-10938
▁curvature	-10939
▁duphaston	-10940
▁intensive	-10941
▁transport	-10942
::	-10943
UP	-10944
ESE	-10945
rob	-10946
umar	-10947
▁SER	-10948
▁log	-10949
▁chart	-10950
kinetic	-10951
pective	-10952
▁whilst	-10953
planation	-10954
▁teaspoon	-10955
▁distended	-10956
▁influenza	-10957
▁circumcision	-10958
▁exacerbation	-10959
?!	-10960
▁Oh	-10961
afil	-10962
being	-10963
counter	-10964
▁THANKS	-10965
▁assisted	-10966
▁desperate	-10967
▁vestibular	-10968
▁Laparoscopy	-10969
Ch	-10970
▁CD	-10971
▁Tet	-10972
▁std	-10973
madin	-10974
plain	-10975
▁agon	-10976
▁pops	-10977
lusive	-10978
rology	-10979
▁Seems	-10980
▁labia	-10981
▁neigh	-10982
respond	-10983
▁refers	-10984
▁moisture	-10985
▁chickenpox	-10986
▁ursodeoxycholic	-10987
cage	-10988
▁Got	-10989
exist	-10990
▁2008	-10991
aucoma	-10992
▁angle	-10993
▁debil	-10994
▁emplo	-10995
▁arrive	-10996
▁discol	-10997
▁urethral	-10998
▁routinely	-10999
oconstriction	-11000
ev	-11001
▁pup	-11002
▁yaw	-11003
▁pcos	-11004
▁mimic	-11005
▁Stroke	-11006
▁refuses	-11007
▁teacher	-11008
▁wasting	-11009
bendazole	-11010
▁accumulate	-11011
12.	-11012
irs	-11013
NING	-11014
rosp	-11015
domin	-11016
ietal	-11017
▁begun	-11018
▁parac	-11019
▁talked	-11020
▁anomaly	-11021
▁infarct	-11022
▁ingrown	-11023
rosclerosis	-11024
▁maturation	-11025
▁deterioration	-11026
help	-11027
▁Pal	-11028
▁wbc	-11029
stomy	-11030
▁Syrup	-11031
▁arous	-11032
▁Mariano	-11033
▁Problems	-11034
▁relieves	-11035
-48	-11036
idden	-11037
▁PCOD	-11038
▁Irrit	-11039
▁input	-11040
stitial	-11041
▁SUGGEST	-11042
▁lighter	-11043
▁offered	-11044
▁compound	-11045
IVE	-11046
PTOM	-11047
SGPT	-11048
ctal	-11049
hold	-11050
long	-11051
▁1.2	-11052
afood	-11053
ifies	-11054
▁Cand	-11055
▁valu	-11056
igrain	-11057
▁SINCE	-11058
▁candida	-11059
▁chamber	-11060
▁fainted	-11061
menstrual	-11062
upuncture	-11063
▁somebody	-11064
▁phosphate	-11065
▁repetitive	-11066
▁neuropathic	-11067
ann	-11068
iab	-11069
▁SL	-11070
AMIN	-11071
▁HOW	-11072
▁trac	-11073
▁Spine	-11074
▁smile	-11075
monella	-11076
ffective	-11077
▁approved	-11078
▁collapse	-11079
▁pharmacy	-11080
▁shortage	-11081
▁fibroaden	-11082
▁lymphatic	-11083
▁accumulated	-11084
▁arrhythmias	-11085
▁irregularity	-11086
▁mn	-11087
▁ps	-11088
amil	-11089
▁Sum	-11090
▁tod	-11091
▁GERD	-11092
▁burp	-11093
▁soaps	-11094
▁trunk	-11095
▁onwards	-11096
▁restored	-11097
associated	-11098
▁effluvium	-11099
▁preferred	-11100
BI	-11101
▁REP	-11102
▁pou	-11103
luded	-11104
omine	-11105
shaped	-11106
▁navel	-11107
▁supra	-11108
▁Mascar	-11109
▁restore	-11110
▁settled	-11111
▁consecutive	-11112
▁prescribing	-11113
gm	-11114
IES	-11115
att	-11116
-100	-11117
INDS	-11118
▁soy	-11119
oside	-11120
▁Click	-11121
▁cauti	-11122
ementia	-11123
▁constit	-11124
▁deliver	-11125
▁admission	-11126
▁stretches	-11127
▁nonspecific	-11128
wor	-11129
▁dex	-11130
urity	-11131
▁phal	-11132
▁Bruno	-11133
▁Eosin	-11134
▁Lipid	-11135
▁Madam	-11136
▁alive	-11137
▁cries	-11138
▁carrot	-11139
▁Suggest	-11140
▁reflect	-11141
▁Mascaras	-11142
ALT	-11143
▁Hes	-11144
▁sut	-11145
▁evac	-11146
▁mode	-11147
▁zero	-11148
▁salty	-11149
opharyn	-11150
▁reserve	-11151
▁simplex	-11152
▁independ	-11153
▁processed	-11154
▁Infections	-11155
▁termination	-11156
▁infiltration	-11157
▁satisfactory	-11158
?4.	-11159
DER	-11160
AUSE	-11161
▁SYM	-11162
aying	-11163
borne	-11164
▁drip	-11165
▁slip	-11166
assion	-11167
▁Enter	-11168
▁couch	-11169
▁truly	-11170
itional	-11171
▁Stalin	-11172
▁rubbed	-11173
▁Thankyou	-11174
▁peritonitis	-11175
page	-11176
▁POS	-11177
▁mag	-11178
cised	-11179
▁102.	-11180
▁Neck	-11181
▁STOP	-11182
▁acyc	-11183
▁Women	-11184
▁mites	-11185
▁music	-11186
▁covers	-11187
▁urgency	-11188
▁freaking	-11189
▁gallstone	-11190
▁irritants	-11191
▁radiology	-11192
▁antiallergic	-11193
▁99.	-11194
▁DUE	-11195
▁DISE	-11196
▁STDs	-11197
▁draw	-11198
▁optic	-11199
▁Osteop	-11200
▁Reduce	-11201
▁learned	-11202
▁operate	-11203
▁Enlarged	-11204
▁blocking	-11205
▁thursday	-11206
▁Bilateral	-11207
▁cigarette	-11208
▁conducted	-11209
▁antirabies	-11210
▁continuity	-11211
▁regularize	-11212
▁vegetarian	-11213
▁coordination	-11214
YN	-11215
AGE	-11216
ada	-11217
vil	-11218
▁Hai	-11219
organ	-11220
▁city	-11221
▁decl	-11222
▁EVERY	-11223
▁cephal	-11224
▁insert	-11225
▁phobia	-11226
▁Abdomen	-11227
.........	-11228
▁Negative	-11229
▁acyclovir	-11230
▁Occasionally	-11231
▁Alternatively	-11232
HPF	-11233
PER	-11234
nge	-11235
chic	-11236
▁ATT	-11237
▁unf	-11238
ensit	-11239
ocked	-11240
orine	-11241
small	-11242
▁Daily	-11243
ellular	-11244
osporin	-11245
▁closing	-11246
▁Excision	-11247
▁inducing	-11248
▁mattress	-11249
▁terminal	-11250
▁weighing	-11251
ocarcinoma	-11252
▁Scoliosis	-11253
▁progressing	-11254
▁unnecessary	-11255
6)	-11256
avy	-11257
▁ge	-11258
avir	-11259
best	-11260
▁crow	-11261
father	-11262
▁CONCER	-11263
▁Injury	-11264
▁string	-11265
▁tables	-11266
▁variant	-11267
encephaly	-11268
▁belching	-11269
▁occipital	-11270
▁providers	-11271
▁2%	-11272
ishy	-11273
wear	-11274
▁Nit	-11275
Could	-11276
onate	-11277
orsion	-11278
▁HEART	-11279
▁bloods	-11280
▁myeloma	-11281
▁sedation	-11282
▁Excessive	-11283
▁tolerated	-11284
▁supporting	-11285
▁orthopedist	-11286
Sp	-11287
ease	-11288
▁Ves	-11289
▁pod	-11290
sician	-11291
▁SEVER	-11292
▁stung	-11293
▁antipy	-11294
▁termed	-11295
▁lotions	-11296
▁surfaces	-11297
▁Premature	-11298
▁initiated	-11299
▁interpret	-11300
▁accurately	-11301
▁anticoagul	-11302
▁undergarments	-11303
mpha	-11304
▁Out	-11305
ellum	-11306
inder	-11307
overy	-11308
▁beer	-11309
▁chor	-11310
▁germ	-11311
▁shop	-11312
onatal	-11313
lobulin	-11314
▁basket	-11315
▁constr	-11316
▁Desmond	-11317
▁cluster	-11318
▁cycling	-11319
▁ribcage	-11320
▁statins	-11321
▁hematuria	-11322
▁DearWelcome	-11323
gyn	-11324
off	-11325
▁CE	-11326
▁MV	-11327
▁UV	-11328
▁Mom	-11329
▁lil	-11330
▁corn	-11331
▁fren	-11332
fficulty	-11333
▁Specific	-11334
▁struggle	-11335
▁valuable	-11336
respective	-11337
▁influence	-11338
▁signaling	-11339
▁Hereditary	-11340
▁effectiveness	-11341
RIC	-11342
Tab	-11343
▁77	-11344
▁Lab	-11345
▁FOLL	-11346
acting	-11347
▁faulty	-11348
ortisone	-11349
▁respect	-11350
▁whereas	-11351
▁phosphor	-11352
▁sporadic	-11353
▁salicylic	-11354
▁Especially	-11355
▁metastases	-11356
▁overgrowth	-11357
ux	-11358
ENA	-11359
nac	-11360
skin	-11361
▁Bal	-11362
rican	-11363
▁DOES	-11364
ullary	-11365
▁Color	-11366
▁nuclear	-11367
;;	-11368
▁MO	-11369
olam	-11370
ware	-11371
▁1.6	-11372
▁void	-11373
ESTION	-11374
tidase	-11375
ungals	-11376
▁Grade	-11377
▁colds	-11378
▁nasty	-11379
however	-11380
▁phalan	-11381
▁screws	-11382
▁Possible	-11383
▁minimize	-11384
▁Lifestyle	-11385
▁serotonin	-11386
▁completion	-11387
▁Colonoscopy	-11388
".	-11389
IB	-11390
ico	-11391
▁Ed	-11392
▁Ha	-11393
▁je	-11394
,,,,	-11395
▁0.25	-11396
▁grate	-11397
▁wheel	-11398
▁eyelid	-11399
▁relaps	-11400
▁voices	-11401
▁reassure	-11402
ologically	-11403
▁Condition	-11404
itriptyline	-11405
▁nephropathy	-11406
▁prostatitis	-11407
100	-11408
era	-11409
▁71	-11410
othy	-11411
▁AGO	-11412
▁fle	-11413
▁Acne	-11414
surgical	-11415
▁barrier	-11416
▁Numbness	-11417
▁chromosomal	-11418
▁immunoglobulin	-11419
................	-11420
ht	-11421
alo	-11422
oal	-11423
lump	-11424
▁Leg	-11425
▁mam	-11426
▁nas	-11427
▁Myel	-11428
▁mont	-11429
▁resem	-11430
▁shave	-11431
▁septum	-11432
▁Evening	-11433
▁defense	-11434
▁interven	-11435
▁laxative	-11436
▁correlate	-11437
▁genitalia	-11438
▁requiring	-11439
▁hs	-11440
test	-11441
▁gal	-11442
▁Hand	-11443
▁Lose	-11444
▁bull	-11445
▁hunger	-11446
▁letting	-11447
▁promote	-11448
▁feverish	-11449
▁vasculitis	-11450
▁antioxidant	-11451
▁antipyretic	-11452
▁ChatDoctorWe	-11453
▁fluctuations	-11454
:1	-11455
FE	-11456
.2-	-11457
App	-11458
kel	-11459
rie	-11460
uth	-11461
asks	-11462
olut	-11463
reng	-11464
ogether	-11465
▁Sputum	-11466
▁filter	-11467
▁peeing	-11468
ribution	-11469
▁membran	-11470
▁restart	-11471
▁flossing	-11472
▁nocturnal	-11473
▁mononucleosis	-11474
fl	-11475
-1)	-11476
▁1-	-11477
▁Py	-11478
▁pc	-11479
▁Cou	-11480
acute	-11481
▁grap	-11482
▁scap	-11483
inated	-11484
▁rehab	-11485
▁Pelvic	-11486
▁summary	-11487
▁Homeopathy	-11488
▁compulsive	-11489
▁Doxycycline	-11490
▁transfusions	-11491
,.	-11492
ITE	-11493
MON	-11494
TIL	-11495
▁Ct	-11496
ophy	-11497
▁Clot	-11498
nitine	-11499
strate	-11500
▁arent	-11501
▁style	-11502
▁corpus	-11503
▁stored	-11504
▁cranial	-11505
▁pointing	-11506
▁stomache	-11507
▁anomalies	-11508
▁responded	-11509
▁Suggestions	-11510
On	-11511
.3-	-11512
ALK	-11513
▁GA	-11514
amen	-11515
▁145	-11516
▁12.5	-11517
▁Xanax	-11518
▁board	-11519
▁Advice	-11520
▁blurry	-11521
▁depress	-11522
▁Hematoma	-11523
▁ingested	-11524
aphylococcus	-11525
▁antifungals	-11526
emb	-11527
▁82	-11528
▁83	-11529
upid	-11530
▁Poor	-11531
▁gang	-11532
▁Hydro	-11533
▁curve	-11534
▁heads	-11535
▁sport	-11536
▁sacral	-11537
▁Bladder	-11538
▁ailment	-11539
▁eyelids	-11540
▁femoral	-11541
▁Steroids	-11542
▁misunder	-11543
▁extensions	-11544
▁presenting	-11545
▁trigeminal	-11546
▁ie	-11547
▁90.	-11548
istan	-11549
▁GOOD	-11550
▁mesh	-11551
riages	-11552
▁outdo	-11553
ibility	-11554
utation	-11555
▁sepsis	-11556
▁mucosal	-11557
▁retract	-11558
▁spinach	-11559
▁cortisol	-11560
▁Basically	-11561
▁hepatomegaly	-11562
dy	-11563
▁bf	-11564
ogene	-11565
start	-11566
▁Hall	-11567
▁bott	-11568
▁faced	-11569
atadine	-11570
blastic	-11571
▁tounge	-11572
igastric	-11573
▁Hodgkin	-11574
▁pathway	-11575
▁smokers	-11576
isoprolol	-11577
pneumonia	-11578
▁genetics	-11579
▁Inflammation	-11580
edy	-11581
meal	-11582
ignant	-11583
vasive	-11584
▁photo	-11585
▁uneasy	-11586
▁picking	-11587
▁proximal	-11588
▁Additional	-11589
▁fertilized	-11590
Ab	-11591
ECK	-11592
ara	-11593
bido	-11594
▁Son	-11595
▁dar	-11596
▁Remo	-11597
urated	-11598
▁24-48	-11599
▁Panic	-11600
▁flush	-11601
▁tasks	-11602
orectal	-11603
▁citrus	-11604
▁yearly	-11605
▁SYMPTOM	-11606
▁aspects	-11607
▁category	-11608
oposterior	-11609
▁diagonised	-11610
NESS	-11611
ftal	-11612
heli	-11613
▁apt	-11614
ishes	-11615
▁DONE	-11616
▁Garg	-11617
▁Look	-11618
▁hoar	-11619
▁slim	-11620
▁tast	-11621
▁obtain	-11622
▁weaker	-11623
cythemia	-11624
▁jumping	-11625
▁seafood	-11626
▁pricking	-11627
▁Pediatrician	-11628
▁contributing	-11629
▁lymphadenitis	-11630
▁mitochondrial	-11631
▁benzodiazepine	-11632
----------------	-11633
HS	-11634
▁Gi	-11635
▁Att	-11636
▁THIN	-11637
asthen	-11638
odeine	-11639
▁photos	-11640
cephalus	-11641
▁skipped	-11642
▁unstable	-11643
▁collapsed	-11644
depressants	-11645
▁Infertility	-11646
▁ophthalmologist	-11647
OGA	-11648
▁pH	-11649
onel	-11650
▁Ven	-11651
▁fog	-11652
▁tack	-11653
▁CAUSE	-11654
▁frame	-11655
▁lifel	-11656
▁circul	-11657
▁remote	-11658
bination	-11659
▁defined	-11660
allergics	-11661
▁Concerned	-11662
▁processes	-11663
▁sedentary	-11664
▁expectorant	-11665
▁debilitating	-11666
▁Hg	-11667
▁MT	-11668
derm	-11669
uing	-11670
▁Years	-11671
▁excerc	-11672
▁rushed	-11673
▁Itching	-11674
▁Keeping	-11675
▁dyspnea	-11676
▁tuesday	-11677
andibular	-11678
orineural	-11679
▁awaiting	-11680
▁affection	-11681
▁prostatic	-11682
▁reasonable	-11683
dL	-11684
aec	-11685
mid	-11686
oug	-11687
▁3-6	-11688
arial	-11689
▁Aust	-11690
▁FOOD	-11691
▁Mont	-11692
▁syno	-11693
▁zone	-11694
▁STILL	-11695
▁agony	-11696
ranolol	-11697
▁equally	-11698
▁juvenile	-11699
▁outbreak	-11700
▁stenting	-11701
▁nebulizer	-11702
▁Fluconazole	-11703
▁ciprofloxacin	-11704
chol	-11705
than	-11706
▁amb	-11707
birth	-11708
ismus	-11709
▁Were	-11710
▁HELLO	-11711
▁seeds	-11712
plastic	-11713
▁coccyx	-11714
▁inhale	-11715
▁thread	-11716
▁Almonds	-11717
▁Finally	-11718
▁Studies	-11719
▁january	-11720
▁nowhere	-11721
▁presented	-11722
plenomegaly	-11723
▁components	-11724
▁Additionally	-11725
opatChatDoctored	-11726
uel	-11727
▁86	-11728
orph	-11729
play	-11730
amina	-11731
ggest	-11732
inent	-11733
inger	-11734
orism	-11735
vular	-11736
▁drow	-11737
▁subc	-11738
▁dimin	-11739
▁femur	-11740
▁scare	-11741
▁tibia	-11742
▁aswell	-11743
▁concre	-11744
PRESSION	-11745
▁prenatal	-11746
▁maxillary	-11747
▁cholestrol	-11748
▁sleepiness	-11749
▁parathyroid	-11750
):	-11751
ello	-11752
▁101.	-11753
▁Brac	-11754
▁nove	-11755
apping	-11756
phrine	-11757
▁meets	-11758
▁radic	-11759
waiting	-11760
▁Append	-11761
▁deterg	-11762
▁soften	-11763
▁suture	-11764
▁cataract	-11765
▁pulsating	-11766
▁cerebellum	-11767
▁orthodontic	-11768
.7.	-11769
epid	-11770
illy	-11771
reme	-11772
▁mel	-11773
otine	-11774
▁CONT	-11775
▁cort	-11776
▁jour	-11777
▁oval	-11778
mostly	-11779
▁KIDNE	-11780
▁crust	-11781
▁guard	-11782
elorism	-11783
inctive	-11784
▁marble	-11785
▁battery	-11786
▁exagger	-11787
▁Irregular	-11788
odeficiency	-11789
▁straighten	-11790
/20	-11791
ODY	-11792
type	-11793
▁nex	-11794
▁vap	-11795
▁Slow	-11796
▁hamp	-11797
▁pcod	-11798
otonia	-11799
▁addic	-11800
▁incred	-11801
▁riding	-11802
▁stitch	-11803
although	-11804
▁optimum	-11805
▁Lymphoma	-11806
▁predomin	-11807
▁staining	-11808
▁Rheumatoid	-11809
▁ventilator	-11810
▁significance	-11811
tol	-11812
▁YOGA	-11813
▁gard	-11814
▁laid	-11815
inosis	-11816
▁shoots	-11817
▁stocking	-11818
▁motivation	-11819
▁Antihistamines	-11820
AF	-11821
coz	-11822
acar	-11823
ament	-11824
▁spur	-11825
aresis	-11826
iatric	-11827
omical	-11828
hepatic	-11829
▁cracks	-11830
▁disori	-11831
▁fright	-11832
▁libido	-11833
▁Spastic	-11834
▁ringing	-11835
▁anteroposterior	-11836
Hg	-11837
IE	-11838
-15	-11839
Ive	-11840
RIED	-11841
odyst	-11842
▁Side	-11843
▁flav	-11844
coming	-11845
lihood	-11846
▁2014.	-11847
▁likes	-11848
▁spond	-11849
▁checks	-11850
▁compens	-11851
▁sarcoma	-11852
▁sterile	-11853
▁familiar	-11854
▁quadrant	-11855
▁HelloYour	-11856
▁Pregabalin	-11857
elonephritis	-11858
carb	-11859
▁Dil	-11860
▁Eng	-11861
▁knw	-11862
white	-11863
▁Gluc	-11864
▁WANT	-11865
▁join	-11866
▁lazy	-11867
▁Whats	-11868
▁flesh	-11869
▁twenty	-11870
steroidal	-11871
▁Diarrhea	-11872
▁handling	-11873
▁erections	-11874
▁miserable	-11875
▁Hypothyroidism	-11876
pur	-11877
zac	-11878
▁88	-11879
oric	-11880
▁15.	-11881
▁Yet	-11882
▁bif	-11883
ENTLY	-11884
jected	-11885
uccess	-11886
▁advant	-11887
▁bundle	-11888
▁predis	-11889
▁Hearing	-11890
▁focused	-11891
▁shifted	-11892
▁Sometime	-11893
▁circular	-11894
▁greenish	-11895
▁medicated	-11896
ANS	-11897
They	-11898
neck	-11899
onad	-11900
▁Cap	-11901
▁SIR	-11902
▁Glyc	-11903
▁MORE	-11904
▁Prop	-11905
▁dint	-11906
▁Ulcer	-11907
▁absorb	-11908
▁biotic	-11909
▁cushion	-11910
▁shorter	-11911
▁clarified	-11912
▁completing	-11913
16	-11914
TSD	-11915
▁105	-11916
▁PVC	-11917
upper	-11918
▁desk	-11919
▁Going	-11920
▁advil	-11921
▁jerky	-11922
▁bubbles	-11923
▁symptons	-11924
▁instantly	-11925
▁supplying	-11926
▁cerebellar	-11927
▁menopausal	-11928
gly	-11929
▁oc	-11930
AILY	-11931
▁7-8	-11932
▁Sup	-11933
▁cef	-11934
▁cult	-11935
▁ghee	-11936
▁rules	-11937
clusion	-11938
▁tingle	-11939
▁Central	-11940
▁flexion	-11941
▁Echocardi	-11942
Hi	-11943
ecl	-11944
ube	-11945
▁AMH	-11946
▁meg	-11947
esity	-11948
▁CAUS	-11949
▁Soft	-11950
ventil	-11951
▁CHEST	-11952
contact	-11953
▁Eating	-11954
▁annual	-11955
▁played	-11956
▁occured	-11957
lications	-11958
odialysis	-11959
▁cautious	-11960
▁clearance	-11961
▁Metronidazole	-11962
eem	-11963
pts	-11964
ront	-11965
▁135	-11966
▁Hel	-11967
▁ivf	-11968
alate	-11969
ivered	-11970
▁Neuro	-11971
▁named	-11972
▁strang	-11973
diabetic	-11974
osalping	-11975
▁Husband	-11976
▁ammonia	-11977
▁courses	-11978
▁collarbone	-11979
▁generation	-11980
▁likelihood	-11981
▁breakthrough	-11982
DH	-11983
plus	-11984
▁DIA	-11985
▁PAR	-11986
alpro	-11987
▁Meth	-11988
▁Cipro	-11989
▁clock	-11990
▁nucle	-11991
nothing	-11992
▁Fungal	-11993
▁Abscess	-11994
▁Chennai	-11995
▁Insulin	-11996
▁refused	-11997
▁backwards	-11998
45	-11999
ILE	-12000
mean	-12001
▁:1.	-12002
▁DID	-12003
▁iui	-12004
▁sip	-12005
inate	-12006
ochem	-12007
▁Calc	-12008
▁ERCP	-12009
▁PTSD	-12010
▁Sore	-12011
ciitis	-12012
▁calls	-12013
▁finan	-12014
▁knife	-12015
▁tense	-12016
▁tuber	-12017
▁Lastly	-12018
▁analyze	-12019
▁radical	-12020
▁Positive	-12021
▁membranes	-12022
▁preventable	-12023
▁persistently	-12024
sif	-12025
vas	-12026
▁USE	-12027
▁opi	-12028
▁mmHg	-12029
timate	-12030
▁Learn	-12031
▁alert	-12032
▁diets	-12033
▁thrive	-12034
▁DISEASE	-12035
▁Opinion	-12036
▁movable	-12037
▁profuse	-12038
▁Leukemia	-12039
▁ringworm	-12040
▁ureteric	-12041
▁Breathing	-12042
▁Consultant	-12043
▁dehydrated	-12044
▁department	-12045
▁histamines	-12046
▁Risperidone	-12047
IP	-12048
fib	-12049
▁(8	-12050
mann	-12051
▁eth	-12052
▁bugs	-12053
▁match	-12054
▁Culture	-12055
▁sisters	-12056
▁station	-12057
▁conclude	-12058
▁confirms	-12059
onephrosis	-12060
▁exclusive	-12061
▁incidental	-12062
Her	-12063
ioma	-12064
many	-12065
osec	-12066
▁ABD	-12067
▁STR	-12068
▁dip	-12069
EMAIL	-12070
ocrit	-12071
▁Prof	-12072
▁Xray	-12073
▁culp	-12074
headed	-12075
▁Cells	-12076
▁salads	-12077
▁soccer	-12078
▁stupid	-12079
▁attract	-12080
▁sustain	-12081
enerative	-12082
▁business	-12083
▁chlamydia	-12084
▁implanted	-12085
▁materials	-12086
▁radiculopathy	-12087
Its	-12088
▁SF	-12089
▁IND	-12090
▁lys	-12091
osity	-12092
▁PRES	-12093
▁jaws	-12094
▁pace	-12095
ieving	-12096
▁error	-12097
▁sorts	-12098
lingual	-12099
▁kicked	-12100
▁sources	-12101
▁Adderall	-12102
▁epithelial	-12103
▁hemorrhagic	-12104
3-4	-12105
dis	-12106
ica	-12107
▁4,	-12108
▁CY	-12109
▁gf	-12110
iber	-12111
▁(1)	-12112
▁30.	-12113
▁RED	-12114
▁wht	-12115
entim	-12116
iagra	-12117
▁nite	-12118
▁vase	-12119
Should	-12120
actrim	-12121
bacter	-12122
ostomy	-12123
▁pinky	-12124
omatous	-12125
▁branch	-12126
▁humans	-12127
▁shakes	-12128
cinolone	-12129
▁Migrain	-12130
▁coverage	-12131
▁behaviour	-12132
▁Varicocele	-12133
▁aggravating	-12134
▁orthodontist	-12135
5/	-12136
size	-12137
▁CAL	-12138
green	-12139
rences	-12140
▁DAILY	-12141
▁Delhi	-12142
▁Large	-12143
▁fears	-12144
▁fused	-12145
▁lever	-12146
▁engage	-12147
▁masses	-12148
▁radial	-12149
▁modality	-12150
▁november	-12151
remarkable	-12152
▁Radiation	-12153
▁lidocaine	-12154
▁operating	-12155
)2.	-12156
▁(6	-12157
▁79	-12158
▁ga	-12159
bert	-12160
▁Nap	-12161
ERING	-12162
ivers	-12163
▁Prom	-12164
inging	-12165
▁Broad	-12166
▁lived	-12167
▁overl	-12168
▁retro	-12169
▁cooked	-12170
▁expand	-12171
▁rounds	-12172
▁silent	-12173
▁sweets	-12174
▁biggest	-12175
▁booster	-12176
▁culprit	-12177
▁Pr	-12178
▁hb	-12179
cule	-12180
foot	-12181
post	-12182
▁5.5	-12183
arsal	-12184
▁wore	-12185
▁assay	-12186
▁detox	-12187
hingles	-12188
▁relate	-12189
▁clogged	-12190
▁steriod	-12191
▁tremend	-12192
▁baldness	-12193
▁INFECTION	-12194
▁radiological	-12195
OTS	-12196
▁Ec	-12197
▁0.0	-12198
▁PER	-12199
▁2007	-12200
▁Time	-12201
▁desc	-12202
▁pupp	-12203
▁trop	-12204
▁IRENA	-12205
tically	-12206
▁locate	-12207
▁virgin	-12208
▁carious	-12209
▁records	-12210
▁ambulance	-12211
▁attempted	-12212
▁persisted	-12213
▁Treatments	-12214
▁visualized	-12215
..?	-12216
▁VA	-12217
▁oz	-12218
olip	-12219
onge	-12220
rose	-12221
roxy	-12222
▁BET	-12223
▁Dup	-12224
▁esr	-12225
epsia	-12226
etron	-12227
ttage	-12228
ointed	-12229
ometer	-12230
ortions	-12231
▁System	-12232
▁stores	-12233
▁classic	-12234
▁mixture	-12235
▁october	-12236
▁trivial	-12237
nutrition	-12238
amcinolone	-12239
▁autonomic	-12240
▁lisinopril	-12241
▁considerably	-12242
▁Physiotherapist	-12243
SW	-12244
500	-12245
OSP	-12246
too	-12247
▁97	-12248
anas	-12249
▁una	-12250
gnant	-12251
would	-12252
▁dime	-12253
ulence	-12254
▁milder	-12255
▁epiderm	-12256
▁adenoids	-12257
▁lifelong	-12258
▁papillae	-12259
▁ulcerative	-12260
▁differently	-12261
▁orthopaedician	-12262
ACE	-12263
ORY	-12264
▁Sa	-12265
▁GFR	-12266
▁HLA	-12267
▁Rib	-12268
Madam	-12269
spicy	-12270
▁host	-12271
▁Bowel	-12272
▁lipids	-12273
Complete	-12274
▁Routine	-12275
▁stained	-12276
▁spitting	-12277
▁Allergist	-12278
▁elsewhere	-12279
▁requested	-12280
▁interesting	-12281
etal	-12282
▁web	-12283
▁Mass	-12284
▁bare	-12285
▁cruc	-12286
illing	-12287
achnoid	-12288
ontitis	-12289
▁Height	-12290
▁Streng	-12291
▁cloudy	-12292
recently	-12293
▁Aspirin	-12294
▁torsion	-12295
▁Recovery	-12296
▁Presently	-12297
(2	-12298
Co	-12299
opy	-12300
▁,,	-12301
▁81	-12302
▁Cha	-12303
▁rod	-12304
vanse	-12305
▁Liqu	-12306
▁Trig	-12307
▁peak	-12308
ocereb	-12309
ounced	-12310
unctiv	-12311
▁Cleft	-12312
consult	-12313
ounters	-12314
swelling	-12315
▁actions	-12316
▁retinal	-12317
alcoholic	-12318
▁obstruct	-12319
▁searched	-12320
▁basketball	-12321
▁prokinetic	-12322
▁instability	-12323
akia	-12324
ript	-12325
rium	-12326
▁50.	-12327
orsal	-12328
▁Ever	-12329
▁Foll	-12330
▁WORK	-12331
▁shoe	-12332
▁Black	-12333
▁Pseud	-12334
▁mobil	-12335
▁......	-12336
▁abroad	-12337
▁combat	-12338
▁desired	-12339
▁grateful	-12340
▁ovulated	-12341
▁correspond	-12342
▁encounters	-12343
▁candidiasis	-12344
▁conservatively	-12345
.4-	-12346
OLE	-12347
ben	-12348
▁7,	-12349
▁Du	-12350
oper	-12351
▁amyl	-12352
yvanse	-12353
osartan	-12354
▁reveals	-12355
▁touches	-12356
omyelitis	-12357
▁Alkaline	-12358
▁managing	-12359
▁teenager	-12360
▁diabetics	-12361
▁laxatives	-12362
▁parkinson	-12363
▁administration	-12364
see	-12365
FORE	-12366
cons	-12367
eton	-12368
good	-12369
mild	-12370
▁Aer	-12371
▁MCH	-12372
celer	-12373
cycle	-12374
ostal	-12375
▁Grad	-12376
▁Hard	-12377
▁sees	-12378
atmeal	-12379
▁ortho	-12380
▁recom	-12381
▁salts	-12382
azepine	-12383
▁exceed	-12384
ithiasis	-12385
ropriate	-12386
▁lowered	-12387
▁bringing	-12388
▁fasciitis	-12389
▁mupirocin	-12390
▁benefitted	-12391
▁Microcephaly	-12392
BP	-12393
OWN	-12394
cle	-12395
▁held	-12396
▁rose	-12397
▁syph	-12398
▁LEVEL	-12399
▁Level	-12400
▁overw	-12401
▁rigid	-12402
fulness	-12403
without	-12404
▁Reduced	-12405
▁SYMPTOMS	-12406
▁terribly	-12407
▁destroyed	-12408
▁Polycystic	-12409
▁originally	-12410
tr	-12411
URI	-12412
lep	-12413
▁(9	-12414
oman	-12415
osol	-12416
▁plu	-12417
▁spy	-12418
ories	-12419
ritic	-12420
thank	-12421
▁hydr	-12422
derabad	-12423
osition	-12424
▁Factor	-12425
▁calves	-12426
▁paraly	-12427
▁select	-12428
asteride	-12429
▁preterm	-12430
lipidemia	-12431
▁superior	-12432
▁epileptic	-12433
▁distinctive	-12434
?5.	-12435
bies	-12436
pres	-12437
▁Bru	-12438
these	-12439
▁SURG	-12440
▁hicc	-12441
▁wrap	-12442
making	-12443
▁amino	-12444
▁beans	-12445
▁diagn	-12446
▁label	-12447
akistan	-12448
▁Pancre	-12449
▁Proton	-12450
▁hiatal	-12451
▁BECAUSE	-12452
▁balloon	-12453
▁bathing	-12454
▁divided	-12455
▁knuckle	-12456
▁deficient	-12457
mps	-12458
▁EP	-12459
aise	-12460
fect	-12461
▁10,	-12462
amide	-12463
ulose	-12464
ionate	-12465
ustion	-12466
angioma	-12467
inating	-12468
▁Around	-12469
▁latter	-12470
▁street	-12471
▁febrile	-12472
developed	-12473
rocephaly	-12474
▁believes	-12475
▁deafness	-12476
▁weakened	-12477
▁decisions	-12478
▁phosphorus	-12479
▁Application	-12480
▁irregularities	-12481
pled	-12482
▁atm	-12483
▁mgs	-12484
axine	-12485
pylori	-12486
rehens	-12487
zenges	-12488
▁puffs	-12489
▁Steroid	-12490
▁happend	-12491
▁skipping	-12492
▁thyroxine	-12493
▁metoprolol	-12494
▁troublesome	-12495
▁hemochromatosis	-12496
?-	-12497
HL	-12498
eal	-12499
▁87	-12500
▁Sel	-12501
oting	-12502
stress	-12503
Alcohol	-12504
▁statin	-12505
▁steady	-12506
▁Swollen	-12507
▁contacted	-12508
▁delivered	-12509
▁miscarriages	-12510
▁hyperactivity	-12511
OH	-12512
▁Er	-12513
▁Ten	-12514
incre	-12515
▁lens	-12516
▁worn	-12517
▁10-12	-12518
▁FOLLOW	-12519
▁intram	-12520
▁sweaty	-12521
▁pinkish	-12522
anitizing	-12523
▁rearward	-12524
▁saturation	-12525
Ag	-12526
UD	-12527
asol	-12528
▁1.0	-12529
▁hay	-12530
onged	-12531
▁goog	-12532
▁THESE	-12533
▁drunk	-12534
▁goose	-12535
▁staff	-12536
athetic	-12537
million	-12538
▁lumber	-12539
▁bearing	-12540
▁climate	-12541
▁failing	-12542
▁firstly	-12543
▁convince	-12544
arcoidosis	-12545
▁concluded	-12546
▁encounter	-12547
gr	-12548
▁92	-12549
▁40.	-12550
▁AGE	-12551
ATIVE	-12552
resia	-12553
ulses	-12554
opamine	-12555
▁Contin	-12556
▁darken	-12557
▁generic	-12558
▁passive	-12559
▁staging	-12560
▁frenulum	-12561
▁unfortun	-12562
▁concentrated	-12563
▁atherosclerosis	-12564
-14	-12565
apt	-12566
▁5,	-12567
▁SK	-12568
sign	-12569
▁TLC	-12570
rance	-12571
▁Baby	-12572
▁Temp	-12573
▁whit	-12574
▁dried	-12575
▁grass	-12576
▁hurry	-12577
▁sebum	-12578
▁vague	-12579
version	-12580
▁titles	-12581
▁article	-12582
▁lipomas	-12583
olidation	-12584
▁blotches	-12585
▁Potassium	-12586
▁manifestations	-12587
CRE	-12588
▁4-	-12589
▁mt	-12590
iest	-12591
onus	-12592
oons	-12593
rati	-12594
▁Bro	-12595
▁pil	-12596
Thank	-12597
▁Luke	-12598
▁pads	-12599
▁perm	-12600
▁weed	-12601
ctores	-12602
hedema	-12603
▁sache	-12604
jective	-12605
maximum	-12606
▁BEFORE	-12607
▁Recent	-12608
▁bluish	-12609
▁hiatus	-12610
▁waited	-12611
alproate	-12612
ansetron	-12613
sibility	-12614
▁purpura	-12615
▁sulfate	-12616
▁dentists	-12617
▁desensit	-12618
▁tapering	-12619
odystrophy	-12620
▁Christmas	-12621
▁Persistent	-12622
▁positional	-12623
▁maxillofacial	-12624
Wh	-12625
INT	-12626
REE	-12627
laf	-12628
tide	-12629
ticed	-12630
ystic	-12631
▁WEEK	-12632
▁noon	-12633
during	-12634
throid	-12635
▁LIVER	-12636
▁Their	-12637
▁edges	-12638
▁manip	-12639
thening	-12640
ylosing	-12641
▁autism	-12642
▁differ	-12643
▁dislod	-12644
ographic	-12645
▁dusting	-12646
▁efforts	-12647
▁heavier	-12648
▁upright	-12649
▁varying	-12650
oospermia	-12651
▁brothers	-12652
▁concepts	-12653
▁terrified	-12654
▁expectoration	-12655
▁whicChatDoctore	-12656
DM	-12657
ifying	-12658
clusive	-12659
iabetes	-12660
ortical	-12661
▁verify	-12662
uestions	-12663
▁Summary	-12664
▁Whatever	-12665
▁emission	-12666
▁occlusion	-12667
▁practicing	-12668
▁gastrostomy	-12669
▁prophylactic	-12670
▁Levocetrizine	-12671
▁ib	-12672
Have	-12673
cell	-12674
ilia	-12675
▁REM	-12676
comes	-12677
▁vibr	-12678
▁grain	-12679
patient	-12680
aterally	-12681
▁blowing	-12682
▁imagine	-12683
▁prepare	-12684
▁shallow	-12685
▁concrete	-12686
▁cracking	-12687
▁relievers	-12688
▁selective	-12689
▁Prednisone	-12690
▁displacement	-12691
MR	-12692
cel	-12693
def	-12694
▁ot	-12695
▁ti	-12696
▁zy	-12697
acia	-12698
▁16.	-12699
▁20.	-12700
▁ich	-12701
nitus	-12702
▁DEAR	-12703
▁Form	-12704
height	-12705
▁diarr	-12706
▁carcin	-12707
▁nobody	-12708
▁purpos	-12709
▁conflic	-12710
▁corneal	-12711
▁planing	-12712
▁foramina	-12713
tubercular	-12714
▁massaging	-12715
▁Homeopathic	-12716
▁subsequently	-12717
▁communication	-12718
GI	-12719
UTI	-12720
▁99%	-12721
▁IGM	-12722
▁Put	-12723
▁Hash	-12724
▁plat	-12725
abolic	-12726
enafil	-12727
▁astha	-12728
▁backs	-12729
▁dusts	-12730
▁teach	-12731
razolam	-12732
▁Reflux	-12733
▁Slight	-12734
▁bitter	-12735
▁cereal	-12736
ogeneous	-12737
▁STARTED	-12738
▁Spondyl	-12739
▁pleased	-12740
▁Dementia	-12741
▁underarm	-12742
▁hamstring	-12743
▁screaming	-12744
▁amlodipine	-12745
▁unremarkable	-12746
esh	-12747
▁HT	-12748
▁rh	-12749
000.	-12750
atum	-12751
opep	-12752
▁EFF	-12753
▁HSV	-12754
▁Ray	-12755
incip	-12756
stone	-12757
▁doct	-12758
verted	-12759
zapine	-12760
▁marry	-12761
▁enamel	-12762
▁modify	-12763
▁African	-12764
▁moments	-12765
▁Benadryl	-12766
▁promptly	-12767
▁activated	-12768
▁unmarried	-12769
▁bothersome	-12770
▁Diagnostics	-12771
OF	-12772
.1-	-12773
IAL	-12774
rah	-12775
Then	-12776
amps	-12777
need	-12778
ropo	-12779
▁MIL	-12780
▁hop	-12781
▁Neut	-12782
▁snot	-12783
▁Third	-12784
▁Pulmon	-12785
▁duoden	-12786
▁pseudo	-12787
▁stings	-12788
▁lithium	-12789
▁cystitis	-12790
▁Childhood	-12791
▁hypothyroid	-12792
▁mammography	-12793
▁considerable	-12794
MY	-12795
▁IB	-12796
abel	-12797
safe	-12798
▁15%	-12799
▁INJ	-12800
▁THX	-12801
▁cas	-12802
butrin	-12803
▁herbs	-12804
▁myths	-12805
▁newly	-12806
▁burned	-12807
▁devices	-12808
▁stamina	-12809
ometasone	-12810
▁cellular	-12811
▁freezing	-12812
▁portions	-12813
▁tolerable	-12814
▁aggravates	-12815
▁myocardial	-12816
▁noncontact	-12817
▁grandfather	-12818
17	-12819
bel	-12820
len	-12821
los	-12822
anty	-12823
imus	-12824
orte	-12825
▁12,	-12826
▁fif	-12827
ancing	-12828
▁Feels	-12829
▁niece	-12830
forming	-12831
▁cortex	-12832
▁delays	-12833
▁overly	-12834
▁fingern	-12835
▁princip	-12836
hydactyly	-12837
treatment	-12838
▁abortions	-12839
▁favorable	-12840
▁infantile	-12841
▁normalize	-12842
▁altogether	-12843
▁tomography	-12844
▁undiagnosed	-12845
▁embarrassing	-12846
▁increasingly	-12847
PD	-12848
▁BL	-12849
▁SR	-12850
▁dx	-12851
urst	-12852
▁War	-12853
▁PERI	-12854
▁cane	-12855
▁coron	-12856
▁glute	-12857
atology	-12858
isation	-12859
oplakia	-12860
▁builds	-12861
▁fiance	-12862
▁stands	-12863
▁excited	-12864
traumatic	-12865
▁interact	-12866
▁quitting	-12867
orvastatin	-12868
▁cutaneous	-12869
▁stricture	-12870
▁complicate	-12871
EE	-12872
APY	-12873
cot	-12874
▁%.	-12875
ITAL	-12876
mail	-12877
▁165	-12878
▁Tur	-12879
▁dev	-12880
▁shy	-12881
?????	-12882
NSAID	-12883
▁Knee	-12884
▁clen	-12885
▁fasc	-12886
▁vain	-12887
▁dealt	-12888
▁gamma	-12889
▁realy	-12890
▁stood	-12891
obacter	-12892
▁intell	-12893
▁plates	-12894
lafaxine	-12895
▁maternal	-12896
▁SUFFERING	-12897
▁gestation	-12898
▁withdrawal	-12899
▁appendectomy	-12900
."	-12901
CM	-12902
11.	-12903
▁SPF	-12904
ifamp	-12905
ionic	-12906
level	-12907
▁clam	-12908
▁sets	-12909
uctose	-12910
▁Prior	-12911
▁built	-12912
▁exhib	-12913
▁impot	-12914
▁woken	-12915
▁employ	-12916
▁noises	-12917
▁recurs	-12918
essation	-12919
▁Concent	-12920
▁ureters	-12921
▁foreplay	-12922
▁valvular	-12923
▁indicator	-12924
athyroidism	-12925
▁Prevention	-12926
▁suspension	-12927
▁alternatives	-12928
▁apprehension	-12929
En	-12930
All	-12931
IDS	-12932
cil	-12933
fed	-12934
sem	-12935
▁aft	-12936
kward	-12937
oured	-12938
▁paid	-12939
orexia	-12940
▁Father	-12941
▁Visual	-12942
▁canals	-12943
otexture	-12944
▁deciding	-12945
▁overwhel	-12946
▁aspirated	-12947
▁auscultation	-12948
▁antispasmodic	-12949
ums	-12950
rene	-12951
stop	-12952
▁Ank	-12953
▁adm	-12954
▁bak	-12955
arant	-12956
sized	-12957
▁CELL	-12958
▁HEAD	-12959
▁Shar	-12960
▁cann	-12961
flexia	-12962
▁Rapid	-12963
▁syring	-12964
▁newborns	-12965
▁Urticaria	-12966
▁referring	-12967
▁wednesday	-12968
▁mastectomy	-12969
▁ulceration	-12970
-50	-12971
200	-12972
lio	-12973
try	-12974
eins	-12975
inct	-12976
know	-12977
▁190	-12978
▁CAD	-12979
▁TAB	-12980
▁wil	-12981
ached	-12982
comed	-12983
esare	-12984
icycl	-12985
inear	-12986
rauma	-12987
▁Same	-12988
▁Uric	-12989
▁Wide	-12990
▁Cysts	-12991
▁Melan	-12992
▁reson	-12993
▁dreams	-12994
▁raises	-12995
▁bacilli	-12996
▁sutures	-12997
▁wrapped	-12998
▁MEDICINE	-12999
▁Gastritis	-13000
▁alignment	-13001
▁discolored	-13002
▁eosinophils	-13003
Ultrasonography	-13004
▁vi	-13005
male	-13006
obal	-13007
▁Drs	-13008
▁soci	-13009
almost	-13010
▁Major	-13011
▁NIGHT	-13012
▁Tidal	-13013
▁bumpy	-13014
▁gases	-13015
▁areola	-13016
▁curing	-13017
▁varied	-13018
▁engaged	-13019
▁placing	-13020
▁recheck	-13021
▁nostrils	-13022
plications	-13023
▁documented	-13024
Ad	-13025
▁Tw	-13026
erge	-13027
early	-13028
▁John	-13029
▁None	-13030
▁adop	-13031
caling	-13032
▁THINK	-13033
▁TIMES	-13034
▁baths	-13035
ubation	-13036
▁KIDNEY	-13037
▁stoped	-13038
▁blotchy	-13039
▁raising	-13040
▁rotated	-13041
▁hairfall	-13042
▁terminate	-13043
▁Deficiency	-13044
▁epididymis	-13045
▁sublingual	-13046
▁hyperacidity	-13047
bt	-13048
FUL	-13049
HING	-13050
▁Lor	-13051
block	-13052
illus	-13053
imers	-13054
noted	-13055
▁DISC	-13056
▁aloe	-13057
ausing	-13058
▁dirty	-13059
▁drawn	-13060
▁empir	-13061
▁equal	-13062
▁Immedi	-13063
▁grains	-13064
▁punched	-13065
▁symptomatically	-13066
▁HP	-13067
star	-13068
ludge	-13069
odics	-13070
▁AVOID	-13071
▁DIAGN	-13072
▁Monte	-13073
▁WEEKS	-13074
▁ipill	-13075
▁myocl	-13076
▁Dental	-13077
▁Rather	-13078
▁forced	-13079
▁bucolic	-13080
▁syndrom	-13081
▁trachea	-13082
ventional	-13083
▁Hashimot	-13084
▁laughing	-13085
▁syphilis	-13086
opeptidase	-13087
▁articular	-13088
ChatDoctores	-13089
Or	-13090
YM	-13091
vt	-13092
ABG	-13093
▁(7	-13094
rone	-13095
▁Str	-13096
idism	-13097
second	-13098
▁Nasal	-13099
▁dense	-13100
▁methy	-13101
▁polio	-13102
▁sickle	-13103
sensitive	-13104
▁articles	-13105
▁rheumatic	-13106
▁anatomical	-13107
▁consolidation	-13108
▁Mi	-13109
▁CHF	-13110
▁Hal	-13111
▁hai	-13112
▁hob	-13113
These	-13114
azine	-13115
azone	-13116
inoin	-13117
▁ONCE	-13118
▁donate	-13119
▁closure	-13120
▁express	-13121
▁Shingles	-13122
▁callosum	-13123
▁twitches	-13124
▁troubling	-13125
▁distribution	-13126
pen	-13127
▁GM	-13128
▁KG	-13129
▁Dad	-13130
▁Exa	-13131
motile	-13132
▁AGAIN	-13133
▁Ortho	-13134
entists	-13135
invasive	-13136
isthesis	-13137
▁largest	-13138
▁oatmeal	-13139
▁infusion	-13140
▁vitiligo	-13141
▁Lidocaine	-13142
ocerebellar	-13143
▁frustrating	-13144
MB	-13145
NO	-13146
aky	-13147
fat	-13148
isa	-13149
▁ID	-13150
Read	-13151
Well	-13152
▁198	-13153
▁25.	-13154
▁Won	-13155
▁sen	-13156
▁Magn	-13157
▁fift	-13158
azapine	-13159
ogenous	-13160
▁crocin	-13161
ilateral	-13162
▁athletic	-13163
▁lozenges	-13164
▁accompany	-13165
▁cosmetics	-13166
▁subsiding	-13167
▁pharmacist	-13168
▁Inflammatory	-13169
LI	-13170
neu	-13171
sip	-13172
▁Sr	-13173
/201	-13174
INAL	-13175
UERY	-13176
face	-13177
▁1.4	-13178
▁REG	-13179
activ	-13180
▁Conf	-13181
▁SPEC	-13182
▁cred	-13183
▁iced	-13184
▁poss	-13185
▁abort	-13186
▁mount	-13187
▁socks	-13188
opausal	-13189
▁Pylori	-13190
▁Sodium	-13191
▁awkward	-13192
▁experts	-13193
▁humidif	-13194
▁refined	-13195
▁Bacterial	-13196
▁bangalore	-13197
▁finishing	-13198
▁compromise	-13199
▁intermittently	-13200
mm	-13201
BUT	-13202
Not	-13203
lly	-13204
OTIC	-13205
kind	-13206
▁cuz	-13207
▁Foot	-13208
▁frank	-13209
▁lumpy	-13210
▁plane	-13211
▁codeine	-13212
▁leaning	-13213
▁psychic	-13214
medication	-13215
▁wonderful	-13216
▁comprehens	-13217
▁paroxysmal	-13218
▁Ju	-13219
▁Sm	-13220
▁TY	-13221
Dear	-13222
anic	-13223
pread	-13224
ticul	-13225
▁HEAL	-13226
▁Meet	-13227
▁Eryth	-13228
▁Metal	-13229
▁bunch	-13230
▁puppy	-13231
esarean	-13232
▁atmosp	-13233
▁lavage	-13234
▁lessen	-13235
▁zoster	-13236
lyceride	-13237
▁carriers	-13238
▁classified	-13239
▁antianxiety	-13240
▁precipitate	-13241
▁threatening	-13242
uty	-13243
mark	-13244
vert	-13245
▁Ass	-13246
▁Old	-13247
▁Thy	-13248
▁Unc	-13249
ience	-13250
▁ANSW	-13251
▁CHAN	-13252
▁intr	-13253
▁germs	-13254
▁omega	-13255
▁trich	-13256
▁Facial	-13257
omatosis	-13258
▁Obesity	-13259
▁jawline	-13260
▁tearing	-13261
▁channels	-13262
▁hardness	-13263
▁lordosis	-13264
▁exception	-13265
▁repeating	-13266
▁Impression	-13267
▁ChatDoctorYou	-13268
vus	-13269
▁uv	-13270
phen	-13271
▁Bel	-13272
▁Fin	-13273
▁MOR	-13274
▁Tes	-13275
▁alp	-13276
inase	-13277
▁copd	-13278
▁sits	-13279
▁tied	-13280
▁CONTR	-13281
▁rises	-13282
▁vocal	-13283
dactyly	-13284
ometric	-13285
▁attain	-13286
▁compli	-13287
▁marked	-13288
▁solids	-13289
▁blessed	-13290
▁caution	-13291
▁element	-13292
▁Weakness	-13293
▁september	-13294
WH	-13295
ani	-13296
▁HD	-13297
auti	-13298
clin	-13299
inch	-13300
ples	-13301
stay	-13302
▁-1.	-13303
▁80.	-13304
▁HIM	-13305
acare	-13306
▁Part	-13307
▁fool	-13308
aseous	-13309
avirus	-13310
yellow	-13311
▁angio	-13312
lycemic	-13313
▁entity	-13314
▁resort	-13315
▁scares	-13316
▁sticks	-13317
amoxifen	-13318
▁gravity	-13319
chicoside	-13320
▁Camphene	-13321
▁shouldnt	-13322
▁regulation	-13323
▁fluctuating	-13324
UG	-13325
enz	-13326
iva	-13327
iden	-13328
rous	-13329
▁1.3	-13330
▁HAI	-13331
orbid	-13332
▁2009.	-13333
▁Adult	-13334
▁PREGN	-13335
▁burnt	-13336
▁talks	-13337
▁uncon	-13338
itoneal	-13339
thalmia	-13340
▁Epilep	-13341
▁surviv	-13342
▁Burning	-13343
▁GETTING	-13344
▁marking	-13345
▁removes	-13346
▁stating	-13347
effective	-13348
orchidism	-13349
▁glomerul	-13350
icyclomine	-13351
▁cessation	-13352
▁biological	-13353
▁constitution	-13354
▁contraindicated	-13355
Ac	-13356
Mar	-13357
iof	-13358
▁96	-13359
▁tv	-13360
gent	-13361
▁Var	-13362
▁vib	-13363
▁Aden	-13364
▁Rash	-13365
▁unno	-13366
▁alkal	-13367
▁books	-13368
▁irrig	-13369
▁pores	-13370
▁straw	-13371
▁Direct	-13372
▁Trying	-13373
▁motrin	-13374
▁thrown	-13375
▁timely	-13376
▁untill	-13377
▁Similar	-13378
▁adenoid	-13379
▁flowing	-13380
▁sucking	-13381
▁thirsty	-13382
▁tubular	-13383
idespread	-13384
▁fillings	-13385
aresthesia	-13386
▁Sincerely	-13387
▁instances	-13388
▁unfortunate	-13389
▁Nephrologist	-13390
▁moisturizing	-13391
tyl	-13392
ylo	-13393
yph	-13394
INES	-13395
OUGH	-13396
RIES	-13397
RINE	-13398
gged	-13399
main	-13400
▁115	-13401
▁DEC	-13402
▁RBS	-13403
▁lum	-13404
▁mul	-13405
armed	-13406
echan	-13407
ocyst	-13408
▁demo	-13409
▁furn	-13410
▁COUNT	-13411
▁defec	-13412
▁Mental	-13413
▁lactic	-13414
▁morbid	-13415
▁parotid	-13416
▁Erectile	-13417
▁Migraine	-13418
▁cultures	-13419
▁moreover	-13420
▁releasing	-13421
▁Autoimmune	-13422
▁Angiography	-13423
▁acupuncture	-13424
▁ChatDoctorRead	-13425
ua	-13426
Rec	-13427
aled	-13428
clav	-13429
comp	-13430
dler	-13431
ests	-13432
icol	-13433
poly	-13434
▁ALS	-13435
▁Bot	-13436
▁LMP	-13437
rogenic	-13438
▁Narrow	-13439
▁recess	-13440
▁vitals	-13441
▁erythem	-13442
▁fitting	-13443
▁describes	-13444
▁ovulatory	-13445
▁respiration	-13446
▁misunderstand	-13447
▁histopathology	-13448
▁uncontrollable	-13449
RT	-13450
▁Tb	-13451
leve	-13452
rage	-13453
▁0.1	-13454
▁INS	-13455
▁orn	-13456
▁SAID	-13457
▁plex	-13458
▁tape	-13459
ugated	-13460
▁adnex	-13461
▁surge	-13462
rations	-13463
▁offers	-13464
position	-13465
requency	-13466
rofurant	-13467
▁erupted	-13468
▁teenage	-13469
▁Naproxen	-13470
▁dropping	-13471
▁glaucoma	-13472
▁sequence	-13473
..........	-13474
▁internally	-13475
▁paraplegia	-13476
▁streamline	-13477
▁transferred	-13478
▁Fibromyalgia	-13479
▁occupational	-13480
27	-13481
LS	-13482
uf	-13483
yo	-13484
OPE	-13485
ief	-13486
▁GT	-13487
aque	-13488
eval	-13489
vera	-13490
zole	-13491
▁20,	-13492
▁Dar	-13493
antar	-13494
ffuse	-13495
lemon	-13496
▁LONG	-13497
rombin	-13498
butamol	-13499
▁caring	-13500
▁exists	-13501
▁experi	-13502
▁spikes	-13503
anything	-13504
▁Fatigue	-13505
▁Hormone	-13506
▁breathes	-13507
▁draining	-13508
▁retained	-13509
▁Cirrhosis	-13510
▁irrespective	-13511
GFR	-13512
vin	-13513
▁oh	-13514
apro	-13515
ceal	-13516
olon	-13517
yrid	-13518
▁1.8	-13519
▁Hol	-13520
▁MCV	-13521
lebsi	-13522
ortil	-13523
▁Boil	-13524
▁Cran	-13525
▁Leuk	-13526
inegar	-13527
oracic	-13528
▁comic	-13529
▁molds	-13530
▁Growth	-13531
▁engine	-13532
▁linear	-13533
▁Despite	-13534
▁acceler	-13535
Otherwise	-13536
▁Dialysis	-13537
▁benadryl	-13538
▁retainer	-13539
▁abilities	-13540
▁displaced	-13541
▁Intestinal	-13542
▁adolescent	-13543
▁importantly	-13544
▁arthroscopic	-13545
▁adenocarcinoma	-13546
▁susceptibility	-13547
UAL	-13548
▁DU	-13549
ilty	-13550
▁Pha	-13551
▁hub	-13552
▁seg	-13553
▁5000	-13554
▁Name	-13555
▁soar	-13556
imosis	-13557
▁thous	-13558
▁trick	-13559
lectomy	-13560
ransfer	-13561
▁coating	-13562
▁retired	-13563
▁Minoxidil	-13564
▁dyspepsia	-13565
▁widespread	-13566
▁bilaterally	-13567
▁periodontitis	-13568
00.	-13569
fine	-13570
opin	-13571
tify	-13572
wish	-13573
▁TWO	-13574
phone	-13575
uspid	-13576
▁ugly	-13577
phyria	-13578
▁harsh	-13579
▁shrin	-13580
▁slide	-13581
UESTION	-13582
thyosis	-13583
ensities	-13584
▁SURGERY	-13585
▁doubled	-13586
▁hospice	-13587
▁fibroids	-13588
▁Nutrition	-13589
▁flatulence	-13590
▁problematic	-13591
ipur	-13592
musc	-13593
zepam	-13594
▁Rule	-13595
▁Uter	-13596
▁myth	-13597
iation	-13598
niotic	-13599
▁inapp	-13600
▁wives	-13601
▁Center	-13602
▁almond	-13603
▁mirena	-13604
omalacia	-13605
▁anatomy	-13606
▁deposit	-13607
▁journey	-13608
▁slurred	-13609
ocellular	-13610
▁ailments	-13611
▁deranged	-13612
▁forearms	-13613
▁opinions	-13614
▁thankyou	-13615
▁toxicity	-13616
▁Prolactin	-13617
▁Clindamycin	-13618
▁levofloxacin	-13619
▁restrictions	-13620
▁Approximately	-13621
oned	-13622
rash	-13623
balta	-13624
issed	-13625
▁doll	-13626
▁sack	-13627
▁Diffe	-13628
▁Omega	-13629
▁SERUM	-13630
▁squat	-13631
kinesia	-13632
osphate	-13633
▁costly	-13634
▁former	-13635
▁papaya	-13636
▁brushed	-13637
▁malaise	-13638
▁measles	-13639
iferative	-13640
▁biopsies	-13641
▁overdose	-13642
▁lightening	-13643
▁masturbated	-13644
▁professionals	-13645
AKE	-13646
ISH	-13647
sing	-13648
petic	-13649
▁BODY	-13650
▁HOSP	-13651
▁Hemo	-13652
▁TELL	-13653
▁scat	-13654
▁task	-13655
entery	-13656
ropion	-13657
▁2010,	-13658
▁Fluid	-13659
▁fibro	-13660
▁spring	-13661
ternally	-13662
▁alarmed	-13663
▁exiting	-13664
ontrolled	-13665
▁immature	-13666
▁Newsprint	-13667
▁excercise	-13668
▁represent	-13669
rofurantoin	-13670
Dr	-13671
muc	-13672
oms	-13673
inor	-13674
ysms	-13675
▁TES	-13676
▁Risk	-13677
▁foam	-13678
▁gurg	-13679
▁Water	-13680
▁diary	-13681
▁custom	-13682
▁insult	-13683
▁Vertigo	-13684
▁distant	-13685
▁oxalate	-13686
▁somatic	-13687
Sometimes	-13688
▁Possibly	-13689
▁dermatof	-13690
▁flexible	-13691
▁molecule	-13692
▁reacting	-13693
▁supplies	-13694
▁Exercises	-13695
▁assistant	-13696
▁candidate	-13697
▁oxycodone	-13698
▁Consulting	-13699
▁conclusive	-13700
▁antipsychotic	-13701
▁Musculoskeletal	-13702
)3.	-13703
CAD	-13704
mod	-13705
▁89	-13706
▁MI	-13707
▁LOT	-13708
▁pray	-13709
erobic	-13710
etasol	-13711
iltrum	-13712
rhythm	-13713
▁feces	-13714
▁trend	-13715
▁twins	-13716
▁ALLERGY	-13717
▁bottles	-13718
▁destroy	-13719
bacterial	-13720
▁blindness	-13721
▁interferes	-13722
▁endodontist	-13723
▁independent	-13724
▁liquefaction	-13725
BE	-13726
pol	-13727
▁vs	-13728
ipes	-13729
▁Sam	-13730
▁fee	-13731
again	-13732
▁MANY	-13733
liness	-13734
rontal	-13735
▁NEVER	-13736
▁fluor	-13737
▁imper	-13738
▁shell	-13739
ectasia	-13740
asmodics	-13741
▁ventral	-13742
lebsiella	-13743
▁Cataract	-13744
▁episodic	-13745
▁habitual	-13746
▁instance	-13747
▁reliever	-13748
▁Fallopian	-13749
▁prolapsed	-13750
ptorchidism	-13751
▁administer	-13752
▁laproscopy	-13753
▁echotexture	-13754
▁paracentral	-13755
ocolchicoside	-13756
osalpingography	-13757
24	-13758
ERC	-13759
mil	-13760
▁TC	-13761
Last	-13762
Pain	-13763
erin	-13764
▁18.	-13765
▁75%	-13766
▁Ash	-13767
▁bye	-13768
▁ger	-13769
atoma	-13770
diliv	-13771
oming	-13772
resis	-13773
▁2000	-13774
▁PATI	-13775
▁Shes	-13776
▁elab	-13777
uroxim	-13778
▁Dengue	-13779
▁SEVERE	-13780
▁crisis	-13781
▁mashed	-13782
▁pepper	-13783
▁sludge	-13784
▁Painful	-13785
▁advises	-13786
▁coupled	-13787
▁isolate	-13788
▁pockets	-13789
▁actively	-13790
▁releases	-13791
mandibular	-13792
▁curettage	-13793
▁identifying	-13794
(1	-13795
ipl	-13796
mel	-13797
Most	-13798
▁60.	-13799
▁cro	-13800
adesh	-13801
▁MILK	-13802
phagia	-13803
rative	-13804
▁kerat	-13805
▁ridge	-13806
between	-13807
enteric	-13808
▁pharyn	-13809
▁shared	-13810
▁traits	-13811
rabismus	-13812
uccessful	-13813
▁Coughing	-13814
▁catching	-13815
▁welcomed	-13816
▁Prominent	-13817
▁neutrophils	-13818
▁radiographs	-13819
Be	-13820
MD	-13821
▁LS	-13822
From	-13823
iers	-13824
▁SEE	-13825
▁gau	-13826
hange	-13827
ureus	-13828
▁GIVE	-13829
▁TOLD	-13830
▁pepp	-13831
around	-13832
▁embar	-13833
▁fecal	-13834
▁horri	-13835
ocytoma	-13836
▁letter	-13837
▁almonds	-13838
▁clicking	-13839
▁protects	-13840
▁synthetic	-13841
rophysician	-13842
▁substitute	-13843
▁Hepatomegaly	-13844
▁malabsorption	-13845
Tb	-13846
Non	-13847
nat	-13848
chen	-13849
feet	-13850
okal	-13851
▁LEG	-13852
▁pep	-13853
asmin	-13854
▁bcoz	-13855
▁grab	-13856
▁wears	-13857
▁wrote	-13858
ticemia	-13859
▁centim	-13860
▁guarant	-13861
▁plaques	-13862
▁impulses	-13863
▁nicotine	-13864
autoimmune	-13865
▁Sinusitis	-13866
.--	-13867
aur	-13868
icus	-13869
zyme	-13870
▁325	-13871
▁cab	-13872
▁mot	-13873
▁Milk	-13874
▁duty	-13875
▁quer	-13876
▁Exact	-13877
▁Forte	-13878
▁Think	-13879
▁blast	-13880
▁clues	-13881
▁cried	-13882
▁salad	-13883
osamine	-13884
yphosis	-13885
▁Throat	-13886
▁author	-13887
▁freely	-13888
▁Bipolar	-13889
▁behaves	-13890
▁disrupt	-13891
▁extends	-13892
▁flushed	-13893
▁knocked	-13894
▁metacar	-13895
▁strains	-13896
according	-13897
amazepine	-13898
▁abrasion	-13899
▁explains	-13900
▁perianal	-13901
▁eradicate	-13902
▁household	-13903
▁Bronchoscopy	-13904
▁disappointed	-13905
did	-13906
▁LA	-13907
▁ah	-13908
agon	-13909
disc	-13910
▁Bed	-13911
▁McC	-13912
▁THR	-13913
▁piz	-13914
▁ren	-13915
▁boss	-13916
▁flag	-13917
▁tilt	-13918
osprin	-13919
▁SSRIs	-13920
killers	-13921
omastia	-13922
▁Others	-13923
▁Remedy	-13924
▁dilute	-13925
▁govern	-13926
▁treats	-13927
▁atresia	-13928
▁chloride	-13929
▁implanon	-13930
▁Shortness	-13931
▁listening	-13932
▁Neuropathy	-13933
▁syndactyly	-13934
▁transverse	-13935
▁instruction	-13936
▁Obstetrician	-13937
▁premenstrual	-13938
ITT	-13939
▁Ev	-13940
ropl	-13941
went	-13942
▁Ach	-13943
▁Eye	-13944
etera	-13945
twice	-13946
Normal	-13947
ampsia	-13948
ffects	-13949
▁chain	-13950
▁kilos	-13951
lebitis	-13952
uroxime	-13953
▁Plenty	-13954
▁amoxic	-13955
angement	-13956
retinoin	-13957
▁Natural	-13958
▁compuls	-13959
▁Avoiding	-13960
▁comorbid	-13961
▁curative	-13962
▁mistaken	-13963
▁realised	-13964
▁glandular	-13965
▁recognize	-13966
▁contracting	-13967
▁contracture	-13968
▁perforation	-13969
▁anticoagulant	-13970
▁sucChatDoctor	-13971
7)	-13972
inj	-13973
ref	-13974
▁MB	-13975
eopl	-13976
happ	-13977
ives	-13978
▁NON	-13979
▁bio	-13980
lemma	-13981
roxin	-13982
ymmet	-13983
▁BOTH	-13984
▁Card	-13985
▁DOWN	-13986
▁Down	-13987
▁bits	-13988
▁cook	-13989
▁dorm	-13990
▁Brown	-13991
▁divor	-13992
▁eased	-13993
▁knots	-13994
▁uvula	-13995
▁CANCER	-13996
▁Single	-13997
▁scanty	-13998
▁whatso	-13999
balanced	-14000
▁alittle	-14001
▁ideally	-14002
▁Coumadin	-14003
▁accepted	-14004
▁outburst	-14005
▁augmentin	-14006
▁congenita	-14007
▁conjunctiv	-14008
SS	-14009
xx	-14010
ISA	-14011
LDL	-14012
UMB	-14013
VED	-14014
▁AI	-14015
▁CC	-14016
▁hx	-14017
ynov	-14018
▁6.5	-14019
▁Fem	-14020
▁URI	-14021
itant	-14022
orial	-14023
stage	-14024
unting	-14025
▁truth	-14026
rologic	-14027
▁clitor	-14028
▁silver	-14029
▁syrups	-14030
aphyseal	-14031
▁regress	-14032
▁version	-14033
▁discover	-14034
▁bacterium	-14035
▁eliminated	-14036
▁Gallbladder	-14037
▁Psychological	-14038
▁comprehensive	-14039
▁interventions	-14040
▁pyelonephritis	-14041
oh	-14042
OWA	-14043
▁ht	-14044
abis	-14045
aden	-14046
▁---	-14047
▁Cit	-14048
▁FIND	-14049
▁Pass	-14050
▁SHOW	-14051
▁dele	-14052
▁fash	-14053
▁therm	-14054
▁Stones	-14055
▁Volume	-14056
▁credit	-14057
▁lifted	-14058
▁maxilla	-14059
▁nodular	-14060
▁distingu	-14061
▁division	-14062
▁thankful	-14063
▁deviation	-14064
▁searching	-14065
▁tubercular	-14066
//	-14067
ns	-14068
lut	-14069
▁Iv	-14070
sian	-14071
vide	-14072
▁(2)	-14073
▁CEA	-14074
eling	-14075
serum	-14076
▁CLIN	-14077
▁DONT	-14078
▁cups	-14079
▁herb	-14080
olkata	-14081
vation	-14082
▁THING	-14083
▁sizes	-14084
ropenia	-14085
▁ANSWER	-14086
▁dorsal	-14087
▁rolled	-14088
pressure	-14089
▁Platelet	-14090
▁crystals	-14091
▁donation	-14092
responsive	-14093
▁Gradually	-14094
▁seborrhea	-14095
▁statement	-14096
▁vasectomy	-14097
omandibular	-14098
▁fluctuation	-14099
▁hepatologist	-14100
▁laboratories	-14101
▁streptococcal	-14102
.!!	-14103
ycin	-14104
▁25,	-14105
▁28.	-14106
▁AAA	-14107
▁Air	-14108
▁Gra	-14109
▁gun	-14110
atozo	-14111
essed	-14112
pleas	-14113
▁1500	-14114
▁Arth	-14115
▁kick	-14116
▁vegg	-14117
▁ABDOM	-14118
▁Among	-14119
▁manic	-14120
lasting	-14121
▁Lipoma	-14122
▁belief	-14123
▁compet	-14124
▁folate	-14125
▁sponge	-14126
▁phalanx	-14127
keratosis	-14128
siologist	-14129
▁enhanced	-14130
▁footwear	-14131
▁cleansing	-14132
▁pleuritic	-14133
▁operations	-14134
▁properties	-14135
▁conversation	-14136
▁restlessness	-14137
CoA	-14138
▁gy	-14139
▁175	-14140
▁Bad	-14141
▁Dig	-14142
▁Mid	-14143
grade	-14144
rapez	-14145
rinth	-14146
yrtec	-14147
▁2006	-14148
▁Carb	-14149
▁Five	-14150
▁page	-14151
▁rain	-14152
chance	-14153
female	-14154
▁Laser	-14155
▁WORRY	-14156
▁heels	-14157
feeling	-14158
▁lowest	-14159
▁sacrum	-14160
ocolitis	-14161
▁fragile	-14162
▁repeats	-14163
▁demonstr	-14164
▁particip	-14165
▁priority	-14166
▁financial	-14167
▁succeeded	-14168
▁correlated	-14169
▁forgetting	-14170
▁polycythemia	-14171
▁bronchiectasis	-14172
ept	-14173
lie	-14174
▁PO	-14175
odys	-14176
psin	-14177
urts	-14178
▁1.7	-14179
▁vel	-14180
aware	-14181
oppin	-14182
plish	-14183
water	-14184
▁SKIN	-14185
having	-14186
posure	-14187
umping	-14188
▁bound	-14189
▁goals	-14190
▁modern	-14191
▁plexus	-14192
▁unsafe	-14193
▁Implant	-14194
▁ganglia	-14195
▁thicker	-14196
▁upwards	-14197
jaculation	-14198
ransferase	-14199
▁diarrhoea	-14200
▁unaffected	-14201
▁whatsoever	-14202
▁arthropathy	-14203
▁interfering	-14204
▁Hypertelorism	-14205
▁Strengthening	-14206
zid	-14207
▁RO	-14208
Best	-14209
ENCE	-14210
echo	-14211
▁Bul	-14212
▁Ket	-14213
heads	-14214
▁Mill	-14215
▁Urea	-14216
▁crut	-14217
▁dand	-14218
riasis	-14219
▁Hypog	-14220
▁NINDS	-14221
▁Virus	-14222
▁escap	-14223
▁inten	-14224
▁Wilson	-14225
▁behave	-14226
▁coping	-14227
▁rubber	-14228
existing	-14229
uffering	-14230
▁Changes	-14231
▁dilemma	-14232
yesterday	-14233
▁advising	-14234
▁crawling	-14235
▁excreted	-14236
▁switching	-14237
▁Morphology	-14238
▁directions	-14239
▁Generalized	-14240
▁encephalitis	-14241
▁inconclusive	-14242
▁antispasmodics	-14243
,-	-14244
22	-14245
lb	-14246
bar	-14247
run	-14248
wat	-14249
▁UL	-14250
sugg	-14251
▁FBS	-14252
▁YRS	-14253
▁tie	-14254
madam	-14255
▁EVEN	-14256
▁2011,	-14257
▁Birth	-14258
▁opine	-14259
▁taught	-14260
▁victim	-14261
▁Imaging	-14262
▁entered	-14263
▁myeloid	-14264
▁replied	-14265
ifampicin	-14266
▁floating	-14267
▁guideline	-14268
▁pregnency	-14269
▁saturated	-14270
▁fingernails	-14271
▁hyperventil	-14272
▁malfunction	-14273
olecystectomy	-14274
▁concentrating	-14275
FS	-14276
why	-14277
▁fan	-14278
morph	-14279
oxine	-14280
yster	-14281
▁naus	-14282
▁bulky	-14283
▁equip	-14284
▁legal	-14285
ostasis	-14286
▁flying	-14287
▁clinics	-14288
▁margins	-14289
▁slowing	-14290
▁HOSPITAL	-14291
▁tubercul	-14292
▁confusing	-14293
▁antiemetic	-14294
▁Intrauterine	-14295
▁conventional	-14296
▁malnutrition	-14297
▁differentiated	-14298
Am	-14299
Inf	-14300
▁CNS	-14301
▁msg	-14302
obics	-14303
flower	-14304
ighter	-14305
▁spoke	-14306
▁valid	-14307
▁Hellos	-14308
▁bulges	-14309
iscosity	-14310
▁pointed	-14311
▁reoccur	-14312
▁shocked	-14313
▁updated	-14314
▁Repeated	-14315
▁fissures	-14316
▁inherits	-14317
▁postpone	-14318
▁reflexes	-14319
▁benefited	-14320
▁cranberry	-14321
▁exhaustion	-14322
▁embarrassed	-14323
▁Pulmonologist	-14324
Par	-14325
pus	-14326
vit	-14327
home	-14328
iser	-14329
reck	-14330
▁CABG	-14331
▁DIFF	-14332
▁perc	-14333
stones	-14334
ycline	-14335
▁Motor	-14336
▁Paras	-14337
▁facil	-14338
▁havnt	-14339
olution	-14340
▁trache	-14341
▁washes	-14342
▁crossed	-14343
▁outdoor	-14344
▁massages	-14345
▁palpable	-14346
▁precisely	-14347
▁Lisinopril	-14348
▁amenorrhea	-14349
TB	-14350
stom	-14351
thin	-14352
tiff	-14353
▁750	-14354
▁CSI	-14355
▁Cho	-14356
▁fir	-14357
itian	-14358
▁Cycl	-14359
▁WENT	-14360
▁Work	-14361
▁awak	-14362
▁Exper	-14363
▁Scrot	-14364
▁tepid	-14365
causing	-14366
▁clammy	-14367
▁incomp	-14368
▁viscos	-14369
▁warmth	-14370
▁arrived	-14371
▁asymmet	-14372
▁fashion	-14373
▁toddler	-14374
cortisone	-14375
decreased	-14376
othrombin	-14377
▁Findings	-14378
▁connects	-14379
▁initiate	-14380
▁dimension	-14381
▁gonorrhea	-14382
▁institute	-14383
▁resonance	-14384
▁haemoglobin	-14385
▁proliferation	-14386
▁dermatofibroma	-14387
(2)	-14388
ALE	-14389
OLD	-14390
bre	-14391
egg	-14392
war	-14393
▁5)	-14394
ians	-14395
▁ABC	-14396
▁doe	-14397
▁mer	-14398
▁ond	-14399
▁pec	-14400
mense	-14401
ronin	-14402
▁Lith	-14403
▁Note	-14404
▁euro	-14405
▁fifth	-14406
symptom	-14407
▁Motile	-14408
▁Mumbai	-14409
▁gynaec	-14410
▁lovely	-14411
▁capable	-14412
▁inquiry	-14413
▁scaring	-14414
▁science	-14415
▁sunburn	-14416
▁wherein	-14417
▁Reviewed	-14418
▁confined	-14419
▁dopamine	-14420
▁ultrason	-14421
▁occassion	-14422
▁reinfection	-14423
HY	-14424
THE	-14425
typ	-14426
▁6-	-14427
▁il	-14428
▁650	-14429
▁Est	-14430
▁FDA	-14431
▁Clon	-14432
▁jobs	-14433
▁bursa	-14434
▁phlem	-14435
▁spill	-14436
▁jumped	-14437
▁solves	-14438
▁Waiting	-14439
▁biochem	-14440
▁classes	-14441
▁foramen	-14442
▁abruptly	-14443
TY	-14444
GAN	-14445
oos	-14446
▁Tom	-14447
▁bid	-14448
▁bup	-14449
apped	-14450
ogerm	-14451
▁LOWER	-14452
▁SLEEP	-14453
▁entry	-14454
▁shirt	-14455
▁soothe	-14456
▁dosages	-14457
▁heparin	-14458
▁mastoid	-14459
▁popular	-14460
▁designed	-14461
▁dilation	-14462
▁recurred	-14463
▁abscesses	-14464
▁stockings	-14465
montelukast	-14466
▁ingredient	-14467
▁inflamation	-14468
▁stabilizing	-14469
▁Brachydactyly	-14470
dear	-14471
hard	-14472
lung	-14473
oily	-14474
loxac	-14475
phosp	-14476
▁flut	-14477
▁PRESS	-14478
▁fascia	-14479
▁runner	-14480
asthenia	-14481
▁Arrhyth	-14482
▁crucial	-14483
▁reviews	-14484
▁toenail	-14485
▁duodenum	-14486
▁spelling	-14487
▁Malignant	-14488
▁advantage	-14489
▁internist	-14490
▁Amlodipine	-14491
▁epigastric	-14492
▁nourishing	-14493
▁perception	-14494
▁stabilizer	-14495
JD	-14496
)..	-14497
-19	-14498
.5-	-14499
His	-14500
Pls	-14501
emp	-14502
late	-14503
ofib	-14504
roil	-14505
vuls	-14506
▁kel	-14507
▁syp	-14508
▁goin	-14509
olysis	-14510
▁FEVER	-14511
▁exert	-14512
▁lucky	-14513
molysis	-14514
ophobia	-14515
routine	-14516
theless	-14517
▁claims	-14518
▁compar	-14519
▁crowns	-14520
▁traces	-14521
▁viable	-14522
▁Results	-14523
▁crushed	-14524
▁kitchen	-14525
▁anorexia	-14526
▁attempts	-14527
▁survivor	-14528
▁tinnitus	-14529
▁Prolonged	-14530
▁pronounced	-14531
pi	-14532
DAY	-14533
nam	-14534
▁94	-14535
▁GB	-14536
▁cc	-14537
OTAL	-14538
▁Nic	-14539
▁ace	-14540
artum	-14541
sleep	-14542
▁Coll	-14543
▁Spir	-14544
▁buck	-14545
▁mths	-14546
ocrine	-14547
smoker	-14548
▁COUGH	-14549
▁GOING	-14550
▁Optic	-14551
▁aside	-14552
▁bodys	-14553
▁media	-14554
▁paral	-14555
▁tonic	-14556
mphaden	-14557
rolimus	-14558
▁Giving	-14559
▁Hoping	-14560
▁lights	-14561
nacortil	-14562
▁Fasting	-14563
▁Gastric	-14564
▁Vaginal	-14565
▁mediast	-14566
▁opacity	-14567
oalveolar	-14568
▁Contrast	-14569
▁Epilepsy	-14570
▁sedative	-14571
▁accidental	-14572
▁childbirth	-14573
▁nervousness	-14574
▁restoration	-14575
▁echogenicity	-14576
▁periodontist	-14577
▁amitriptyline	-14578
▁reconstruction	-14579
PO	-14580
▁-3	-14581
▁.5	-14582
▁OS	-14583
▁XL	-14584
With	-14585
deep	-14586
itin	-14587
oxin	-14588
phan	-14589
▁19.	-14590
▁NEG	-14591
▁Pet	-14592
▁RNA	-14593
▁USA	-14594
cemia	-14595
teral	-14596
▁IOWA	-14597
▁Requ	-14598
▁remn	-14599
▁thym	-14600
▁visa	-14601
▁poking	-14602
osarcoma	-14603
▁endings	-14604
▁immense	-14605
lanzapine	-14606
▁Juvenile	-14607
▁delusion	-14608
▁entering	-14609
▁philtrum	-14610
▁effecting	-14611
▁externally	-14612
▁deformities	-14613
▁determining	-14614
▁specializes	-14615
▁additionally	-14616
oproliferative	-14617
7-	-14618
INS	-14619
▁Rt	-14620
▁21.	-14621
▁ALP	-14622
▁Flor	-14623
▁NEUR	-14624
▁buds	-14625
▁cath	-14626
▁plug	-14627
TILITY	-14628
▁10-14	-14629
▁bicep	-14630
▁fault	-14631
▁incor	-14632
itative	-14633
otropic	-14634
▁REPORT	-14635
▁barium	-14636
▁walker	-14637
▁anticip	-14638
▁corners	-14639
▁sadness	-14640
▁spasmodic	-14641
▁surprised	-14642
▁viscosity	-14643
▁incredibly	-14644
▁Information	-14645
▁stabilizers	-14646
▁disabilities	-14647
▁dexamethasone	-14648
PC	-14649
rey	-14650
▁UA	-14651
...?	-14652
OMET	-14653
▁Chi	-14654
▁Liv	-14655
▁Raj	-14656
▁dur	-14657
▁liv	-14658
CTION	-14659
▁Call	-14660
▁Clar	-14661
▁Flex	-14662
▁Olig	-14663
▁apex	-14664
▁lute	-14665
▁antit	-14666
▁movie	-14667
achment	-14668
fasting	-14669
ingling	-14670
▁manual	-14671
reactive	-14672
▁choices	-14673
▁craving	-14674
▁plaster	-14675
▁asthalin	-14676
▁disrupts	-14677
▁midnight	-14678
opharyngeal	-14679
▁Difficulty	-14680
▁distinguish	-14681
▁posteriorly	-14682
ratiopeptidase	-14683
▁immobilization	-14684
▁Po	-14685
▁Ye	-14686
rian	-14687
▁ACE	-14688
erved	-14689
ocity	-14690
▁2005	-14691
▁cock	-14692
▁moth	-14693
course	-14694
▁Shall	-14695
▁Thick	-14696
▁cipro	-14697
▁grams	-14698
▁loved	-14699
▁slows	-14700
▁tidal	-14701
berries	-14702
▁bumped	-14703
▁burden	-14704
▁Glucose	-14705
▁TABLETS	-14706
▁chennai	-14707
▁hiccups	-14708
▁metabol	-14709
▁vinegar	-14710
ointments	-14711
▁deficits	-14712
▁eyebrows	-14713
▁glycogen	-14714
▁mainstay	-14715
▁MEDICINES	-14716
▁supported	-14717
alpitations	-14718
▁colorectal	-14719
▁obstructed	-14720
▁Appendicitis	-14721
▁gynecological	-14722
▁inappropriate	-14723
chi	-14724
rix	-14725
▁ty	-14726
ader	-14727
▁Cef	-14728
▁MAR	-14729
▁VIR	-14730
acort	-14731
essor	-14732
▁0,3,	-14733
▁cats	-14734
▁pine	-14735
▁Found	-14736
▁flaky	-14737
▁apical	-14738
▁bifida	-14739
▁hollow	-14740
▁cereals	-14741
▁overuse	-14742
▁squishy	-14743
▁focusing	-14744
▁secreted	-14745
menopausal	-14746
▁behaviors	-14747
▁Definitive	-14748
▁discectomy	-14749
▁dislocated	-14750
▁propranolol	-14751
▁Multivitamin	-14752
▁interstitial	-14753
▁differentiation	-14754
18	-14755
LFT	-14756
▁ML	-14757
▁30,	-14758
▁eve	-14759
icine	-14760
lepsy	-14761
▁Year	-14762
▁vapor	-14763
▁xanax	-14764
▁poster	-14765
▁Electro	-14766
▁biotics	-14767
▁veggies	-14768
▁Everyone	-14769
▁adhesion	-14770
▁neighbor	-14771
▁neonatal	-14772
▁spending	-14773
▁Nystagmus	-14774
▁imperfect	-14775
▁augmenting	-14776
▁introduced	-14777
▁conditioner	-14778
▁insufficient	-14779
hs	-14780
kar	-14781
rid	-14782
tiz	-14783
▁Pi	-14784
arts	-14785
imet	-14786
inds	-14787
llin	-14788
olen	-14789
▁FEW	-14790
brain	-14791
mares	-14792
▁Caps	-14793
▁SEEM	-14794
▁SEEN	-14795
▁bean	-14796
pected	-14797
taking	-14798
▁Given	-14799
▁awoke	-14800
▁mnths	-14801
▁toxin	-14802
▁Cannot	-14803
▁cement	-14804
▁dander	-14805
▁ending	-14806
▁excite	-14807
▁pennis	-14808
▁Perhaps	-14809
▁dormant	-14810
▁suffice	-14811
▁tanning	-14812
▁emptying	-14813
▁distention	-14814
▁tendinitis	-14815
▁fibroadenoma	-14816
▁triamcinolone	-14817
▁MC	-14818
▁RT	-14819
keep	-14820
myel	-14821
[...]
