<pad>	0
<unk>	0
<bos>	0
<eos>	0
<user>	0
<assistant>	0
▁a	-0
▁t	-1
in	-2
he	-3
on	-4
▁s	-5
re	-6
ou	-7
er	-8
▁c	-9
is	-10
or	-11
ha	-12
▁w	-13
▁b	-14
▁an	-15
▁m	-16
▁f	-17
▁the	-18
it	-19
▁d	-20
▁p	-21
en	-22
ti	-23
ing	-24
es	-25
▁I	-26
ed	-27
▁to	-28
▁and	-29
▁y	-30
▁o	-31
al	-32
▁you	-33
an	-34
▁in	-35
▁ha	-36
le	-37
▁n	-38
ve	-39
om	-40
▁of	-41
ar	-42
as	-43
at	-44
ll	-45
▁l	-46
▁is	-47
ic	-48
tion	-49
▁be	-50
▁g	-51
us	-52
hat	-53
ot	-54
▁re	-55
▁he	-56
ct	-57
ly	-58
▁e	-59
▁for	-60
▁i	-61
ro	-62
ay	-63
▁T	-64
▁th	-65
ld	-66
▁your	-67
▁have	-68
ent	-69
▁it	-70
ow	-71
▁H	-72
et	-73
id	-74
os	-75
▁h	-76
ur	-77
▁on	-78
▁my	-79
ul	-80
gh	-81
ain	-82
od	-83
ke	-84
▁con	-85
ver	-86
▁can	-87
ation	-88
ac	-89
ith	-90
▁C	-91
▁with	-92
▁D	-93
▁st	-94
ut	-95
▁A	-96
ould	-97
ctor	-98
▁or	-99
st	-100
..	-101
qu	-102
octor	-103
op	-104
ee	-105
mp	-106
▁that	-107
▁are	-108
un	-109
th	-110
▁as	-111
ec	-112
her	-113
ter	-114
▁li	-115
▁S	-116
▁r	-117
▁this	-118
▁not	-119
am	-120
ill	-121
ol	-122
est	-123
ome	-124
igh	-125
ood	-126
ble	-127
▁su	-128
out	-129
▁pain	-130
ell	-131
ad	-132
▁al	-133
han	-134
▁qu	-135
▁pro	-136
ce	-137
▁ne	-138
▁"	-139
ist	-140
ir	-141
ion	-142
▁ca	-143
res	-144
ch	-145
▁ta	-146
▁M	-147
ment	-148
ase	-149
▁me	-150
reat	-151
▁ex	-152
ight	-153
se	-154
▁do	-155
pp	-156
im	-157
▁wh	-158
▁W	-159
▁di	-160
▁Doctor	-161
use	-162
▁ab	-163
▁sh	-164
▁Chat	-165
ks	-166
gn	-167
ge	-168
il	-169
one	-170
▁fr	-171
ine	-172
▁will	-173
▁le	-174
▁k	-175
lp	-176
ear	-177
der	-178
▁The	-179
▁but	-180
▁help	-181
▁was	-182
ther	-183
um	-184
▁get	-185
▁2	-186
▁1	-187
so	-188
▁if	-189
ast	-190
ess	-191
▁un	-192
▁am	-193
tic	-194
orm	-195
nd	-196
▁P	-197
ult	-198
▁inf	-199
ore	-200
▁sy	-201
▁day	-202
▁like	-203
▁(	-204
▁any	-205
ff	-206
ri	-207
▁has	-208
art	-209
▁bl	-210
▁had	-211
▁v	-212
ery	-213
ure	-214
▁B	-215
▁at	-216
▁Y	-217
▁dis	-218
ate	-219
ue	-220
▁sp	-221
▁may	-222
very	-223
▁treat	-224
ough	-225
ally	-226
▁from	-227
▁com	-228
tom	-229
cer	-230
▁we	-231
ant	-232
▁Hi	-233
▁need	-234
▁se	-235
▁should	-236
▁You	-237
▁also	-238
mptom	-239
▁wor	-240
up	-241
ope	-242
and	-243
▁fe	-244
og	-245
ra	-246
▁de	-247
ack	-248
hen	-249
▁per	-250
king	-251
▁some	-252
▁symptom	-253
ich	-254
edic	-255
fter	-256
▁so	-257
ry	-258
ress	-259
▁all	-260
▁there	-261
▁ad	-262
▁been	-263
▁doctor	-264
▁If	-265
ect	-266
ection	-267
▁would	-268
▁pre	-269
▁query	-270
▁which	-271
▁by	-272
sult	-273
hanks	-274
▁j	-275
▁It	-276
▁tim	-277
ab	-278
▁under	-279
▁year	-280
▁F	-281
▁no	-282
ide	-283
ated	-284
▁blood	-285
hy	-286
red	-287
all	-288
▁test	-289
▁medic	-290
ost	-291
▁kn	-292
▁take	-293
eel	-294
ia	-295
end	-296
▁-	-297
▁out	-298
▁then	-299
▁after	-300
gg	-301
▁ac	-302
▁3	-303
ust	-304
▁treatment	-305
blem	-306
ound	-307
nt	-308
▁about	-309
▁problem	-310
▁us	-311
ving	-312
ity	-313
▁go	-314
▁symptoms	-315
▁che	-316
ort	-317
▁feel	-318
ive	-319
estion	-320
per	-321
▁L	-322
▁mon	-323
cy	-324
▁cont	-325
▁Hope	-326
▁back	-327
ong	-328
sw	-329
ormal	-330
ep	-331
▁infection	-332
▁her	-333
ical	-334
▁answ	-335
▁G	-336
▁now	-337
▁days	-338
▁Hell	-339
lease	-340
▁ag	-341
▁heal	-342
▁E	-343
▁what	-344
▁Hello	-345
▁O	-346
▁N	-347
▁Thanks	-348
▁when	-349
▁up	-350
ition	-351
hing	-352
▁wee	-353
▁due	-354
▁know	-355
▁very	-356
urther	-357
si	-358
ake	-359
▁cause	-360
cern	-361
ati	-362
▁anti	-363
▁see	-364
▁concern	-365
oll	-366
ous	-367
▁more	-368
▁question	-369
▁month	-370
...	-371
oid	-372
▁she	-373
ies	-374
ard	-375
oc	-376
▁rel	-377
our	-378
▁rec	-379
ft	-380
▁sugg	-381
▁R	-382
lu	-383
▁5	-384
▁time	-385
▁further	-386
▁pos	-387
ven	-388
▁could	-389
▁ch	-390
▁cl	-391
▁health	-392
▁other	-393
ind	-394
el	-395
ise	-396
▁In	-397
▁done	-398
▁ar	-399
▁app	-400
amin	-401
▁inc	-402
vel	-403
▁start	-404
act	-405
ary	-406
▁comp	-407
▁adv	-408
olog	-409
▁good	-410
gnos	-411
ations	-412
▁having	-413
age	-414
▁sc	-415
▁My	-416
▁caus	-417
▁years	-418
▁si	-419
uc	-420
▁normal	-421
dition	-422
▁bec	-423
▁consult	-424
▁dia	-425
ail	-426
ause	-427
▁br	-428
▁sur	-429
ory	-430
▁4	-431
ice	-432
▁suggest	-433
▁one	-434
▁just	-435
ens	-436
▁old	-437
itis	-438
▁underst	-439
ting	-440
other	-441
if	-442
▁diagnos	-443
ite	-444
ne	-445
▁these	-446
ular	-447
ose	-448
▁low	-449
▁thr	-450
▁Th	-451
mo	-452
ap	-453
▁dise	-454
▁sw	-455
▁pregn	-456
▁tw	-457
▁.	-458
▁right	-459
oth	-460
▁So	-461
▁pl	-462
ful	-463
▁understand	-464
able	-465
▁they	-466
▁his	-467
ness	-468
mon	-469
▁man	-470
▁last	-471
io	-472
yp	-473
ie	-474
▁reg	-475
▁answer	-476
▁pres	-477
▁foll	-478
▁U	-479
▁over	-480
▁possi	-481
▁side	-482
▁condition	-483
ily	-484
▁bet	-485
ince	-486
ts	-487
ffect	-488
▁through	-489
em	-490
ump	-491
ame	-492
▁care	-493
▁months	-494
▁This	-495
▁rep	-496
te	-497
ial	-498
▁only	-499
▁heart	-500
tim	-501
▁happ	-502
tive	-503
ile	-504
dom	-505
ild	-506
void	-507
▁disc	-508
▁left	-509
▁imp	-510
▁ur	-511
erg	-512
▁sa	-513
ved	-514
▁peri	-515
ves	-516
▁don	-517
▁He	-518
day	-519
ink	-520
▁lo	-521
▁chan	-522
▁chest	-523
▁disease	-524
ning	-525
▁red	-526
▁da	-527
ually	-528
iotic	-529
▁than	-530
▁What	-531
▁im	-532
▁phy	-533
biotic	-534
come	-535
ater	-536
▁worry	-537
▁int	-538
▁its	-539
▁sti	-540
ach	-541
▁op	-542
irst	-543
ms	-544
).	-545
les	-546
▁follow	-547
▁period	-548
▁because	-549
usc	-550
cri	-551
▁use	-552
ici	-553
▁6	-554
▁does	-555
▁mo	-556
sist	-557
▁ago	-558
ancy	-559
00	-560
sy	-561
▁pr	-562
▁weeks	-563
ish	-564
▁en	-565
▁Take	-566
inal	-567
▁taking	-568
ody	-569
are	-570
ered	-571
ber	-572
cc	-573
▁surg	-574
rol	-575
fore	-576
▁kid	-577
iz	-578
▁still	-579
▁too	-580
▁cou	-581
way	-582
▁examin	-583
▁antibiotic	-584
hes	-585
▁Please	-586
kin	-587
▁gen	-588
atient	-589
sp	-590
▁week	-591
ag	-592
▁level	-593
....	-594
ree	-595
▁musc	-596
▁te	-597
▁every	-598
▁,	-599
▁how	-600
own	-601
ologist	-602
▁&	-603
uch	-604
▁high	-605
▁case	-606
▁got	-607
▁well	-608
▁head	-609
▁patient	-610
▁most	-611
▁det	-612
ction	-613
ak	-614
row	-615
▁abdom	-616
▁pregnancy	-617
▁fever	-618
▁u	-619
▁please	-620
▁body	-621
ating	-622
▁phys	-623
rap	-624
ance	-625
▁few	-626
▁two	-627
▁cancer	-628
▁since	-629
▁press	-630
▁co	-631
▁An	-632
▁sm	-633
erm	-634
▁As	-635
ig	-636
ung	-637
ace	-638
▁did	-639
▁first	-640
ases	-641
▁mg	-642
ious	-643
▁diff	-644
lf	-645
▁better	-646
▁cy	-647
ual	-648
ever	-649
▁tr	-650
▁such	-651
▁whe	-652
▁7	-653
val	-654
▁who	-655
▁suff	-656
ney	-657
▁food	-658
ud	-659
fe	-660
ond	-661
▁liver	-662
▁Al	-663
▁ear	-664
int	-665
▁area	-666
▁him	-667
▁again	-668
▁might	-669
▁sign	-670
▁gi	-671
ency	-672
▁before	-673
▁hist	-674
ray	-675
▁typ	-676
▁/	-677
ans	-678
▁occ	-679
ried	-680
▁started	-681
▁possible	-682
▁?	-683
lud	-684
ased	-685
eop	-686
▁even	-687
ip	-688
ken	-689
▁lower	-690
▁much	-691
▁inform	-692
▁pressure	-693
▁answered	-694
ass	-695
▁diagnosis	-696
▁down	-697
▁skin	-698
▁breat	-699
▁long	-700
▁But	-701
erc	-702
▁incre	-703
ron	-704
▁lump	-705
▁tests	-706
▁problems	-707
ck	-708
▁result	-709
▁times	-710
crib	-711
iting	-712
▁inj	-713
▁think	-714
▁surgery	-715
▁allerg	-716
ific	-717
itt	-718
▁advise	-719
▁dep	-720
▁kidney	-721
▁history	-722
▁10	-723
▁requ	-724
omet	-725
▁getting	-726
uring	-727
▁give	-728
▁ind	-729
▁went	-730
▁try	-731
rop	-732
ers	-733
ib	-734
ule	-735
ull	-736
▁nec	-737
osis	-738
ges	-739
ras	-740
▁wr	-741
elling	-742
▁hope	-743
▁causes	-744
▁acc	-745
ci	-746
eople	-747
▁common	-748
lam	-749
▁men	-750
ital	-751
thing	-752
▁many	-753
▁information	-754
▁min	-755
▁helps	-756
▁cough	-757
rent	-758
▁comple	-759
▁loo	-760
▁leg	-761
ently	-762
▁gone	-763
▁def	-764
times	-765
▁want	-766
▁examination	-767
ative	-768
RI	-769
▁relie	-770
vere	-771
ord	-772
▁requi	-773
▁exerc	-774
unction	-775
▁sex	-776
ien	-777
iss	-778
▁For	-779
▁stress	-780
ten	-781
▁small	-782
ren	-783
▁said	-784
ax	-785
tc	-786
▁going	-787
▁cle	-788
▁age	-789
ines	-790
▁There	-791
leep	-792
▁exp	-793
▁using	-794
ings	-795
▁num	-796
▁child	-797
▁work	-798
▁spec	-799
▁night	-800
ering	-801
▁report	-802
▁people	-803
▁har	-804
▁proper	-805
▁find	-806
▁severe	-807
▁How	-808
▁were	-809
▁hur	-810
▁ner	-811
low	-812
▁dr	-813
▁etc	-814
▁avoid	-815
▁ve	-816
▁cons	-817
▁sha	-818
ple	-819
▁includ	-820
▁stop	-821
▁diet	-822
▁tooth	-823
eth	-824
ick	-825
▁hour	-826
▁show	-827
▁check	-828
iet	-829
action	-830
elcome	-831
▁related	-832
▁supp	-833
▁ext	-834
▁9	-835
▁around	-836
til	-837
▁cell	-838
requ	-839
▁po	-840
▁rule	-841
▁occur	-842
bs	-843
▁Is	-844
▁remo	-845
sych	-846
▁same	-847
▁ult	-848
▁affect	-849
▁She	-850
▁hy	-851
bil	-852
ected	-853
▁vis	-854
ale	-855
▁col	-856
▁urine	-857
▁detail	-858
tig	-859
▁Do	-860
▁stom	-861
ont	-862
▁clin	-863
lamm	-864
eg	-865
velop	-866
▁usually	-867
ician	-868
▁ask	-869
▁post	-870
▁happy	-871
▁really	-872
▁weight	-873
ub	-874
▁sleep	-875
▁feeling	-876
▁antibiotics	-877
order	-878
▁gr	-879
▁effect	-880
▁during	-881
▁assist	-882
rasound	-883
▁daily	-884
med	-885
▁K	-886
ath	-887
▁frequ	-888
tain	-889
atory	-890
▁conf	-891
vid	-892
▁them	-893
▁x	-894
▁inter	-895
li	-896
▁stomach	-897
▁ser	-898
▁develop	-899
omething	-900
▁prescrib	-901
ason	-902
▁say	-903
▁taken	-904
lo	-905
ER	-906
▁best	-907
▁something	-908
osp	-909
uation	-910
▁fat	-911
▁dec	-912
▁mor	-913
▁both	-914
▁ke	-915
▁Welcome	-916
▁anx	-917
▁swelling	-918
▁8	-919
▁sit	-920
▁exper	-921
iety	-922
cess	-923
rect	-924
▁stud	-925
ys	-926
▁though	-927
▁V	-928
▁regular	-929
eding	-930
▁Your	-931
▁pill	-932
▁ble	-933
ourse	-934
vent	-935
▁complete	-936
▁bad	-937
▁par	-938
▁abdomen	-939
ards	-940
▁medication	-941
▁water	-942
▁contin	-943
▁Wish	-944
▁20	-945
▁found	-946
▁off	-947
ures	-948
▁eval	-949
▁flu	-950
▁call	-951
▁vir	-952
▁given	-953
▁prot	-954
▁ro	-955
vestig	-956
▁Let	-957
▁part	-958
▁sure	-959
read	-960
▁ov	-961
▁medicine	-962
ave	-963
IN	-964
▁table	-965
econd	-966
▁past	-967
▁disorder	-968
xt	-969
▁seems	-970
▁scan	-971
▁lot	-972
▁reason	-973
▁lung	-974
▁psych	-975
▁patients	-976
▁muscle	-977
▁resp	-978
otherap	-979
▁suffering	-980
▁sol	-981
▁str	-982
ised	-983
▁type	-984
▁helpful	-985
ove	-986
▁ins	-987
ittle	-988
▁while	-989
▁bab	-990
inion	-991
▁Also	-992
co	-993
▁sens	-994
▁lead	-995
omm	-996
▁bre	-997
▁investig	-998
str	-999
▁ultrasound	-1000
▁count	-1001
▁medical	-1002
▁opinion	-1003
▁Avoid	-1004
we	-1005
▁therap	-1006
rs	-1007
▁little	-1008
geon	-1009
▁told	-1010
▁neck	-1011
▁once	-1012
normal	-1013
ze	-1014
▁function	-1015
ommend	-1016
ression	-1017
▁tra	-1018
.5	-1019
▁medicines	-1020
lain	-1021
ardi	-1022
ence	-1023
vail	-1024
outh	-1025
ues	-1026
▁morning	-1027
▁recommend	-1028
ulation	-1029
ces	-1030
pper	-1031
0%	-1032
iat	-1033
▁used	-1034
▁MRI	-1035
▁hand	-1036
▁cor	-1037
oma	-1038
ma	-1039
its	-1040
ute	-1041
son	-1042
hed	-1043
▁anxiety	-1044
▁Im	-1045
vailable	-1046
▁cal	-1047
itive	-1048
▁where	-1049
ching	-1050
ording	-1051
▁hard	-1052
ty	-1053
▁cer	-1054
▁keep	-1055
▁experien	-1056
▁baby	-1057
▁Good	-1058
▁dent	-1059
▁clinical	-1060
▁mouth	-1061
▁life	-1062
▁impro	-1063
▁pregnant	-1064
▁smo	-1065
lt	-1066
▁And	-1067
▁anything	-1068
▁way	-1069
▁brain	-1070
▁wal	-1071
itamin	-1072
▁without	-1073
self	-1074
▁along	-1075
uss	-1076
▁att	-1077
▁control	-1078
▁levels	-1079
▁mention	-1080
▁teeth	-1081
rom	-1082
hal	-1083
▁form	-1084
av	-1085
roid	-1086
▁move	-1087
ments	-1088
▁ly	-1089
▁mar	-1090
otherapy	-1091
ways	-1092
▁son	-1093
▁present	-1094
▁upper	-1095
▁make	-1096
▁second	-1097
oub	-1098
▁diagnosed	-1099
▁end	-1100
vity	-1101
▁cold	-1102
▁come	-1103
▁causing	-1104
▁des	-1105
),	-1106
ately	-1107
etic	-1108
▁into	-1109
den	-1110
▁diffe	-1111
▁treated	-1112
ool	-1113
▁loc	-1114
▁bleeding	-1115
ied	-1116
▁rest	-1117
▁being	-1118
▁nerve	-1119
▁seen	-1120
▁tell	-1121
▁sometimes	-1122
ester	-1123
▁questions	-1124
uce	-1125
ced	-1126
oss	-1127
??	-1128
▁needed	-1129
ospital	-1130
▁hours	-1131
ones	-1132
▁relief	-1133
▁oral	-1134
▁kind	-1135
▁today	-1136
▁dont	-1137
▁sever	-1138
▁es	-1139
ology	-1140
▁jo	-1141
▁happen	-1142
ption	-1143
mple	-1144
▁confir	-1145
ugh	-1146
ature	-1147
▁fam	-1148
iatr	-1149
▁twice	-1150
▁iss	-1151
▁physical	-1152
lic	-1153
▁following	-1154
band	-1155
▁took	-1156
2.	-1157
usband	-1158
▁contact	-1159
▁acid	-1160
▁called	-1161
▁therapy	-1162
▁physician	-1163
▁Some	-1164
1.	-1165
▁read	-1166
pt	-1167
▁another	-1168
▁reco	-1169
urn	-1170
▁car	-1171
▁away	-1172
▁doub	-1173
▁res	-1174
▁above	-1175
ade	-1176
rome	-1177
rolog	-1178
▁caused	-1179
▁put	-1180
▁cyst	-1181
▁X	-1182
▁nothing	-1183
ities	-1184
▁ey	-1185
ral	-1186
▁husband	-1187
▁according	-1188
ON	-1189
▁bi	-1190
▁hospital	-1191
▁needs	-1192
▁ir	-1193
▁next	-1194
▁hi	-1195
▁advice	-1196
▁possibil	-1197
▁Dear	-1198
ndrome	-1199
▁concerns	-1200
mun	-1201
ash	-1202
▁size	-1203
▁manage	-1204
▁Any	-1205
▁Reg	-1206
ole	-1207
▁Than	-1208
▁painful	-1209
▁look	-1210
▁sal	-1211
▁cardi	-1212
▁three	-1213
▁worried	-1214
▁ris	-1215
▁15	-1216
▁grow	-1217
▁injur	-1218
▁inflamm	-1219
ciated	-1220
▁thanks	-1221
▁prescribed	-1222
▁Con	-1223
ling	-1224
ign	-1225
▁cases	-1226
▁bone	-1227
ronic	-1228
▁often	-1229
▁TH	-1230
▁cells	-1231
▁pul	-1232
▁feels	-1233
▁Wis	-1234
▁bron	-1235
▁recently	-1236
▁person	-1237
▁ele	-1238
▁gener	-1239
▁able	-1240
▁anal	-1241
▁thro	-1242
▁25	-1243
cop	-1244
▁gu	-1245
▁hair	-1246
ros	-1247
adder	-1248
hol	-1249
▁horm	-1250
eries	-1251
ock	-1252
▁clear	-1253
▁gl	-1254
▁diffic	-1255
▁breath	-1256
atic	-1257
tions	-1258
▁bronch	-1259
▁always	-1260
uck	-1261
mph	-1262
less	-1263
ollen	-1264
▁syndrome	-1265
▁home	-1266
▁neu	-1267
ream	-1268
zy	-1269
▁details	-1270
fort	-1271
▁exercise	-1272
TI	-1273
har	-1274
▁Thank	-1275
▁main	-1276
▁tiss	-1277
▁spine	-1278
▁doctors	-1279
▁fa	-1280
▁family	-1281
▁However	-1282
▁wel	-1283
ox	-1284
most	-1285
▁gum	-1286
ises	-1287
ughter	-1288
▁available	-1289
▁course	-1290
▁ep	-1291
▁sore	-1292
▁el	-1293
▁met	-1294
urb	-1295
▁medications	-1296
▁loss	-1297
▁St	-1298
▁never	-1299
stem	-1300
not	-1301
arg	-1302
ug	-1303
▁number	-1304
▁pen	-1305
als	-1306
▁sl	-1307
▁rad	-1308
▁visit	-1309
ions	-1310
▁early	-1311
▁signs	-1312
uct	-1313
arm	-1314
▁prevent	-1315
▁wa	-1316
▁notic	-1317
▁discuss	-1318
▁headac	-1319
gen	-1320
▁welcome	-1321
▁abnormal	-1322
▁mild	-1323
▁fine	-1324
▁ref	-1325
▁viral	-1326
▁ob	-1327
ins	-1328
▁breast	-1329
▁diab	-1330
▁fluid	-1331
▁bit	-1332
▁different	-1333
▁management	-1334
men	-1335
▁doing	-1336
▁Now	-1337
▁system	-1338
▁hyper	-1339
▁healthy	-1340
▁less	-1341
▁results	-1342
rit	-1343
▁daughter	-1344
▁weak	-1345
urrent	-1346
▁appear	-1347
▁fem	-1348
▁special	-1349
▁difficult	-1350
▁tum	-1351
▁injury	-1352
3.	-1353
▁thing	-1354
cohol	-1355
▁fo	-1356
form	-1357
ulti	-1358
▁asso	-1359
▁12	-1360
▁study	-1361
▁ChatD	-1362
eep	-1363
▁knee	-1364
▁vitamin	-1365
▁throat	-1366
▁abdominal	-1367
me	-1368
▁cyc	-1369
▁pass	-1370
▁vom	-1371
▁AN	-1372
EN	-1373
▁These	-1374
ef	-1375
ors	-1376
▁here	-1377
▁surgeon	-1378
▁queries	-1379
▁fl	-1380
▁must	-1381
▁later	-1382
▁nod	-1383
▁import	-1384
▁affected	-1385
▁include	-1386
▁eat	-1387
ably	-1388
▁swollen	-1389
▁When	-1390
▁Since	-1391
▁hem	-1392
▁dentist	-1393
▁soon	-1394
ially	-1395
▁prod	-1396
ween	-1397
▁require	-1398
▁spot	-1399
▁ma	-1400
ES	-1401
▁mentioned	-1402
▁Can	-1403
▁After	-1404
▁effects	-1405
ective	-1406
bin	-1407
▁face	-1408
▁They	-1409
▁noticed	-1410
▁improve	-1411
▁lymph	-1412
ension	-1413
▁changes	-1414
▁prob	-1415
▁rem	-1416
▁seem	-1417
▁increase	-1418
▁cure	-1419
▁short	-1420
▁Wishing	-1421
▁risk	-1422
line	-1423
▁likely	-1424
▁important	-1425
▁reduce	-1426
▁associated	-1427
▁stool	-1428
▁urin	-1429
▁depend	-1430
sth	-1431
▁neg	-1432
UR	-1433
ically	-1434
▁between	-1435
▁On	-1436
▁things	-1437
▁breathing	-1438
sthma	-1439
mia	-1440
get	-1441
acter	-1442
▁gast	-1443
aw	-1444
▁bur	-1445
be	-1446
▁We	-1447
▁concerned	-1448
▁almost	-1449
ner	-1450
▁les	-1451
de	-1452
▁ass	-1453
▁var	-1454
▁possibility	-1455
▁worse	-1456
uction	-1457
▁chronic	-1458
▁answers	-1459
▁writing	-1460
▁removed	-1461
▁indic	-1462
▁free	-1463
▁came	-1464
arge	-1465
▁white	-1466
▁CT	-1467
ural	-1468
▁bo	-1469
▁comes	-1470
▁med	-1471
▁lip	-1472
▁relax	-1473
ior	-1474
▁felt	-1475
rot	-1476
▁clar	-1477
▁conditions	-1478
▁periods	-1479
▁Sh	-1480
gar	-1481
nal	-1482
▁dose	-1483
▁dam	-1484
ysis	-1485
▁eff	-1486
rologist	-1487
▁em	-1488
▁arm	-1489
▁ster	-1490
yroid	-1491
OR	-1492
▁abs	-1493
▁inv	-1494
▁pan	-1495
but	-1496
▁run	-1497
▁recovery	-1498
▁plan	-1499
▁cream	-1500
ograp	-1501
▁alcohol	-1502
▁No	-1503
▁slight	-1504
▁within	-1505
▁prote	-1506
▁serious	-1507
▁yrs	-1508
▁legs	-1509
▁allergic	-1510
▁conce	-1511
ang	-1512
▁won	-1513
ither	-1514
▁inflammation	-1515
▁tri	-1516
▁acti	-1517
▁exercises	-1518
▁confirm	-1519
ired	-1520
▁ben	-1521
ared	-1522
▁pains	-1523
ism	-1524
▁new	-1525
ram	-1526
▁hot	-1527
▁provid	-1528
etes	-1529
▁means	-1530
▁negative	-1531
▁asthma	-1532
▁direct	-1533
▁addition	-1534
▁diseases	-1535
cription	-1536
▁female	-1537
▁evaluation	-1538
▁pat	-1539
the	-1540
▁top	-1541
▁hurts	-1542
yl	-1543
▁factor	-1544
▁heav	-1545
▁Best	-1546
▁tissue	-1547
▁radi	-1548
▁tou	-1549
iness	-1550
▁bed	-1551
▁rash	-1552
▁required	-1553
ract	-1554
ritis	-1555
▁below	-1556
▁near	-1557
▁defin	-1558
pl	-1559
▁full	-1560
▁frequency	-1561
▁specialist	-1562
▁exc	-1563
ric	-1564
▁inhal	-1565
▁mother	-1566
ited	-1567
▁continue	-1568
fen	-1569
▁rare	-1570
▁advised	-1571
oscop	-1572
atitis	-1573
▁EC	-1574
ian	-1575
▁fall	-1576
▁sugar	-1577
▁penis	-1578
▁temp	-1579
▁accordingly	-1580
▁gall	-1581
▁numb	-1582
▁hes	-1583
▁injection	-1584
AN	-1585
pec	-1586
athy	-1587
▁rate	-1588
YY	-1589
▁Consult	-1590
ized	-1591
opsy	-1592
AL	-1593
▁luck	-1594
tal	-1595
az	-1596
▁dist	-1597
▁allergy	-1598
▁All	-1599
▁mean	-1600
▁1.	-1601
▁why	-1602
▁multi	-1603
esterday	-1604
▁nose	-1605
▁become	-1606
iciency	-1607
▁non	-1608
▁:	-1609
AT	-1610
wh	-1611
▁cannot	-1612
▁act	-1613
▁evalu	-1614
▁bump	-1615
▁30	-1616
▁infections	-1617
my	-1618
▁thin	-1619
yn	-1620
▁wis	-1621
▁local	-1622
▁thyroid	-1623
inf	-1624
com	-1625
▁bacter	-1626
▁immun	-1627
cul	-1628
▁muscles	-1629
▁Get	-1630
▁investigations	-1631
AS	-1632
▁HI	-1633
▁warm	-1634
arr	-1635
ates	-1636
▁Dr	-1637
enter	-1638
▁walk	-1639
▁clarific	-1640
▁diz	-1641
▁regard	-1642
▁complain	-1643
▁trying	-1644
cing	-1645
▁hurt	-1646
▁persist	-1647
▁their	-1648
!!	-1649
▁occurs	-1650
cent	-1651
4.	-1652
omy	-1653
itate	-1654
rp	-1655
-1	-1656
▁gets	-1657
▁invol	-1658
▁whether	-1659
asis	-1660
▁examined	-1661
▁cardiac	-1662
▁ill	-1663
ED	-1664
iew	-1665
▁couple	-1666
▁active	-1667
▁inside	-1668
▁lim	-1669
▁asp	-1670
▁ECG	-1671
tility	-1672
▁either	-1673
▁ligh	-1674
ph	-1675
▁least	-1676
▁sub	-1677
▁apply	-1678
▁specific	-1679
▁positive	-1680
▁change	-1681
▁general	-1682
▁doesn	-1683
ix	-1684
ount	-1685
▁fail	-1686
▁vomiting	-1687
▁mast	-1688
time	-1689
▁bladder	-1690
▁tablet	-1691
ution	-1692
▁cant	-1693
▁derm	-1694
▁certain	-1695
▁asking	-1696
▁gene	-1697
▁thought	-1698
cin	-1699
▁several	-1700
ready	-1701
▁steroid	-1702
▁increased	-1703
▁Gen	-1704
▁let	-1705
▁pulmon	-1706
▁solved	-1707
▁mal	-1708
▁based	-1709
▁pills	-1710
amine	-1711
▁psychiatr	-1712
ped	-1713
▁smoking	-1714
reen	-1715
tern	-1716
▁biopsy	-1717
▁soft	-1718
▁already	-1719
▁100	-1720
ife	-1721
▁root	-1722
alp	-1723
▁goes	-1724
▁foot	-1725
▁exact	-1726
▁probably	-1727
OT	-1728
▁mid	-1729
▁Ab	-1730
▁rib	-1731
▁until	-1732
▁stone	-1733
▁till	-1734
▁sperm	-1735
▁resol	-1736
ants	-1737
▁hesitate	-1738
▁mil	-1739
▁fri	-1740
usion	-1741
▁shoulder	-1742
▁ide	-1743
▁spread	-1744
▁clot	-1745
▁supple	-1746
▁Ne	-1747
▁issues	-1748
▁block	-1749
▁rout	-1750
▁hep	-1751
▁pus	-1752
bl	-1753
▁friend	-1754
▁list	-1755
ted	-1756
▁gave	-1757
ni	-1758
▁safe	-1759
▁nause	-1760
▁headache	-1761
atologist	-1762
itor	-1763
rac	-1764
▁stand	-1765
▁each	-1766
▁cra	-1767
▁damage	-1768
▁situation	-1769
▁completely	-1770
▁heavy	-1771
▁org	-1772
▁cycle	-1773
▁mostly	-1774
▁underg	-1775
▁clean	-1776
▁wrong	-1777
ING	-1778
ste	-1779
umb	-1780
▁itch	-1781
inus	-1782
▁diabetes	-1783
▁2.	-1784
utes	-1785
▁prof	-1786
▁Sur	-1787
▁Should	-1788
▁says	-1789
▁aut	-1790
▁tumor	-1791
▁Sometimes	-1792
tif	-1793
▁follic	-1794
▁At	-1795
▁quite	-1796
irth	-1797
▁stage	-1798
--	-1799
▁protein	-1800
onia	-1801
▁inher	-1802
▁chances	-1803
▁experiencing	-1804
▁necess	-1805
▁add	-1806
▁enl	-1807
▁Regards	-1808
▁known	-1809
▁mm	-1810
▁sud	-1811
kill	-1812
ography	-1813
▁14	-1814
ility	-1815
ides	-1816
▁fing	-1817
▁prog	-1818
medi	-1819
oscopy	-1820
▁yesterday	-1821
▁father	-1822
▁tablets	-1823
▁fast	-1824
isod	-1825
▁feet	-1826
▁checked	-1827
▁reports	-1828
▁dischar	-1829
▁201	-1830
▁sensation	-1831
▁decre	-1832
rox	-1833
▁tract	-1834
▁deficiency	-1835
▁ret	-1836
ng	-1837
intment	-1838
▁AND	-1839
AR	-1840
▁sudden	-1841
▁large	-1842
▁val	-1843
▁wonder	-1844
▁male	-1845
▁ovulation	-1846
ulture	-1847
▁tried	-1848
▁cho	-1849
▁else	-1850
▁joint	-1851
▁treating	-1852
▁Treat	-1853
uter	-1854
hea	-1855
ange	-1856
▁routine	-1857
▁semen	-1858
uced	-1859
stant	-1860
emia	-1861
▁reaction	-1862
▁cerv	-1863
▁episod	-1864
pecially	-1865
air	-1866
eat	-1867
old	-1868
iratory	-1869
▁contain	-1870
▁Ive	-1871
▁bronchitis	-1872
ons	-1873
▁eating	-1874
▁App	-1875
▁tub	-1876
tice	-1877
▁dear	-1878
ium	-1879
▁bru	-1880
▁minutes	-1881
▁90%	-1882
▁del	-1883
▁irrit	-1884
▁doubts	-1885
▁proced	-1886
▁extre	-1887
▁eye	-1888
▁masturb	-1889
▁however	-1890
▁24	-1891
ongue	-1892
osing	-1893
▁depression	-1894
▁burning	-1895
▁wom	-1896
▁birth	-1897
▁Then	-1898
▁physi	-1899
▁meas	-1900
0.	-1901
FT	-1902
▁vag	-1903
▁mass	-1904
ening	-1905
▁explain	-1906
▁wait	-1907
▁clarifications	-1908
reg	-1909
OU	-1910
▁beg	-1911
▁immedi	-1912
▁ul	-1913
▁excess	-1914
ision	-1915
▁ten	-1916
▁half	-1917
▁current	-1918
kes	-1919
▁attack	-1920
inflamm	-1921
▁tired	-1922
▁tongue	-1923
▁fib	-1924
▁...	-1925
▁sinus	-1926
▁foods	-1927
▁deep	-1928
▁itching	-1929
▁culture	-1930
ivid	-1931
▁Have	-1932
ps	-1933
▁continu	-1934
▁lab	-1935
▁trans	-1936
▁psychiatrist	-1937
gesic	-1938
▁especially	-1939
right	-1940
▁necessary	-1941
ID	-1942
ister	-1943
▁ChatDoctor	-1944
▁perform	-1945
▁complic	-1946
iti	-1947
olic	-1948
ividual	-1949
ungal	-1950
▁elev	-1951
▁milk	-1952
▁Re	-1953
IC	-1954
elv	-1955
▁ang	-1956
neum	-1957
▁IN	-1958
▁To	-1959
▁suggestion	-1960
▁path	-1961
bal	-1962
▁growth	-1963
▁Other	-1964
ological	-1965
▁touch	-1966
▁respiratory	-1967
▁chem	-1968
-3	-1969
▁assess	-1970
▁Un	-1971
onal	-1972
▁our	-1973
▁wife	-1974
lant	-1975
▁ER	-1976
▁ok	-1977
▁developed	-1978
▁working	-1979
▁coming	-1980
▁sick	-1981
▁TO	-1982
▁hyp	-1983
▁hip	-1984
ina	-1985
▁Treatment	-1986
▁effective	-1987
▁stren	-1988
▁amount	-1989
▁ph	-1990
▁thor	-1991
▁sharp	-1992
▁chance	-1993
▁interc	-1994
▁Could	-1995
▁discharge	-1996
▁consid	-1997
▁mod	-1998
▁ver	-1999
▁doubt	-2000
▁painkill	-2001
▁lungs	-2002
▁constant	-2003
▁light	-2004
▁illness	-2005
▁fer	-2006
▁11	-2007
though	-2008
▁Don	-2009
▁fac	-2010
▁18	-2011
▁looks	-2012
▁evaluated	-2013
uber	-2014
▁BP	-2015
▁enough	-2016
omal	-2017
▁issue	-2018
▁gums	-2019
▁air	-2020
▁additional	-2021
▁point	-2022
ech	-2023
▁consulting	-2024
▁Bl	-2025
▁extreme	-2026
ches	-2027
ather	-2028
▁sound	-2029
▁jaw	-2030
▁tal	-2031
▁cir	-2032
▁Not	-2033
▁Test	-2034
▁nausea	-2035
rain	-2036
▁sir	-2037
▁lesion	-2038
lect	-2039
▁doc	-2040
▁sim	-2041
IS	-2042
▁slow	-2043
ormally	-2044
▁stopped	-2045
▁infected	-2046
▁tight	-2047
ean	-2048
▁walking	-2049
▁prescribe	-2050
▁anemia	-2051
▁miss	-2052
▁analgesic	-2053
▁spinal	-2054
▁individual	-2055
vious	-2056
▁cha	-2057
▁fraction	-2058
▁200	-2059
▁hands	-2060
inflammatory	-2061
▁bro	-2062
▁stones	-2063
BC	-2064
ents	-2065
tial	-2066
uff	-2067
▁fact	-2068
TH	-2069
▁Most	-2070
▁ulcer	-2071
▁ank	-2072
▁delay	-2073
▁discom	-2074
▁fatty	-2075
▁name	-2076
▁intercourse	-2077
wn	-2078
ilar	-2079
EL	-2080
view	-2081
▁discomfort	-2082
▁mut	-2083
▁posting	-2084
▁including	-2085
zing	-2086
▁Kind	-2087
▁50%	-2088
▁seiz	-2089
uture	-2090
ark	-2091
roll	-2092
▁weakness	-2093
▁With	-2094
▁made	-2095
dle	-2096
▁Sy	-2097
▁appre	-2098
▁definite	-2099
▁cramp	-2100
no	-2101
▁simple	-2102
▁position	-2103
▁enzy	-2104
▁sexual	-2105
AC	-2106
▁cervical	-2107
uled	-2108
▁Ch	-2109
itation	-2110
▁activity	-2111
▁correct	-2112
▁oper	-2113
▁bil	-2114
ured	-2115
▁reasons	-2116
▁pelv	-2117
ecause	-2118
fer	-2119
▁everything	-2120
ticular	-2121
ropri	-2122
ided	-2123
asm	-2124
▁3.	-2125
▁whole	-2126
▁wondering	-2127
jac	-2128
▁ech	-2129
▁muc	-2130
▁giving	-2131
▁bow	-2132
▁factors	-2133
▁eyes	-2134
app	-2135
Thanks	-2136
LE	-2137
▁procedure	-2138
▁urinary	-2139
▁coun	-2140
.2.	-2141
▁7.5	-2142
ember	-2143
▁sus	-2144
arrhea	-2145
▁regularly	-2146
▁numbness	-2147
▁play	-2148
▁great	-2149
asal	-2150
▁Yes	-2151
▁region	-2152
rown	-2153
▁failure	-2154
cept	-2155
▁appears	-2156
rofen	-2157
▁multiple	-2158
▁regarding	-2159
▁16	-2160
▁bel	-2161
▁diagnose	-2162
▁suggested	-2163
.-	-2164
▁lift	-2165
▁intake	-2166
▁stre	-2167
▁front	-2168
▁iron	-2169
ages	-2170
▁ter	-2171
▁respon	-2172
▁shows	-2173
▁eas	-2174
▁maintain	-2175
▁orth	-2176
.....	-2177
▁THE	-2178
iry	-2179
▁future	-2180
▁term	-2181
▁creat	-2182
▁bot	-2183
▁AL	-2184
▁Us	-2185
▁coughing	-2186
akes	-2187
bup	-2188
▁er	-2189
neumonia	-2190
▁undergo	-2191
▁alright	-2192
▁gastro	-2193
here	-2194
▁monitor	-2195
ergency	-2196
▁those	-2197
▁process	-2198
▁hab	-2199
▁Pro	-2200
▁tab	-2201
oster	-2202
OM	-2203
nia	-2204
▁hypert	-2205
▁appropri	-2206
▁fru	-2207
▁close	-2208
▁tend	-2209
▁tech	-2210
like	-2211
▁turn	-2212
▁fract	-2213
▁hell	-2214
▁Che	-2215
▁nat	-2216
▁describ	-2217
ran	-2218
▁happens	-2219
ict	-2220
▁stay	-2221
sel	-2222
gue	-2223
▁remain	-2224
▁Its	-2225
asia	-2226
thritis	-2227
▁traum	-2228
uman	-2229
isc	-2230
▁ra	-2231
▁strong	-2232
▁gland	-2233
▁meals	-2234
▁treatments	-2235
regular	-2236
12	-2237
oup	-2238
ged	-2239
itivity	-2240
▁combin	-2241
opha	-2242
▁diarrhea	-2243
▁virus	-2244
-4	-2245
▁yourself	-2246
buprofen	-2247
while	-2248
raction	-2249
ending	-2250
rup	-2251
▁Further	-2252
▁mat	-2253
▁showed	-2254
▁acute	-2255
▁place	-2256
▁Medic	-2257
any	-2258
arent	-2259
▁hormone	-2260
wards	-2261
▁dermatologist	-2262
▁7.5%	-2263
ex	-2264
ynec	-2265
▁useful	-2266
jor	-2267
▁mom	-2268
ieve	-2269
▁surgical	-2270
▁dairy	-2271
▁sitting	-2272
▁ting	-2273
acks	-2274
▁frequent	-2275
▁subs	-2276
cium	-2277
cl	-2278
▁wish	-2279
ressive	-2280
ring	-2281
ziness	-2282
▁happened	-2283
▁site	-2284
▁Because	-2285
lying	-2286
▁areas	-2287
▁dos	-2288
▁expos	-2289
▁similar	-2290
cre	-2291
▁properly	-2292
▁mem	-2293
gien	-2294
▁immediately	-2295
acet	-2296
ental	-2297
▁veget	-2298
▁pi	-2299
▁step	-2300
▁elect	-2301
▁pot	-2302
yle	-2303
▁starting	-2304
VE	-2305
▁Be	-2306
icy	-2307
URL	-2308
▁black	-2309
iv	-2310
full	-2311
▁dy	-2312
amol	-2313
osomal	-2314
▁HA	-2315
azole	-2316
▁bowel	-2317
▁13	-2318
RE	-2319
▁nut	-2320
ability	-2321
▁hygien	-2322
.3.	-2323
▁disorders	-2324
▁susp	-2325
▁prol	-2326
▁intest	-2327
▁own	-2328
▁compression	-2329
▁vac	-2330
▁appropriate	-2331
▁hear	-2332
ype	-2333
opathy	-2334
▁First	-2335
ocy	-2336
hist	-2337
▁tested	-2338
▁arter	-2339
▁slightly	-2340
▁ant	-2341
▁ovar	-2342
▁ure	-2343
▁ever	-2344
▁hormonal	-2345
▁hello	-2346
▁major	-2347
▁supplements	-2348
▁solution	-2349
▁difficulty	-2350
can	-2351
▁uter	-2352
ediatr	-2353
man	-2354
ched	-2355
▁total	-2356
arged	-2357
▁elevated	-2358
▁yet	-2359
oglo	-2360
▁chol	-2361
tile	-2362
▁consider	-2363
▁definitely	-2364
▁50	-2365
▁ves	-2366
▁Cl	-2367
▁Blood	-2368
▁renal	-2369
▁experience	-2370
▁movements	-2371
lux	-2372
▁color	-2373
▁prov	-2374
tes	-2375
▁relieve	-2376
▁genetic	-2377
▁40	-2378
rection	-2379
▁Ad	-2380
▁kg	-2381
▁middle	-2382
▁streng	-2383
▁support	-2384
▁Or	-2385
▁wat	-2386
▁canal	-2387
ints	-2388
▁becom	-2389
tip	-2390
what	-2391
▁ap	-2392
niqu	-2393
▁severity	-2394
▁didnt	-2395
▁profile	-2396
▁hygiene	-2397
▁pulmonologist	-2398
mitt	-2399
luc	-2400
asing	-2401
▁emergency	-2402
ouble	-2403
▁19	-2404
▁irregular	-2405
oke	-2406
ising	-2407
▁mind	-2408
▁remove	-2409
rence	-2410
▁hepatitis	-2411
▁yr	-2412
▁description	-2413
▁mic	-2414
▁techniqu	-2415
▁Well	-2416
acetamol	-2417
SA	-2418
▁maybe	-2419
▁ce	-2420
set	-2421
ubercul	-2422
▁quick	-2423
▁lif	-2424
aking	-2425
▁cm	-2426
▁fore	-2427
.,	-2428
ward	-2429
▁Once	-2430
▁thorough	-2431
▁arms	-2432
▁itchy	-2433
▁group	-2434
xy	-2435
▁IS	-2436
▁ChatDoc	-2437
▁minute	-2438
▁ejac	-2439
SG	-2440
▁tran	-2441
▁lost	-2442
▁self	-2443
▁17	-2444
▁fin	-2445
▁pneumonia	-2446
▁dizziness	-2447
ynecologist	-2448
▁fati	-2449
▁beha	-2450
▁plate	-2451
▁egg	-2452
▁meds	-2453
▁panic	-2454
▁takes	-2455
▁guide	-2456
▁iden	-2457
▁leading	-2458
▁gir	-2459
▁ruled	-2460
▁ankle	-2461
▁open	-2462
▁green	-2463
▁dark	-2464
▁prim	-2465
to	-2466
▁abscess	-2467
rin	-2468
ables	-2469
▁cut	-2470
wise	-2471
riend	-2472
▁meth	-2473
▁drink	-2474
▁kidneys	-2475
▁real	-2476
▁didn	-2477
estyle	-2478
▁followed	-2479
▁menstr	-2480
▁conceive	-2481
side	-2482
▁movement	-2483
more	-2484
▁Phy	-2485
of	-2486
▁earli	-2487
prot	-2488
▁upon	-2489
ob	-2490
▁pull	-2491
▁bacterial	-2492
▁analysis	-2493
▁His	-2494
▁lay	-2495
ulmon	-2496
ization	-2497
▁various	-2498
▁enlarged	-2499
▁identif	-2500
ST	-2501
head	-2502
▁trauma	-2503
▁Usually	-2504
▁big	-2505
▁tender	-2506
ume	-2507
ush	-2508
▁calcium	-2509
▁wisdom	-2510
-2	-2511
▁commonly	-2512
▁evening	-2513
▁sat	-2514
▁thigh	-2515
lus	-2516
cular	-2517
▁bal	-2518
▁formation	-2519
af	-2520
▁sensitivity	-2521
▁inherited	-2522
▁Ex	-2523
mes	-2524
ok	-2525
▁Pain	-2526
▁drug	-2527
▁node	-2528
▁obstr	-2529
▁fill	-2530
uberculosis	-2531
oph	-2532
▁Wh	-2533
▁combination	-2534
▁Anti	-2535
▁myself	-2536
▁serum	-2537
esterol	-2538
▁regards	-2539
▁recommended	-2540
▁provide	-2541
▁far	-2542
racep	-2543
▁healing	-2544
▁2-3	-2545
▁reflux	-2546
▁prescription	-2547
▁That	-2548
▁sun	-2549
uration	-2550
▁nodes	-2551
▁cr	-2552
▁spe	-2553
▁ple	-2554
ird	-2555
▁spots	-2556
▁aw	-2557
▁percent	-2558
▁vegetables	-2559
▁From	-2560
allow	-2561
ize	-2562
▁organ	-2563
▁harm	-2564
▁makes	-2565
▁looking	-2566
▁suffer	-2567
▁butt	-2568
▁fruits	-2569
▁masturbation	-2570
ense	-2571
fully	-2572
vir	-2573
estive	-2574
▁episodes	-2575
▁confirmed	-2576
▁nasal	-2577
oglobin	-2578
▁excessive	-2579
▁prost	-2580
▁particular	-2581
IL	-2582
▁contracep	-2583
then	-2584
orn	-2585
▁MY	-2586
iction	-2587
▁Par	-2588
▁colon	-2589
bing	-2590
▁wors	-2591
▁four	-2592
ration	-2593
▁rid	-2594
▁lesions	-2595
▁starts	-2596
ellow	-2597
▁findings	-2598
▁option	-2599
▁making	-2600
▁boy	-2601
▁development	-2602
▁loose	-2603
▁pediatr	-2604
▁removal	-2605
▁complications	-2606
und	-2607
protected	-2608
▁salt	-2609
▁line	-2610
erature	-2611
olar	-2612
▁suggestions	-2613
ker	-2614
ulmonary	-2615
▁aspir	-2616
EC	-2617
▁Med	-2618
▁lifestyle	-2619
▁asked	-2620
aged	-2621
ident	-2622
▁Her	-2623
PT	-2624
ori	-2625
▁wound	-2626
UT	-2627
▁dys	-2628
▁headaches	-2629
▁doesnt	-2630
par	-2631
▁shall	-2632
▁cop	-2633
▁..	-2634
▁signific	-2635
▁controll	-2636
hyth	-2637
▁ml	-2638
▁dry	-2639
▁itself	-2640
▁individuals	-2641
ging	-2642
▁saline	-2643
▁tingling	-2644
ema	-2645
▁bumps	-2646
▁obs	-2647
▁recur	-2648
▁thank	-2649
bly	-2650
▁wear	-2651
▁OF	-2652
gger	-2653
▁liqu	-2654
sible	-2655
ances	-2656
▁break	-2657
▁oil	-2658
▁symptomatic	-2659
▁repl	-2660
▁hernia	-2661
▁bite	-2662
▁unprotected	-2663
▁thinking	-2664
▁options	-2665
▁married	-2666
▁vessel	-2667
▁sleeping	-2668
▁orthop	-2669
ointment	-2670
▁wishes	-2671
▁hig	-2672
▁beat	-2673
▁constip	-2674
ping	-2675
▁normally	-2676
▁idea	-2677
▁prec	-2678
ontin	-2679
▁shot	-2680
▁finger	-2681
ril	-2682
▁Di	-2683
OD	-2684
▁young	-2685
ane	-2686
▁Com	-2687
▁echo	-2688
▁lumb	-2689
▁range	-2690
▁investigation	-2691
by	-2692
▁hit	-2693
ored	-2694
▁500	-2695
▁pop	-2696
▁hypertension	-2697
▁Human	-2698
▁Am	-2699
▁listed	-2700
▁underlying	-2701
▁Sp	-2702
▁live	-2703
che	-2704
▁Phen	-2705
weight	-2706
▁pathology	-2707
▁currently	-2708
stead	-2709
▁nerves	-2710
▁depends	-2711
▁order	-2712
-5	-2713
▁Kindly	-2714
ET	-2715
▁platele	-2716
▁lumps	-2717
▁28	-2718
OW	-2719
▁chee	-2720
▁testing	-2721
▁neurologist	-2722
▁scar	-2723
▁previous	-2724
▁poly	-2725
▁inhaled	-2726
▁behav	-2727
▁woke	-2728
ogram	-2729
ler	-2730
▁bu	-2731
omin	-2732
mentation	-2733
▁children	-2734
▁transp	-2735
▁stro	-2736
rophy	-2737
bladder	-2738
▁poor	-2739
▁bath	-2740
▁bacteria	-2741
▁palp	-2742
OL	-2743
▁Try	-2744
▁garg	-2745
▁benef	-2746
▁Symptom	-2747
opl	-2748
▁running	-2749
▁ju	-2750
▁cur	-2751
▁enzymes	-2752
otype	-2753
▁sn	-2754
▁fracture	-2755
▁suggestive	-2756
▁fatigue	-2757
▁secondary	-2758
▁reduced	-2759
hind	-2760
ciate	-2761
▁Le	-2762
▁ache	-2763
▁actually	-2764
▁Inf	-2765
raz	-2766
▁longer	-2767
▁diabetic	-2768
▁dizzy	-2769
▁aspect	-2770
▁cat	-2771
▁activ	-2772
▁arthritis	-2773
▁pal	-2774
▁Pl	-2775
▁review	-2776
▁Abnormal	-2777
▁includes	-2778
▁refer	-2779
▁Make	-2780
▁stat	-2781
▁cholesterol	-2782
rel	-2783
▁natural	-2784
▁4.	-2785
-6	-2786
▁late	-2787
pped	-2788
▁directly	-2789
fortable	-2790
My	-2791
tention	-2792
▁significant	-2793
▁unc	-2794
▁exa	-2795
idered	-2796
▁Rec	-2797
▁antihist	-2798
▁method	-2799
▁women	-2800
▁behind	-2801
▁spicy	-2802
▁considered	-2803
illin	-2804
essive	-2805
▁fell	-2806
▁techniques	-2807
upt	-2808
▁scared	-2809
▁gel	-2810
▁Deg	-2811
▁detailed	-2812
asion	-2813
▁Ont	-2814
▁Based	-2815
▁ST	-2816
roxim	-2817
,,	-2818
▁Available	-2819
cies	-2820
inine	-2821
hoid	-2822
▁believe	-2823
lex	-2824
▁IT	-2825
used	-2826
▁flow	-2827
▁Ontology	-2828
▁Phenotype	-2829
▁someone	-2830
▁infer	-2831
▁sort	-2832
▁studied	-2833
▁Surgeon	-2834
▁lifting	-2835
▁pur	-2836
▁Hy	-2837
▁resolve	-2838
ession	-2839
▁....	-2840
▁init	-2841
function	-2842
▁21	-2843
NT	-2844
▁yellow	-2845
▁benign	-2846
▁understood	-2847
▁Ac	-2848
▁grad	-2849
ears	-2850
racter	-2851
▁pattern	-2852
▁0	-2853
mor	-2854
▁gynecologist	-2855
▁PC	-2856
▁bul	-2857
▁temperature	-2858
▁higher	-2859
OP	-2860
ubin	-2861
orry	-2862
▁fungal	-2863
▁chemotherapy	-2864
ogen	-2865
etite	-2866
▁bottom	-2867
▁ed	-2868
ergy	-2869
▁increases	-2870
▁agg	-2871
▁outside	-2872
osed	-2873
▁sch	-2874
▁plac	-2875
▁matter	-2876
▁mental	-2877
ym	-2878
▁estim	-2879
▁parent	-2880
kele	-2881
oday	-2882
▁rese	-2883
▁extraction	-2884
▁disturb	-2885
▁pret	-2886
▁One	-2887
▁TB	-2888
ashes	-2889
▁product	-2890
▁extremely	-2891
ucing	-2892
▁talk	-2893
led	-2894
▁z	-2895
▁exposure	-2896
ecti	-2897
iver	-2898
▁rece	-2899
ressed	-2900
▁pin	-2901
▁set	-2902
▁Surg	-2903
▁uterus	-2904
ulate	-2905
OS	-2906
▁rather	-2907
ator	-2908
▁circ	-2909
▁allergies	-2910
▁character	-2911
▁attacks	-2912
▁assessment	-2913
.4.	-2914
▁appointment	-2915
▁bones	-2916
▁cardiologist	-2917
▁notice	-2918
▁determ	-2919
▁response	-2920
▁tuberculosis	-2921
▁SG	-2922
▁ive	-2923
▁tes	-2924
erv	-2925
▁types	-2926
▁exclud	-2927
▁primary	-2928
lication	-2929
▁bas	-2930
IT	-2931
▁gallbladder	-2932
▁gain	-2933
▁pri	-2934
▁happening	-2935
▁Symptoms	-2936
▁pretty	-2937
▁Degree	-2938
▁!	-2939
▁appreciate	-2940
5.	-2941
▁trouble	-2942
▁choosing	-2943
Plus	-2944
TION	-2945
▁generally	-2946
▁repeat	-2947
zine	-2948
▁ibuprofen	-2949
▁immune	-2950
keletal	-2951
▁meet	-2952
▁helped	-2953
▁strain	-2954
▁begin	-2955
▁gro	-2956
linePlus	-2957
▁appetite	-2958
▁behavior	-2959
▁MedlinePlus	-2960
▁alot	-2961
▁Even	-2962
▁room	-2963
▁seizures	-2964
▁Sir	-2965
arch	-2966
▁pred	-2967
mitted	-2968
▁22	-2969
▁imbal	-2970
rat	-2971
▁liquid	-2972
▁stroke	-2973
▁Apply	-2974
equ	-2975
teb	-2976
▁fi	-2977
▁gas	-2978
rosis	-2979
▁reply	-2980
▁perman	-2981
▁frequently	-2982
erative	-2983
▁HY	-2984
▁ice	-2985
▁prac	-2986
▁hurting	-2987
▁vision	-2988
▁cramps	-2989
▁stools	-2990
▁Ult	-2991
▁physiotherapy	-2992
▁Use	-2993
▁topical	-2994
▁improvement	-2995
alysis	-2996
▁although	-2997
▁example	-2998
you	-2999
▁recover	-3000
▁FOR	-3001
orr	-3002
▁WH	-3003
▁measures	-3004
rine	-3005
▁By	-3006
▁mutations	-3007
eated	-3008
▁subst	-3009
▁monitoring	-3010
enty	-3011
▁PFT	-3012
▁consultation	-3013
▁wash	-3014
icillin	-3015
irubin	-3016
▁raised	-3017
▁hemat	-3018
▁constipation	-3019
▁missed	-3020
▁smell	-3021
▁tension	-3022
▁yes	-3023
eanwhile	-3024
nce	-3025
▁syrup	-3026
▁respond	-3027
▁except	-3028
▁malign	-3029
▁IV	-3030
▁Mon	-3031
▁increasing	-3032
▁Keep	-3033
▁Care	-3034
▁cry	-3035
▁thoughts	-3036
▁drin	-3037
▁adequ	-3038
▁orthopedic	-3039
▁ES	-3040
▁stra	-3041
▁painkiller	-3042
AD	-3043
ortion	-3044
▁return	-3045
▁dat	-3046
▁bell	-3047
ality	-3048
▁decrease	-3049
▁duration	-3050
▁pe	-3051
▁hemoglobin	-3052
▁menstrual	-3053
▁succ	-3054
▁needle	-3055
▁syn	-3056
▁others	-3057
▁remember	-3058
she	-3059
▁exam	-3060
▁seeing	-3061
gia	-3062
▁steroids	-3063
▁cortic	-3064
.2	-3065
▁tube	-3066
▁pulmonary	-3067
▁foc	-3068
▁radiation	-3069
ny	-3070
rizine	-3071
▁instead	-3072
▁against	-3073
▁kindly	-3074
vi	-3075
▁struct	-3076
▁unable	-3077
ascular	-3078
▁activities	-3079
geal	-3080
aging	-3081
when	-3082
▁remed	-3083
▁swallow	-3084
ache	-3085
▁becomes	-3086
▁fluids	-3087
▁uncom	-3088
astic	-3089
aund	-3090
▁electro	-3091
ross	-3092
ices	-3093
rest	-3094
rays	-3095
▁prostate	-3096
ulin	-3097
till	-3098
▁smoke	-3099
icken	-3100
ously	-3101
▁oxy	-3102
▁lumbar	-3103
▁event	-3104
▁unless	-3105
Chat	-3106
▁height	-3107
:1.	-3108
hib	-3109
for	-3110
▁vagina	-3111
razole	-3112
ropathy	-3113
▁lack	-3114
▁ribs	-3115
gnosis	-3116
▁dental	-3117
alth	-3118
▁antib	-3119
▁indicate	-3120
yrs	-3121
▁Last	-3122
▁blo	-3123
▁emp	-3124
▁joints	-3125
▁abnormalities	-3126
▁squ	-3127
▁cured	-3128
ENT	-3129
▁provides	-3130
ectious	-3131
▁altern	-3132
▁dust	-3133
▁possibly	-3134
▁Does	-3135
▁pelvic	-3136
rological	-3137
▁repeated	-3138
▁towards	-3139
▁ointment	-3140
▁fingers	-3141
min	-3142
▁forum	-3143
▁Ind	-3144
▁concent	-3145
▁irritation	-3146
▁transplant	-3147
▁groin	-3148
▁bleed	-3149
▁expect	-3150
▁looked	-3151
▁degen	-3152
▁provided	-3153
▁easily	-3154
eptic	-3155
encies	-3156
▁pediatrician	-3157
▁Chest	-3158
▁leads	-3159
▁painkillers	-3160
▁shortness	-3161
stand	-3162
▁recent	-3163
▁reading	-3164
▁moder	-3165
▁sensitive	-3166
▁feed	-3167
▁brown	-3168
▁pow	-3169
riage	-3170
▁swe	-3171
omp	-3172
▁coll	-3173
▁thick	-3174
▁involved	-3175
eb	-3176
▁pack	-3177
plete	-3178
▁nature	-3179
▁clinic	-3180
▁tempor	-3181
ouse	-3182
▁Today	-3183
where	-3184
▁depending	-3185
abies	-3186
▁infertility	-3187
ChatD	-3188
ensive	-3189
▁grade	-3190
▁stab	-3191
▁six	-3192
▁tissues	-3193
▁rupt	-3194
▁girl	-3195
▁success	-3196
▁muscular	-3197
AY	-3198
▁cent	-3199
atures	-3200
rason	-3201
odil	-3202
▁inner	-3203
6.	-3204
▁motion	-3205
rod	-3206
rate	-3207
▁gluc	-3208
▁5.	-3209
▁belly	-3210
▁Genetic	-3211
▁occasion	-3212
▁sk	-3213
▁standing	-3214
▁experienced	-3215
In	-3216
▁partner	-3217
▁answering	-3218
oo	-3219
▁af	-3220
▁sing	-3221
gester	-3222
▁autosomal	-3223
erous	-3224
▁psychotherapy	-3225
hood	-3226
active	-3227
▁cord	-3228
▁rough	-3229
▁obstruction	-3230
ils	-3231
▁ENT	-3232
▁passed	-3233
▁gotten	-3234
roph	-3235
▁stiff	-3236
rief	-3237
▁wall	-3238
▁emb	-3239
▁pump	-3240
▁minim	-3241
▁sister	-3242
▁ovarian	-3243
▁inflammatory	-3244
▁changed	-3245
rible	-3246
▁rele	-3247
▁rich	-3248
isf	-3249
▁Pre	-3250
▁HelloThanks	-3251
▁earlier	-3252
▁recurrent	-3253
ries	-3254
▁recessive	-3255
▁replace	-3256
CT	-3257
▁link	-3258
▁center	-3259
▁imbalance	-3260
gesterone	-3261
ified	-3262
inc	-3263
▁vaginal	-3264
▁terms	-3265
▁23	-3266
aundice	-3267
▁ESR	-3268
ometri	-3269
ential	-3270
▁orig	-3271
▁60	-3272
assi	-3273
▁ideas	-3274
▁dysfunction	-3275
pe	-3276
▁En	-3277
▁status	-3278
hyroid	-3279
▁plus	-3280
please	-3281
gestion	-3282
▁append	-3283
▁wrist	-3284
▁operation	-3285
tics	-3286
▁straight	-3287
▁3-4	-3288
▁mucus	-3289
▁super	-3290
terior	-3291
ecre	-3292
▁follicles	-3293
▁studies	-3294
▁possibilities	-3295
ible	-3296
▁HER	-3297
eral	-3298
▁lots	-3299
▁Are	-3300
bow	-3301
▁controlled	-3302
urs	-3303
▁ON	-3304
aria	-3305
opath	-3306
▁containing	-3307
▁HE	-3308
▁hold	-3309
▁genital	-3310
▁injections	-3311
▁Day	-3312
oot	-3313
▁dog	-3314
▁cysts	-3315
▁hypot	-3316
▁cap	-3317
▁brother	-3318
▁dil	-3319
▁suggests	-3320
cep	-3321
▁energy	-3322
ived	-3323
▁nerv	-3324
▁May	-3325
▁otherwise	-3326
LY	-3327
▁vessels	-3328
▁accident	-3329
▁saw	-3330
icient	-3331
▁advis	-3332
roscop	-3333
▁presence	-3334
▁Hep	-3335
▁bruise	-3336
▁Abnormality	-3337
▁Res	-3338
▁Till	-3339
▁gives	-3340
▁organs	-3341
▁slowly	-3342
▁cheek	-3343
▁parts	-3344
▁features	-3345
romy	-3346
▁creatinine	-3347
▁defect	-3348
▁requires	-3349
▁stret	-3350
rim	-3351
▁burn	-3352
▁sent	-3353
▁conception	-3354
aster	-3355
cal	-3356
▁USG	-3357
▁habit	-3358
▁five	-3359
▁glad	-3360
▁satisf	-3361
AM	-3362
▁suddenly	-3363
▁write	-3364
▁finding	-3365
now	-3366
▁identify	-3367
▁rever	-3368
▁dang	-3369
▁advisable	-3370
▁strengthen	-3371
▁calm	-3372
▁Ly	-3373
▁Will	-3374
lor	-3375
▁inherit	-3376
▁nervous	-3377
▁job	-3378
▁26	-3379
▁disapp	-3380
▁send	-3381
▁fix	-3382
▁27	-3383
uke	-3384
▁rashes	-3385
▁paracetamol	-3386
▁kne	-3387
▁state	-3388
rition	-3389
▁compress	-3390
▁erection	-3391
rasonography	-3392
▁bronchodil	-3393
▁application	-3394
""	-3395
▁complex	-3396
▁conc	-3397
-7	-3398
resh	-3399
ula	-3400
hyl	-3401
▁testic	-3402
SH	-3403
treat	-3404
ished	-3405
apid	-3406
▁Tab	-3407
▁gastroenter	-3408
1)	-3409
▁deal	-3410
▁Per	-3411
▁conn	-3412
zed	-3413
▁gradually	-3414
utum	-3415
▁Phys	-3416
▁dull	-3417
▁inhib	-3418
▁plenty	-3419
▁UR	-3420
▁oxygen	-3421
▁internal	-3422
dep	-3423
▁BE	-3424
▁suffered	-3425
▁spasm	-3426
bility	-3427
▁elbow	-3428
▁hence	-3429
▁Many	-3430
▁woman	-3431
▁han	-3432
▁35	-3433
reb	-3434
rav	-3435
▁AM	-3436
lofen	-3437
▁mood	-3438
GH	-3439
UL	-3440
ophageal	-3441
immun	-3442
biotics	-3443
aste	-3444
▁HAVE	-3445
oun	-3446
osteroid	-3447
ateral	-3448
LD	-3449
▁persists	-3450
▁Bet	-3451
▁obes	-3452
ollow	-3453
▁snee	-3454
The	-3455
uctive	-3456
▁Under	-3457
BS	-3458
▁whee	-3459
▁attention	-3460
???	-3461
nis	-3462
▁scrot	-3463
▁school	-3464
▁guid	-3465
acid	-3466
▁antif	-3467
▁consulted	-3468
▁follicle	-3469
▁instr	-3470
mic	-3471
▁duct	-3472
▁PR	-3473
astro	-3474
unk	-3475
▁collect	-3476
▁grand	-3477
amines	-3478
▁minor	-3479
aly	-3480
▁consist	-3481
▁DO	-3482
itations	-3483
▁permanent	-3484
▁UTI	-3485
▁cycles	-3486
ned	-3487
▁build	-3488
▁feature	-3489
▁Second	-3490
▁prior	-3491
▁condom	-3492
▁vacc	-3493
▁arr	-3494
▁Here	-3495
▁episode	-3496
▁Start	-3497
▁mig	-3498
▁alone	-3499
▁pancre	-3500
▁blister	-3501
▁neur	-3502
▁involve	-3503
▁GP	-3504
▁scrat	-3505
▁metab	-3506
US	-3507
▁sac	-3508
▁scalp	-3509
▁Sign	-3510
▁gastritis	-3511
▁glucose	-3512
▁angi	-3513
ational	-3514
vention	-3515
▁artery	-3516
▁analgesics	-3517
sc	-3518
TS	-3519
friend	-3520
▁tre	-3521
oga	-3522
▁passing	-3523
▁ing	-3524
iday	-3525
▁Dia	-3526
raid	-3527
▁fear	-3528
▁cover	-3529
▁Medical	-3530
lied	-3531
ths	-3532
which	-3533
erms	-3534
room	-3535
▁examine	-3536
ulos	-3537
▁Hyper	-3538
ds	-3539
▁toget	-3540
▁mill	-3541
aps	-3542
oimmun	-3543
▁cavity	-3544
▁electroly	-3545
ics	-3546
▁sweat	-3547
▁together	-3548
▁ejaculation	-3549
▁enlarge	-3550
▁domin	-3551
▁redness	-3552
▁psychological	-3553
▁products	-3554
▁lately	-3555
▁affects	-3556
▁bilirubin	-3557
▁steps	-3558
▁corticosteroid	-3559
ules	-3560
▁perf	-3561
▁mainly	-3562
▁single	-3563
▁exclude	-3564
lessness	-3565
ote	-3566
▁date	-3567
▁subside	-3568
round	-3569
▁Signs	-3570
▁acne	-3571
▁expert	-3572
▁Low	-3573
lofenac	-3574
anced	-3575
▁ears	-3576
▁investigated	-3577
▁Health	-3578
▁facts	-3579
▁45	-3580
▁basis	-3581
▁described	-3582
▁guidance	-3583
▁tip	-3584
itary	-3585
▁kill	-3586
▁became	-3587
▁ME	-3588
after	-3589
▁quit	-3590
▁memory	-3591
▁follows	-3592
▁afraid	-3593
▁usual	-3594
▁motility	-3595
▁nar	-3596
▁contraceptive	-3597
▁lose	-3598
▁breathe	-3599
▁lig	-3600
stic	-3601
au	-3602
ipp	-3603
iclofenac	-3604
▁broken	-3605
standing	-3606
ilep	-3607
▁max	-3608
▁resolved	-3609
▁NOT	-3610
.5.	-3611
▁habits	-3612
▁kids	-3613
urance	-3614
▁fit	-3615
assium	-3616
▁neurological	-3617
▁verteb	-3618
▁boyfriend	-3619
▁adequate	-3620
HP	-3621
▁extra	-3622
▁jaundice	-3623
▁percentage	-3624
lan	-3625
▁Clin	-3626
▁contains	-3627
▁practice	-3628
▁inheritance	-3629
▁parents	-3630
▁fet	-3631
▁anest	-3632
▁bother	-3633
▁rapid	-3634
▁delayed	-3635
▁haven	-3636
▁drinking	-3637
just	-3638
▁ball	-3639
ru	-3640
oriasis	-3641
oimmune	-3642
▁dominant	-3643
▁indicates	-3644
▁sides	-3645
icial	-3646
rogen	-3647
▁antis	-3648
▁Go	-3649
▁prefer	-3650
apse	-3651
▁Ap	-3652
▁urg	-3653
▁relaxant	-3654
▁doses	-3655
▁determine	-3656
idney	-3657
▁base	-3658
▁friends	-3659
▁genes	-3660
▁colle	-3661
ators	-3662
▁YOU	-3663
arily	-3664
▁allow	-3665
na	-3666
▁throughout	-3667
▁mark	-3668
vitamin	-3669
▁Ultrasound	-3670
▁Neu	-3671
▁pls	-3672
eared	-3673
soriasis	-3674
▁chrom	-3675
andom	-3676
▁view	-3677
▁sorry	-3678
hin	-3679
▁rub	-3680
rum	-3681
PH	-3682
▁aches	-3683
▁abnormality	-3684
▁0.	-3685
▁Aut	-3686
▁pelvis	-3687
▁SGPT	-3688
ograph	-3689
▁typically	-3690
▁developing	-3691
▁drugs	-3692
▁inhaler	-3693
rowing	-3694
▁seizure	-3695
Al	-3696
oce	-3697
▁fresh	-3698
uloskeletal	-3699
tle	-3700
▁Nothing	-3701
▁house	-3702
▁implant	-3703
▁aspiration	-3704
ONE	-3705
▁pulse	-3706
▁ChatDoctorI	-3707
▁29	-3708
▁chemo	-3709
AIN	-3710
▁role	-3711
▁overweight	-3712
▁plz	-3713
hosis	-3714
▁fiber	-3715
▁People	-3716
▁chemical	-3717
▁Dise	-3718
▁heat	-3719
▁tightness	-3720
▁hormones	-3721
▁GI	-3722
▁pad	-3723
erol	-3724
heral	-3725
▁growing	-3726
otherapist	-3727
▁URL	-3728
▁Int	-3729
▁pound	-3730
▁balance	-3731
▁forward	-3732
▁urination	-3733
▁progesterone	-3734
omb	-3735
▁ovary	-3736
▁Met	-3737
▁accum	-3738
tered	-3739
▁lear	-3740
▁showing	-3741
▁adult	-3742
........	-3743
bul	-3744
▁worsen	-3745
enosis	-3746
▁sputum	-3747
▁AD	-3748
▁deg	-3749
aving	-3750
▁endometri	-3751
▁antifungal	-3752
▁SH	-3753
▁bend	-3754
▁tons	-3755
▁sperms	-3756
▁whenever	-3757
▁wake	-3758
▁veins	-3759
▁den	-3760
▁bile	-3761
stit	-3762
▁OR	-3763
▁pha	-3764
▁toe	-3765
▁carefully	-3766
▁immunity	-3767
pes	-3768
enol	-3769
unt	-3770
▁swell	-3771
▁wanted	-3772
▁resist	-3773
▁saying	-3774
▁evaluate	-3775
▁stim	-3776
ining	-3777
▁lipid	-3778
▁sched	-3779
▁platelet	-3780
▁choice	-3781
▁decreased	-3782
odies	-3783
kn	-3784
▁cond	-3785
CH	-3786
▁RE	-3787
▁dri	-3788
VER	-3789
.1.	-3790
ectomy	-3791
▁Main	-3792
▁saliv	-3793
▁About	-3794
▁moving	-3795
▁hematoma	-3796
ources	-3797
overed	-3798
onary	-3799
▁bigger	-3800
▁origin	-3801
seling	-3802
hyd	-3803
▁tin	-3804
-10	-3805
ank	-3806
arding	-3807
▁stuff	-3808
▁uncomfortable	-3809
▁began	-3810
▁constantly	-3811
ontinue	-3812
3)	-3813
▁impair	-3814
▁carry	-3815
▁dialysis	-3816
▁moderate	-3817
▁progressive	-3818
▁ste	-3819
20	-3820
amet	-3821
▁calcul	-3822
▁dysp	-3823
▁inflam	-3824
▁unlike	-3825
▁vein	-3826
ier	-3827
▁Dep	-3828
▁hrs	-3829
leg	-3830
▁cage	-3831
▁progress	-3832
cking	-3833
▁Oral	-3834
▁misc	-3835
▁Feel	-3836
▁research	-3837
▁Furthermore	-3838
▁onset	-3839
▁sweating	-3840
▁cost	-3841
▁juice	-3842
▁random	-3843
racted	-3844
▁appro	-3845
▁ligam	-3846
▁Surgery	-3847
▁complaint	-3848
tirizine	-3849
urop	-3850
tire	-3851
▁beta	-3852
▁tear	-3853
rd	-3854
▁tumors	-3855
▁complaints	-3856
▁CBC	-3857
▁pict	-3858
▁micro	-3859
▁collected	-3860
▁facing	-3861
▁proteins	-3862
izing	-3863
▁childhood	-3864
▁spotting	-3865
▁havent	-3866
▁arrhyth	-3867
▁pulled	-3868
▁nutrition	-3869
une	-3870
▁deli	-3871
▁inches	-3872
▁palpitations	-3873
▁Meanwhile	-3874
▁talking	-3875
con	-3876
▁soc	-3877
▁persistent	-3878
▁leaf	-3879
▁stenosis	-3880
▁bring	-3881
▁""	-3882
▁hor	-3883
▁thrice	-3884
▁est	-3885
yst	-3886
▁knees	-3887
tia	-3888
▁sample	-3889
▁nearby	-3890
▁inte	-3891
▁vaccine	-3892
▁HERD	-3893
▁continued	-3894
aces	-3895
noon	-3896
10	-3897
:-	-3898
▁cyt	-3899
▁Only	-3900
▁limb	-3901
▁CAN	-3902
heum	-3903
over	-3904
lox	-3905
▁congestion	-3906
ugg	-3907
▁75	-3908
▁dosage	-3909
▁rise	-3910
▁Follow	-3911
▁Although	-3912
essions	-3913
▁migrain	-3914
▁performed	-3915
▁ent	-3916
mples	-3917
▁travel	-3918
▁amox	-3919
AK	-3920
▁scrotum	-3921
sh	-3922
vice	-3923
▁enlargement	-3924
▁seek	-3925
entation	-3926
▁perfect	-3927
▁detected	-3928
Don	-3929
▁values	-3930
▁exactly	-3931
ills	-3932
AB	-3933
known	-3934
eration	-3935
ophag	-3936
▁thromb	-3937
▁Cancer	-3938
▁od	-3939
▁urologist	-3940
▁evid	-3941
▁lev	-3942
▁supplement	-3943
ined	-3944
▁lbs	-3945
▁applied	-3946
▁reducing	-3947
▁potassium	-3948
▁sufficient	-3949
▁musculoskeletal	-3950
▁describe	-3951
▁everyday	-3952
▁90	-3953
▁suspect	-3954
▁entire	-3955
▁lotion	-3956
rhosis	-3957
▁seb	-3958
▁Both	-3959
▁Approxim	-3960
▁endoscopy	-3961
▁More	-3962
▁decided	-3963
▁prolong	-3964
▁oily	-3965
▁guess	-3966
ony	-3967
▁weigh	-3968
oy	-3969
▁playing	-3970
▁surf	-3971
mature	-3972
aceous	-3973
ites	-3974
▁Had	-3975
▁typhoid	-3976
It	-3977
▁80	-3978
▁Need	-3979
▁prognosis	-3980
▁restr	-3981
▁moment	-3982
▁Pos	-3983
lytic	-3984
▁Every	-3985
▁During	-3986
▁ven	-3987
morrow	-3988
▁waiting	-3989
▁fain	-3990
▁relieved	-3991
▁High	-3992
▁glands	-3993
▁lap	-3994
itions	-3995
▁hearing	-3996
▁miscar	-3997
▁estimate	-3998
▁tubes	-3999
▁Psych	-4000
yur	-4001
▁taste	-4002
▁Diab	-4003
depress	-4004
ergic	-4005
▁brief	-4006
▁Function	-4007
▁metast	-4008
▁keeps	-4009
▁smoker	-4010
▁caps	-4011
▁round	-4012
▁aggrav	-4013
▁unlikely	-4014
ify	-4015
000	-4016
ITH	-4017
iving	-4018
▁facial	-4019
▁continuous	-4020
▁nor	-4021
▁fully	-4022
▁Due	-4023
▁discussing	-4024
.)	-4025
▁tomorrow	-4026
▁Regarding	-4027
▁patches	-4028
▁Hyp	-4029
oney	-4030
▁Europ	-4031
▁heard	-4032
▁lying	-4033
NA	-4034
idazole	-4035
▁Still	-4036
▁Se	-4037
▁expected	-4038
▁48	-4039
▁production	-4040
▁intra	-4041
▁ess	-4042
▁relaxed	-4043
▁wheezing	-4044
▁flat	-4045
▁posture	-4046
▁dad	-4047
▁location	-4048
25	-4049
▁seemed	-4050
▁afternoon	-4051
EST	-4052
ronch	-4053
▁copy	-4054
▁Much	-4055
how	-4056
▁counter	-4057
▁mens	-4058
▁undergone	-4059
▁marrow	-4060
CV	-4061
NAC	-4062
▁flo	-4063
▁strength	-4064
▁replacement	-4065
▁ulcers	-4066
▁sod	-4067
esides	-4068
▁forget	-4069
▁neuropathy	-4070
EG	-4071
▁insurance	-4072
----	-4073
▁secre	-4074
▁leafy	-4075
▁turned	-4076
▁intestinal	-4077
aining	-4078
ulitis	-4079
▁contacting	-4080
▁initial	-4081
OUR	-4082
with	-4083
▁webs	-4084
itting	-4085
ushing	-4086
▁ureter	-4087
▁meal	-4088
doctor	-4089
▁armp	-4090
▁produce	-4091
▁Disease	-4092
▁sessions	-4093
▁profession	-4094
▁unknown	-4095
▁seconds	-4096
ky	-4097
▁ach	-4098
ylenol	-4099
ulated	-4100
▁remains	-4101
▁complaining	-4102
▁inser	-4103
▁)	-4104
▁bruising	-4105
▁chew	-4106
▁AS	-4107
▁ovaries	-4108
▁ye	-4109
▁molar	-4110
▁gastric	-4111
ets	-4112
▁Ar	-4113
▁death	-4114
ChatDoctor	-4115
▁autoimmune	-4116
rof	-4117
▁band	-4118
▁interest	-4119
▁confirmation	-4120
leen	-4121
▁perip	-4122
▁bloating	-4123
istry	-4124
▁CH	-4125
olism	-4126
▁wants	-4127
▁dangerous	-4128
▁release	-4129
▁temporary	-4130
▁herni	-4131
▁speed	-4132
uous	-4133
▁prop	-4134
▁leave	-4135
ification	-4136
▁pig	-4137
▁stent	-4138
oli	-4139
▁works	-4140
▁Urologist	-4141
▁resources	-4142
uls	-4143
▁rect	-4144
lasia	-4145
▁lips	-4146
▁Liver	-4147
▁stic	-4148
urg	-4149
▁blocked	-4150
▁European	-4151
▁chromos	-4152
▁congen	-4153
▁ct	-4154
▁labor	-4155
▁psoriasis	-4156
▁Kidney	-4157
omas	-4158
▁emo	-4159
▁keeping	-4160
▁drop	-4161
▁unus	-4162
idence	-4163
▁weird	-4164
uctions	-4165
▁inflamed	-4166
▁class	-4167
▁reve	-4168
▁insulin	-4169
▁anyone	-4170
▁kept	-4171
Please	-4172
days	-4173
▁Acc	-4174
▁intense	-4175
▁soap	-4176
olute	-4177
ought	-4178
▁depos	-4179
UI	-4180
▁decide	-4181
▁antiseptic	-4182
this	-4183
och	-4184
▁Another	-4185
ondyl	-4186
yr	-4187
mer	-4188
ophen	-4189
▁sour	-4190
▁150	-4191
viron	-4192
cinoma	-4193
▁frequencies	-4194
▁iam	-4195
istic	-4196
▁%	-4197
▁fractions	-4198
▁recurrence	-4199
reskin	-4200
▁vitamins	-4201
8.	-4202
do	-4203
ested	-4204
▁measure	-4205
abase	-4206
cious	-4207
▁Recently	-4208
▁enc	-4209
▁hole	-4210
▁database	-4211
▁basic	-4212
▁Maintain	-4213
▁Over	-4214
▁referred	-4215
▁Understanding	-4216
▁spleen	-4217
di	-4218
▁hyd	-4219
▁patch	-4220
▁resulting	-4221
aus	-4222
ocks	-4223
▁helping	-4224
▁functions	-4225
▁antihistamines	-4226
▁physiotherapist	-4227
▁meat	-4228
▁ways	-4229
▁mater	-4230
▁edema	-4231
▁intestine	-4232
▁investigate	-4233
▁ec	-4234
▁CON	-4235
▁antihistamine	-4236
▁Post	-4237
▁definitions	-4238
▁bp	-4239
▁moist	-4240
9.	-4241
▁detect	-4242
▁putting	-4243
▁degenerative	-4244
ensity	-4245
▁Approximate	-4246
▁responsible	-4247
▁neph	-4248
7.	-4249
He	-4250
▁Orp	-4251
▁abortion	-4252
uces	-4253
▁Orphan	-4254
▁enzyme	-4255
▁Urine	-4256
▁esophag	-4257
▁boil	-4258
ictionary	-4259
HPO	-4260
▁72	-4261
▁Orphanet	-4262
▁Dictionary	-4263
tioned	-4264
▁extent	-4265
▁psychologist	-4266
▁fig	-4267
▁ring	-4268
▁cleaning	-4269
▁arrhythmia	-4270
▁Aug	-4271
▁yoga	-4272
esophageal	-4273
DL	-4274
hesia	-4275
ilt	-4276
▁foreskin	-4277
erve	-4278
▁meditation	-4279
otic	-4280
▁confused	-4281
▁website	-4282
▁shape	-4283
urgeon	-4284
▁isn	-4285
▁Give	-4286
▁improving	-4287
▁highly	-4288
ission	-4289
ots	-4290
▁vent	-4291
▁opening	-4292
▁essential	-4293
selling	-4294
▁cirrhosis	-4295
ained	-4296
▁powder	-4297
▁discussion	-4298
▁healed	-4299
▁strengthening	-4300
▁tiny	-4301
ination	-4302
mentioned	-4303
▁Hem	-4304
▁hemorr	-4305
▁supply	-4306
xiety	-4307
iable	-4308
▁multivitamin	-4309
▁sounds	-4310
▁bronchodilators	-4311
▁tot	-4312
ject	-4313
▁infectious	-4314
olor	-4315
▁Read	-4316
ana	-4317
▁ALT	-4318
▁Ibuprofen	-4319
oly	-4320
▁blockage	-4321
▁prepar	-4322
▁tox	-4323
▁instructions	-4324
acin	-4325
itten	-4326
habil	-4327
▁smaller	-4328
▁planning	-4329
IR	-4330
▁third	-4331
▁creams	-4332
▁rabies	-4333
▁WITH	-4334
▁clots	-4335
▁Ser	-4336
▁calf	-4337
▁watch	-4338
▁performing	-4339
▁ton	-4340
▁xray	-4341
▁pillow	-4342
▁thus	-4343
YYYY	-4344
▁lasted	-4345
AP	-4346
his	-4347
▁Wishes	-4348
aminophen	-4349
▁card	-4350
vironment	-4351
▁peripheral	-4352
▁Would	-4353
▁Testing	-4354
fortun	-4355
osin	-4356
▁anymore	-4357
▁action	-4358
▁LI	-4359
▁true	-4360
ened	-4361
▁ones	-4362
estinal	-4363
▁differen	-4364
▁assistance	-4365
ret	-4366
rew	-4367
▁coronary	-4368
▁breathlessness	-4369
▁ultrasonography	-4370
▁impact	-4371
▁famil	-4372
▁delivery	-4373
aneous	-4374
wo	-4375
▁fair	-4376
▁valve	-4377
ked	-4378
YYY	-4379
▁YYYY	-4380
▁Dec	-4381
ophil	-4382
▁toes	-4383
eech	-4384
▁quickly	-4385
▁forms	-4386
GE	-4387
▁fibrosis	-4388
▁Short	-4389
ESS	-4390
▁space	-4391
▁depressed	-4392
UM	-4393
tigo	-4394
▁filled	-4395
▁clarification	-4396
steop	-4397
LO	-4398
▁massage	-4399
▁32	-4400
▁menses	-4401
▁remedy	-4402
▁particularly	-4403
▁spl	-4404
▁lit	-4405
▁shown	-4406
habilitation	-4407
some	-4408
▁focus	-4409
▁squee	-4410
▁admitted	-4411
KG	-4412
▁appeared	-4413
▁checking	-4414
▁totally	-4415
▁beginning	-4416
▁larg	-4417
▁Spec	-4418
▁apart	-4419
▁folic	-4420
ASE	-4421
▁FNAC	-4422
▁Physi	-4423
ortive	-4424
▁cytology	-4425
▁reac	-4426
▁feeding	-4427
▁sores	-4428
▁radiating	-4429
▁31	-4430
▁Paracetamol	-4431
▁button	-4432
▁Infection	-4433
▁mec	-4434
▁continues	-4435
▁malignant	-4436
▁altered	-4437
▁central	-4438
▁upset	-4439
▁Physician	-4440
oxid	-4441
▁thoroughly	-4442
▁rins	-4443
etaminophen	-4444
▁noted	-4445
▁cereb	-4446
▁absolute	-4447
▁toler	-4448
CE	-4449
▁beats	-4450
▁yeast	-4451
▁born	-4452
▁surround	-4453
Pulmonary	-4454
ire	-4455
▁worst	-4456
▁bathroom	-4457
ocol	-4458
▁counts	-4459
▁70	-4460
▁characterized	-4461
▁morph	-4462
bone	-4463
related	-4464
ilet	-4465
imum	-4466
itch	-4467
▁counselling	-4468
omeg	-4469
▁nail	-4470
▁pink	-4471
gnitive	-4472
▁appreciated	-4473
▁imaging	-4474
▁peel	-4475
▁sneezing	-4476
▁therefore	-4477
ceed	-4478
▁Registry	-4479
thanks	-4480
urning	-4481
▁pounds	-4482
▁inhalation	-4483
pler	-4484
▁While	-4485
uria	-4486
▁environment	-4487
▁reach	-4488
▁Autosomal	-4489
▁Ther	-4490
load	-4491
oppler	-4492
▁across	-4493
▁electrolytes	-4494
▁office	-4495
▁congenital	-4496
▁Hear	-4497
▁Fr	-4498
▁nice	-4499
ronidazole	-4500
▁400	-4501
▁colonoscopy	-4502
▁epilep	-4503
▁damaged	-4504
▁empty	-4505
▁relation	-4506
▁anxious	-4507
▁impairment	-4508
▁easy	-4509
▁love	-4510
▁herpes	-4511
alin	-4512
▁vascular	-4513
▁shoot	-4514
▁prolonged	-4515
▁ahead	-4516
▁managed	-4517
▁MD	-4518
▁Review	-4519
▁immediate	-4520
▁platelets	-4521
ays	-4522
hetic	-4523
spec	-4524
▁broad	-4525
▁speech	-4526
▁Co	-4527
▁careful	-4528
▁fertility	-4529
uly	-4530
ardia	-4531
▁33	-4532
▁piec	-4533
▁filling	-4534
▁sed	-4535
▁IVF	-4536
▁trials	-4537
▁received	-4538
go	-4539
▁located	-4540
▁Why	-4541
▁Dis	-4542
▁vaccin	-4543
IM	-4544
arely	-4545
▁supportive	-4546
▁(2	-4547
▁crack	-4548
ton	-4549
▁According	-4550
iative	-4551
▁trig	-4552
▁dermatitis	-4553
arc	-4554
Also	-4555
▁vol	-4556
4)	-4557
rec	-4558
▁esophagus	-4559
▁sometime	-4560
▁aware	-4561
▁bending	-4562
▁phot	-4563
▁affecting	-4564
occ	-4565
▁qual	-4566
▁2.5	-4567
▁WBC	-4568
▁chills	-4569
▁BUT	-4570
▁providing	-4571
AST	-4572
▁Musc	-4573
▁reveal	-4574
▁Therefore	-4575
EM	-4576
▁crying	-4577
ukemia	-4578
▁arteries	-4579
▁Sc	-4580
▁armpit	-4581
▁offer	-4582
▁accomp	-4583
▁bulge	-4584
GHT	-4585
vers	-4586
osa	-4587
SAID	-4588
▁solve	-4589
▁Vitamin	-4590
▁Though	-4591
▁avoiding	-4592
icitis	-4593
▁indicated	-4594
▁Ep	-4595
atin	-4596
▁evidence	-4597
▁compresses	-4598
▁II	-4599
ells	-4600
▁gargles	-4601
treating	-4602
▁Therap	-4603
▁forehead	-4604
▁aff	-4605
▁cramping	-4606
▁worked	-4607
▁Chronic	-4608
ended	-4609
years	-4610
▁injured	-4611
▁systemic	-4612
-8	-4613
idal	-4614
▁member	-4615
▁stiffness	-4616
opathic	-4617
▁Doctors	-4618
▁(1	-4619
▁AT	-4620
▁om	-4621
▁carb	-4622
▁SU	-4623
otor	-4624
aling	-4625
▁social	-4626
▁Hepatitis	-4627
▁limbs	-4628
▁placed	-4629
rog	-4630
▁proton	-4631
ocytes	-4632
▁Vis	-4633
▁chicken	-4634
▁living	-4635
▁prone	-4636
▁initially	-4637
▁amoxicillin	-4638
▁1-2	-4639
▁India	-4640
▁earliest	-4641
▁AI	-4642
creat	-4643
▁antacid	-4644
▁substance	-4645
▁Ben	-4646
▁eggs	-4647
▁value	-4648
▁lymphoma	-4649
▁nipp	-4650
▁resting	-4651
wash	-4652
▁YOUR	-4653
▁Diagnos	-4654
▁surface	-4655
rad	-4656
▁becoming	-4657
▁stopping	-4658
EAR	-4659
▁vary	-4660
ison	-4661
▁Rep	-4662
▁mutation	-4663
nel	-4664
▁ische	-4665
back	-4666
ternal	-4667
▁rarely	-4668
▁bilateral	-4669
▁epid	-4670
......	-4671
▁benefit	-4672
▁picture	-4673
▁sexually	-4674
ocon	-4675
▁visible	-4676
iod	-4677
achy	-4678
▁HiT	-4679
▁worm	-4680
ales	-4681
3,	-4682
▁adjust	-4683
IA	-4684
uk	-4685
▁Cons	-4686
▁junk	-4687
▁floor	-4688
▁HEL	-4689
tiv	-4690
▁neural	-4691
airs	-4692
▁broke	-4693
plasia	-4694
ectrum	-4695
▁added	-4696
▁spondyl	-4697
▁material	-4698
bed	-4699
ris	-4700
▁36	-4701
▁calc	-4702
▁reported	-4703
orts	-4704
hythm	-4705
▁Along	-4706
▁pa	-4707
iatic	-4708
▁Regular	-4709
▁pancreas	-4710
▁Doppler	-4711
▁EKG	-4712
ball	-4713
itus	-4714
▁rot	-4715
bear	-4716
cardia	-4717
ontroll	-4718
▁screen	-4719
ov	-4720
body	-4721
▁preg	-4722
▁100%	-4723
▁strange	-4724
▁moved	-4725
▁sebaceous	-4726
▁toilet	-4727
cope	-4728
ato	-4729
▁Car	-4730
▁cool	-4731
▁unusual	-4732
▁urgent	-4733
ocal	-4734
year	-4735
▁professional	-4736
▁tail	-4737
▁AB	-4738
oint	-4739
▁finally	-4740
▁limited	-4741
▁ate	-4742
rial	-4743
▁pap	-4744
oe	-4745
▁terrible	-4746
▁Diabetes	-4747
adine	-4748
▁exer	-4749
autions	-4750
ml	-4751
▁la	-4752
▁note	-4753
oprazole	-4754
▁operated	-4755
▁assistant	-4756
▁See	-4757
▁Tests	-4758
▁Pan	-4759
▁unw	-4760
▁inse	-4761
atively	-4762
fortunately	-4763
gu	-4764
▁stretching	-4765
met	-4766
▁THAT	-4767
▁Monday	-4768
▁ligament	-4769
hip	-4770
▁spas	-4771
▁allergen	-4772
▁involvement	-4773
▁Cal	-4774
▁pick	-4775
imin	-4776
▁mis	-4777
▁improved	-4778
▁strenuous	-4779
▁Adv	-4780
▁suspected	-4781
▁65	-4782
▁End	-4783
▁personal	-4784
▁Fever	-4785
▁world	-4786
alliative	-4787
▁online	-4788
▁sear	-4789
▁Right	-4790
1,	-4791
▁ran	-4792
▁nearly	-4793
▁anus	-4794
▁finished	-4795
▁occasionally	-4796
▁rupture	-4797
OPD	-4798
▁exposed	-4799
▁55	-4800
ster	-4801
▁spectrum	-4802
let	-4803
▁accur	-4804
asty	-4805
▁Doc	-4806
▁posterior	-4807
kg	-4808
▁rheum	-4809
▁whats	-4810
▁Normal	-4811
intestinal	-4812
▁tenderness	-4813
▁miscarriage	-4814
▁soreness	-4815
▁disability	-4816
tid	-4817
▁vo	-4818
oles	-4819
▁suit	-4820
▁SP	-4821
rast	-4822
▁gra	-4823
▁probable	-4824
▁mix	-4825
▁wide	-4826
▁pleur	-4827
ses	-4828
▁thinks	-4829
▁obvious	-4830
▁hank	-4831
loxacin	-4832
▁larger	-4833
▁collar	-4834
mber	-4835
▁spray	-4836
▁acidity	-4837
▁Antibiotics	-4838
OG	-4839
▁4-5	-4840
▁6.	-4841
cyst	-4842
urally	-4843
buterol	-4844
▁avoided	-4845
▁dysplasia	-4846
dl	-4847
▁comfortable	-4848
▁fom	-4849
kast	-4850
▁relations	-4851
erally	-4852
▁Continue	-4853
ffee	-4854
ribut	-4855
▁okay	-4856
▁underw	-4857
▁transf	-4858
ming	-4859
▁pee	-4860
▁mins	-4861
▁losing	-4862
▁THIS	-4863
▁37	-4864
▁erup	-4865
▁sodium	-4866
▁formed	-4867
nea	-4868
▁lax	-4869
▁lymp	-4870
▁painless	-4871
▁wont	-4872
pha	-4873
got	-4874
▁2)	-4875
lear	-4876
▁dyst	-4877
▁collection	-4878
▁minimal	-4879
▁General	-4880
hi	-4881
outs	-4882
▁crown	-4883
▁quality	-4884
ffe	-4885
▁masturbate	-4886
mit	-4887
sequ	-4888
▁oste	-4889
▁vari	-4890
▁cleared	-4891
▁wearing	-4892
▁Clinical	-4893
▁Li	-4894
▁ging	-4895
▁mess	-4896
▁request	-4897
▁injuries	-4898
▁extracted	-4899
▁couldnt	-4900
▁lasts	-4901
oscopic	-4902
▁precautions	-4903
ters	-4904
▁fertile	-4905
▁therapist	-4906
▁supposed	-4907
▁decay	-4908
algia	-4909
aced	-4910
ella	-4911
hers	-4912
▁degree	-4913
▁Cont	-4914
▁mechan	-4915
▁protr	-4916
▁considering	-4917
hyroidism	-4918
▁worrying	-4919
arian	-4920
▁lateral	-4921
▁reduction	-4922
▁wet	-4923
▁ureth	-4924
▁carcinoma	-4925
eng	-4926
▁anesthesia	-4927
▁Soon	-4928
▁purp	-4929
▁methods	-4930
ulating	-4931
▁HIV	-4932
aks	-4933
▁stabil	-4934
▁Was	-4935
▁fasting	-4936
▁iv	-4937
▁among	-4938
▁lipoma	-4939
▁emotion	-4940
▁sum	-4941
rated	-4942
▁complication	-4943
▁SE	-4944
▁Sep	-4945
▁inch	-4946
romycin	-4947
▁thats	-4948
▁osteop	-4949
▁functioning	-4950
▁speedy	-4951
rophic	-4952
enal	-4953
▁push	-4954
▁sept	-4955
lfriend	-4956
▁mouthwash	-4957
put	-4958
months	-4959
amp	-4960
lukast	-4961
ND	-4962
▁blue	-4963
▁300	-4964
▁absor	-4965
▁migraine	-4966
▁sinusitis	-4967
vision	-4968
▁bony	-4969
oplasia	-4970
▁source	-4971
▁stressed	-4972
▁COPD	-4973
▁Friday	-4974
▁address	-4975
oon	-4976
ontal	-4977
▁babies	-4978
Is	-4979
▁ign	-4980
▁trem	-4981
▁weights	-4982
▁eventually	-4983
telukast	-4984
umin	-4985
▁circum	-4986
What	-4987
▁occurred	-4988
▁qualified	-4989
▁skull	-4990
▁appearance	-4991
sure	-4992
ATION	-4993
▁fight	-4994
▁glass	-4995
Welcome	-4996
gestive	-4997
unct	-4998
ortic	-4999
▁sprain	-5000
▁protect	-5001
▁Sw	-5002
verage	-5003
inked	-5004
▁blisters	-5005
cto	-5006
▁Special	-5007
▁microscop	-5008
▁fomentation	-5009
que	-5010
CD	-5011
▁relaxation	-5012
nes	-5013
ids	-5014
utations	-5015
▁Pulmonary	-5016
▁chromosome	-5017
▁Me	-5018
urse	-5019
▁Mic	-5020
▁Gastro	-5021
▁girlfriend	-5022
fast	-5023
uming	-5024
▁chin	-5025
▁phase	-5026
▁marriage	-5027
▁follicular	-5028
izer	-5029
▁accumulation	-5030
▁premature	-5031
▁breasts	-5032
▁contraception	-5033
ctomy	-5034
▁Such	-5035
▁bar	-5036
▁prom	-5037
▁bus	-5038
▁intern	-5039
▁bruised	-5040
▁scans	-5041
▁Taking	-5042
▁overcome	-5043
▁Physiotherapy	-5044
4,	-5045
▁SO	-5046
▁Bronch	-5047
▁visual	-5048
▁structures	-5049
▁lobe	-5050
▁obesity	-5051
▁NO	-5052
eprazole	-5053
▁antidepress	-5054
▁varic	-5055
▁NE	-5056
▁completed	-5057
cter	-5058
oping	-5059
ocardi	-5060
▁NSAID	-5061
omegaly	-5062
▁ability	-5063
anu	-5064
▁quant	-5065
▁alternative	-5066
▁psychiatric	-5067
▁stages	-5068
▁diss	-5069
itors	-5070
▁accompan	-5071
▁approach	-5072
upus	-5073
▁las	-5074
umption	-5075
▁aspirin	-5076
▁epilepsy	-5077
antoprazole	-5078
upp	-5079
also	-5080
▁swallowing	-5081
ady	-5082
formin	-5083
cologist	-5084
▁planned	-5085
▁telling	-5086
ime	-5087
ortis	-5088
▁provider	-5089
▁Heart	-5090
acy	-5091
ork	-5092
ocyt	-5093
▁somewhat	-5094
▁metronidazole	-5095
▁asleep	-5096
vant	-5097
▁aged	-5098
▁harmful	-5099
▁malignancy	-5100
▁decision	-5101
ICS	-5102
▁pub	-5103
▁brush	-5104
▁shock	-5105
▁De	-5106
▁protection	-5107
▁AST	-5108
xid	-5109
▁prednis	-5110
uations	-5111
▁repair	-5112
▁falling	-5113
▁older	-5114
▁concentration	-5115
▁TAK	-5116
kal	-5117
▁Rest	-5118
▁testicle	-5119
▁1.5	-5120
▁comment	-5121
▁opp	-5122
▁shin	-5123
▁Therapy	-5124
ibr	-5125
▁CA	-5126
▁ARE	-5127
▁Col	-5128
▁ect	-5129
▁Gene	-5130
▁survi	-5131
▁identified	-5132
▁ALL	-5133
anted	-5134
▁flex	-5135
▁lact	-5136
▁dietary	-5137
▁1)	-5138
arin	-5139
▁PAIN	-5140
▁hav	-5141
▁tea	-5142
▁paras	-5143
▁Having	-5144
▁missing	-5145
▁Before	-5146
▁thumb	-5147
▁coffee	-5148
▁--	-5149
ift	-5150
omen	-5151
▁remedies	-5152
ying	-5153
▁cand	-5154
▁leak	-5155
2)	-5156
linked	-5157
tially	-5158
▁spreading	-5159
▁diclofenac	-5160
yly	-5161
unch	-5162
▁pimple	-5163
▁clinically	-5164
▁uric	-5165
▁horrible	-5166
▁simp	-5167
▁WE	-5168
.(	-5169
urday	-5170
▁Tylenol	-5171
▁diagnostic	-5172
▁Possi	-5173
oud	-5174
blood	-5175
ication	-5176
▁pimples	-5177
▁die	-5178
▁phosp	-5179
oar	-5180
▁WAS	-5181
▁spasms	-5182
▁naturally	-5183
amm	-5184
hyper	-5185
ait	-5186
▁Ce	-5187
IGHT	-5188
osterone	-5189
ERY	-5190
▁manif	-5191
▁vertebra	-5192
▁sense	-5193
▁physically	-5194
▁induced	-5195
▁stuck	-5196
▁applying	-5197
anuary	-5198
▁enter	-5199
▁surrounding	-5200
▁speak	-5201
▁Stress	-5202
▁vertigo	-5203
ider	-5204
▁Imp	-5205
aired	-5206
OME	-5207
▁allergens	-5208
▁learn	-5209
▁nights	-5210
▁lapar	-5211
▁died	-5212
▁mole	-5213
How	-5214
ode	-5215
▁IF	-5216
▁4-6	-5217
▁appendicitis	-5218
▁strict	-5219
▁accompanied	-5220
▁limit	-5221
▁trigger	-5222
▁Surgical	-5223
30	-5224
▁Red	-5225
verse	-5226
etine	-5227
▁Of	-5228
asma	-5229
allergic	-5230
▁Chan	-5231
▁atrophy	-5232
▁metabolic	-5233
▁HB	-5234
▁Hence	-5235
▁scien	-5236
achycardia	-5237
▁Bi	-5238
▁120	-5239
▁38	-5240
▁nurse	-5241
▁AC	-5242
▁Two	-5243
,000	-5244
PHONE	-5245
pain	-5246
doctors	-5247
XX	-5248
▁dig	-5249
inner	-5250
▁Yesterday	-5251
▁gallst	-5252
▁narrowing	-5253
INE	-5254
have	-5255
▁dead	-5256
▁stretch	-5257
▁uterine	-5258
▁watery	-5259
▁shoulders	-5260
▁Did	-5261
▁pit	-5262
▁badly	-5263
oxetine	-5264
▁fertil	-5265
▁brushing	-5266
▁difference	-5267
▁34	-5268
▁Sun	-5269
▁eng	-5270
▁prolapse	-5271
rade	-5272
▁counseling	-5273
▁advance	-5274
▁develops	-5275
imal	-5276
▁Ear	-5277
▁TSH	-5278
.2)	-5279
asone	-5280
▁Which	-5281
▁scratch	-5282
▁stabbing	-5283
OULD	-5284
▁anywhere	-5285
cyc	-5286
▁Feb	-5287
▁obese	-5288
reditary	-5289
▁isnt	-5290
▁MR	-5291
▁human	-5292
▁aden	-5293
▁meantime	-5294
dia	-5295
▁dro	-5296
▁faster	-5297
▁final	-5298
▁smear	-5299
▁figure	-5300
▁leukemia	-5301
ai	-5302
▁steam	-5303
▁relationship	-5304
opic	-5305
▁lat	-5306
▁lie	-5307
▁fish	-5308
PP	-5309
ogenic	-5310
ticaria	-5311
bbing	-5312
▁Ov	-5313
▁US	-5314
▁procedures	-5315
light	-5316
▁satisfied	-5317
ners	-5318
▁thighs	-5319
▁calculus	-5320
bac	-5321
▁FE	-5322
rectomy	-5323
▁conserv	-5324
▁aug	-5325
▁hum	-5326
▁none	-5327
olecyst	-5328
mall	-5329
▁140	-5330
pping	-5331
▁disappear	-5332
▁excision	-5333
▁war	-5334
▁vomit	-5335
▁inhibitors	-5336
pass	-5337
night	-5338
pite	-5339
▁urinate	-5340
▁CR	-5341
▁stairs	-5342
▁cleaned	-5343
▁structure	-5344
▁Vir	-5345
▁fibr	-5346
▁tends	-5347
▁radiograph	-5348
▁progression	-5349
▁ic	-5350
icted	-5351
▁puss	-5352
▁transmitted	-5353
▁wit	-5354
▁ease	-5355
temp	-5356
creatitis	-5357
▁Normally	-5358
atosis	-5359
ricular	-5360
▁cardio	-5361
▁tiredness	-5362
▁uncontroll	-5363
pro	-5364
????	-5365
actyly	-5366
▁eosin	-5367
▁rinses	-5368
▁million	-5369
ILL	-5370
iolytic	-5371
▁albuterol	-5372
▁resistance	-5373
ENS	-5374
ellect	-5375
adol	-5376
ocele	-5377
vate	-5378
▁chlor	-5379
▁sock	-5380
eu	-5381
▁lining	-5382
▁safely	-5383
▁depth	-5384
lyc	-5385
▁mit	-5386
▁Ayur	-5387
atives	-5388
▁rhythm	-5389
▁absolutely	-5390
▁dest	-5391
▁worsening	-5392
mi	-5393
cystic	-5394
▁Anxiety	-5395
▁Patient	-5396
▁kgs	-5397
lycer	-5398
▁couldn	-5399
▁surgeries	-5400
kinson	-5401
▁sided	-5402
▁actual	-5403
2,	-5404
▁EEG	-5405
▁runny	-5406
DS	-5407
RIN	-5408
▁pay	-5409
▁shots	-5410
aded	-5411
▁phen	-5412
rier	-5413
First	-5414
▁accept	-5415
▁average	-5416
▁April	-5417
▁demen	-5418
▁hourly	-5419
▁visited	-5420
▁fil	-5421
▁backache	-5422
▁leng	-5423
▁intervention	-5424
wee	-5425
reatening	-5426
uge	-5427
▁approxim	-5428
▁consumption	-5429
rib	-5430
▁posted	-5431
ria	-5432
▁Man	-5433
▁thicken	-5434
▁changing	-5435
oral	-5436
▁antibodies	-5437
▁piece	-5438
oids	-5439
ologram	-5440
▁colour	-5441
gic	-5442
utter	-5443
▁Incre	-5444
rosurgeon	-5445
has	-5446
atal	-5447
aneously	-5448
car	-5449
▁equ	-5450
actin	-5451
▁discovered	-5452
▁produced	-5453
ups	-5454
zema	-5455
▁intermitt	-5456
▁ankles	-5457
▁partial	-5458
▁reactive	-5459
▁dementia	-5460
▁trust	-5461
▁subsided	-5462
▁HELP	-5463
oliosis	-5464
hel	-5465
▁fetal	-5466
▁incision	-5467
▁Help	-5468
hene	-5469
▁season	-5470
▁sciatic	-5471
ellectual	-5472
▁MG	-5473
▁hanks	-5474
▁successful	-5475
▁manifest	-5476
!!!	-5477
▁myel	-5478
▁shower	-5479
▁substances	-5480
▁bat	-5481
▁feelings	-5482
joy	-5483
▁clothes	-5484
▁tonight	-5485
olone	-5486
▁Lymph	-5487
▁shift	-5488
▁saliva	-5489
▁shooting	-5490
▁beneficial	-5491
▁2010	-5492
▁tummy	-5493
▁gran	-5494
▁urea	-5495
▁Visit	-5496
▁interval	-5497
▁preventing	-5498
▁Pres	-5499
▁Child	-5500
▁Specialist	-5501
azep	-5502
▁undergoing	-5503
irm	-5504
▁5%	-5505
▁LE	-5506
▁bug	-5507
illary	-5508
▁bitten	-5509
resp	-5510
▁ray	-5511
ellent	-5512
▁released	-5513
bit	-5514
▁conscious	-5515
▁contrast	-5516
▁anxiolytic	-5517
ipe	-5518
▁hives	-5519
▁conduction	-5520
Im	-5521
ysm	-5522
You	-5523
▁pleural	-5524
▁points	-5525
▁purple	-5526
▁knot	-5527
▁fried	-5528
▁hardly	-5529
nec	-5530
▁bites	-5531
▁mri	-5532
ithromycin	-5533
5%	-5534
▁scler	-5535
▁FR	-5536
atoid	-5537
ursday	-5538
▁absence	-5539
▁involves	-5540
▁occasional	-5541
▁defects	-5542
pos	-5543
▁ANY	-5544
▁fav	-5545
▁sharing	-5546
▁preferably	-5547
lbs	-5548
▁aching	-5549
ocet	-5550
▁gap	-5551
▁Resp	-5552
▁conv	-5553
▁Mutations	-5554
emic	-5555
▁reviewed	-5556
▁Anyway	-5557
▁HAD	-5558
▁hung	-5559
▁upload	-5560
burn	-5561
▁chewing	-5562
▁DNA	-5563
▁Otherwise	-5564
▁fetus	-5565
▁cancerous	-5566
▁STD	-5567
▁length	-5568
▁promin	-5569
▁overall	-5570
oler	-5571
▁cos	-5572
▁dinner	-5573
▁Tr	-5574
uesday	-5575
▁palate	-5576
itic	-5577
▁God	-5578
▁fung	-5579
▁ended	-5580
romyalgia	-5581
▁relaxants	-5582
▁circulation	-5583
oura	-5584
▁females	-5585
adam	-5586
beat	-5587
▁Home	-5588
▁unbear	-5589
▁testicles	-5590
▁HIT	-5591
▁appendix	-5592
▁tachycardia	-5593
▁cit	-5594
▁track	-5595
rex	-5596
▁Mild	-5597
ipolar	-5598
▁gargle	-5599
▁husbands	-5600
▁PRO	-5601
▁Mast	-5602
ongest	-5603
▁Sept	-5604
jection	-5605
▁LFT	-5606
medic	-5607
▁Forum	-5608
▁Def	-5609
▁discolor	-5610
▁specially	-5611
▁ultra	-5612
▁blur	-5613
▁5-6	-5614
▁Eat	-5615
emen	-5616
▁cre	-5617
▁Orth	-5618
▁IU	-5619
▁approx	-5620
▁weather	-5621
▁external	-5622
acity	-5623
omatic	-5624
▁troub	-5625
▁reactions	-5626
PR	-5627
▁crit	-5628
▁emotional	-5629
▁previously	-5630
▁concentrate	-5631
▁GUI	-5632
ieved	-5633
▁huge	-5634
▁voice	-5635
▁inhibitor	-5636
▁unbearable	-5637
Meanwhile	-5638
▁characteristic	-5639
▁barely	-5640
rip	-5641
▁Cyst	-5642
▁cheeks	-5643
▁simply	-5644
▁maximum	-5645
▁money	-5646
▁roots	-5647
▁sized	-5648
dominal	-5649
itches	-5650
▁laying	-5651
.1	-5652
▁Ask	-5653
▁ord	-5654
▁sting	-5655
Take	-5656
▁apparent	-5657
▁hologram	-5658
▁pea	-5659
bacco	-5660
▁fruit	-5661
ades	-5662
perm	-5663
opian	-5664
▁malaria	-5665
▁intestines	-5666
bumin	-5667
ledge	-5668
▁stops	-5669
▁disturbances	-5670
ah	-5671
She	-5672
▁wasnt	-5673
▁anterior	-5674
▁Check	-5675
▁Better	-5676
▁hemorrha	-5677
▁Coun	-5678
▁Drug	-5679
▁scheduled	-5680
xture	-5681
▁Head	-5682
▁separ	-5683
▁survival	-5684
If	-5685
▁gym	-5686
▁rice	-5687
▁power	-5688
icking	-5689
vascular	-5690
term	-5691
▁Sat	-5692
▁char	-5693
▁gargling	-5694
▁oncologist	-5695
▁OK	-5696
otal	-5697
▁exertion	-5698
▁insect	-5699
▁quantity	-5700
▁Ok	-5701
take	-5702
▁Disc	-5703
▁exha	-5704
▁hips	-5705
▁cervix	-5706
PS	-5707
aren	-5708
lyce	-5709
▁attemp	-5710
▁standard	-5711
▁metabolism	-5712
▁RBC	-5713
▁drops	-5714
▁SC	-5715
FF	-5716
▁arth	-5717
imen	-5718
umed	-5719
▁hasnt	-5720
▁Following	-5721
▁pigmentation	-5722
ae	-5723
▁personality	-5724
▁wind	-5725
usions	-5726
▁grown	-5727
▁places	-5728
▁accurate	-5729
esis	-5730
▁rhin	-5731
iasis	-5732
▁typical	-5733
▁Diagnostic	-5734
ishing	-5735
▁tendon	-5736
▁Exerc	-5737
▁concl	-5738
ask	-5739
▁formula	-5740
▁endoc	-5741
▁infective	-5742
rag	-5743
entist	-5744
▁Serum	-5745
abl	-5746
▁law	-5747
▁pinched	-5748
▁involving	-5749
▁solid	-5750
▁sensations	-5751
ties	-5752
▁fist	-5753
ju	-5754
cod	-5755
sis	-5756
▁mach	-5757
▁contraction	-5758
▁hypothyroidism	-5759
ached	-5760
▁worries	-5761
ctober	-5762
▁shamp	-5763
▁alternate	-5764
dose	-5765
▁scen	-5766
▁Hypert	-5767
iates	-5768
▁insuff	-5769
▁volume	-5770
▁fibroid	-5771
▁continuously	-5772
itching	-5773
▁correl	-5774
ese	-5775
▁TM	-5776
ateg	-5777
▁Lip	-5778
▁enjoy	-5779
▁candid	-5780
sterectomy	-5781
▁land	-5782
▁dehyd	-5783
▁cystic	-5784
▁revert	-5785
▁MS	-5786
aine	-5787
▁Mor	-5788
▁diver	-5789
▁radiotherapy	-5790
▁throw	-5791
▁excellent	-5792
▁discoloration	-5793
▁poison	-5794
▁urethra	-5795
▁acetaminophen	-5796
▁cetirizine	-5797
▁approximately	-5798
legm	-5799
olin	-5800
▁motor	-5801
5-	-5802
amy	-5803
▁admin	-5804
▁crazy	-5805
▁enhan	-5806
▁lympha	-5807
▁knowledge	-5808
▁effusion	-5809
▁Ang	-5810
▁Scan	-5811
ulties	-5812
▁10-1	-5813
urbation	-5814
abalin	-5815
thyroid	-5816
▁bypass	-5817
▁Prot	-5818
▁colitis	-5819
11	-5820
This	-5821
▁closed	-5822
▁Mal	-5823
vedic	-5824
▁neuro	-5825
opram	-5826
▁puff	-5827
▁Asthma	-5828
inalysis	-5829
▁training	-5830
▁neurot	-5831
▁morphology	-5832
4-	-5833
road	-5834
▁heartbeat	-5835
▁scientif	-5836
▁ou	-5837
▁inst	-5838
▁reprod	-5839
▁relieving	-5840
▁vertebral	-5841
▁ll	-5842
▁Non	-5843
▁runs	-5844
▁swim	-5845
rist	-5846
▁ready	-5847
▁Lev	-5848
▁force	-5849
▁agents	-5850
SO	-5851
enia	-5852
▁wasn	-5853
▁words	-5854
▁varies	-5855
specific	-5856
▁breakfast	-5857
cut	-5858
isms	-5859
▁calor	-5860
▁members	-5861
▁protected	-5862
arest	-5863
▁socket	-5864
▁receive	-5865
▁decongest	-5866
▁indication	-5867
▁AR	-5868
▁nd	-5869
ChatDo	-5870
▁Multi	-5871
▁toxic	-5872
▁strongly	-5873
idge	-5874
▁trigg	-5875
▁amounts	-5876
▁tonsils	-5877
▁functional	-5878
ontist	-5879
▁Back	-5880
▁needles	-5881
▁paramet	-5882
▁Mo	-5883
acer	-5884
erved	-5885
▁Skin	-5886
▁Resear	-5887
▁National	-5888
▁ejaculate	-5889
▁laboratory	-5890
▁Renal	-5891
▁nutritional	-5892
▁feb	-5893
▁exist	-5894
▁nebul	-5895
▁clos	-5896
▁curable	-5897
▁throbbing	-5898
▁difficulties	-5899
ley	-5900
▁cran	-5901
▁bulging	-5902
ELL	-5903
stitute	-5904
▁balanced	-5905
▁whatever	-5906
acial	-5907
▁magn	-5908
▁roof	-5909
.?	-5910
▁eczema	-5911
▁bless	-5912
oplasty	-5913
▁bright	-5914
▁headed	-5915
▁testis	-5916
▁chi	-5917
▁Derm	-5918
▁Cardi	-5919
▁spont	-5920
▁proceed	-5921
ught	-5922
▁hasn	-5923
▁sinuses	-5924
▁weekend	-5925
ochond	-5926
isy	-5927
iary	-5928
▁surgically	-5929
oes	-5930
veda	-5931
▁ery	-5932
▁basically	-5933
cephal	-5934
▁raise	-5935
▁besides	-5936
TC	-5937
▁EX	-5938
onic	-5939
▁touching	-5940
But	-5941
▁angry	-5942
acterial	-5943
▁airways	-5944
▁marks	-5945
acing	-5946
▁double	-5947
ars	-5948
▁motions	-5949
▁user	-5950
▁malform	-5951
rab	-5952
▁Fe	-5953
REAT	-5954
adic	-5955
▁anger	-5956
complete	-5957
omes	-5958
▁GO	-5959
▁PCR	-5960
gnancy	-5961
▁polyp	-5962
▁risks	-5963
▁sweats	-5964
▁commun	-5965
▁Thyroid	-5966
▁subsides	-5967
▁Em	-5968
aret	-5969
▁persons	-5970
▁stressor	-5971
▁ev	-5972
ylori	-5973
▁March	-5974
▁Like	-5975
▁fairly	-5976
6,	-5977
▁7.	-5978
haps	-5979
▁Ech	-5980
▁phlegm	-5981
▁intoler	-5982
gpt	-5983
that	-5984
▁embry	-5985
▁fusion	-5986
▁greatly	-5987
▁organism	-5988
▁schedule	-5989
▁situations	-5990
oul	-5991
reet	-5992
▁create	-5993
▁clim	-5994
▁swab	-5995
▁frust	-5996
7,	-5997
▁DI	-5998
▁Ob	-5999
▁az	-6000
▁ast	-6001
▁copies	-6002
▁urinating	-6003
▁understanding	-6004
▁stated	-6005
▁locally	-6006
▁cognitive	-6007
▁pancreatitis	-6008
▁degeneration	-6009
HD	-6010
▁tet	-6011
inter	-6012
▁spin	-6013
▁adults	-6014
screen	-6015
▁faint	-6016
vices	-6017
▁moves	-6018
▁sleepy	-6019
▁Anything	-6020
▁screening	-6021
pr	-6022
bid	-6023
▁heaviness	-6024
▁section	-6025
orosis	-6026
▁tobacco	-6027
ffected	-6028
▁cancers	-6029
▁returned	-6030
▁sports	-6031
tained	-6032
oked	-6033
rical	-6034
▁laser	-6035
lev	-6036
▁GET	-6037
▁tall	-6038
ulf	-6039
▁pla	-6040
▁manner	-6041
Now	-6042
cision	-6043
▁strep	-6044
loc	-6045
▁Possibility	-6046
50	-6047
actor	-6048
▁Palliative	-6049
▁Hallow	-6050
▁nipple	-6051
▁HAS	-6052
▁removing	-6053
▁52	-6054
ellar	-6055
▁touched	-6056
▁computer	-6057
▁angiography	-6058
acral	-6059
▁menop	-6060
▁checkup	-6061
▁conceiving	-6062
KS	-6063
▁shaking	-6064
▁data	-6065
▁Rehabilitation	-6066
oprol	-6067
▁object	-6068
▁remaining	-6069
last	-6070
▁hall	-6071
uterine	-6072
▁knowing	-6073
▁DAY	-6074
▁Pls	-6075
plain	-6076
▁YEAR	-6077
▁acting	-6078
▁border	-6079
▁pancreatic	-6080
harm	-6081
▁SGOT	-6082
▁fluct	-6083
▁shing	-6084
rectile	-6085
▁scenar	-6086
▁sad	-6087
▁2011	-6088
▁thickness	-6089
▁Ag	-6090
▁certainly	-6091
▁occurring	-6092
such	-6093
ushed	-6094
ares	-6095
▁surv	-6096
▁drain	-6097
▁eosinophil	-6098
▁aer	-6099
▁diure	-6100
▁39	-6101
▁RA	-6102
▁pollen	-6103
pm	-6104
iol	-6105
isk	-6106
going	-6107
hn	-6108
zen	-6109
▁Has	-6110
▁mothers	-6111
▁contract	-6112
▁periodontal	-6113
KE	-6114
▁country	-6115
▁IBS	-6116
▁ens	-6117
▁despite	-6118
▁portion	-6119
threatening	-6120
neath	-6121
▁kinda	-6122
▁bedtime	-6123
italopram	-6124
▁dystrophy	-6125
▁conservative	-6126
ART	-6127
▁hemo	-6128
venous	-6129
za	-6130
angl	-6131
▁Gastroenter	-6132
ude	-6133
▁ane	-6134
▁assessed	-6135
▁definitive	-6136
▁menstruation	-6137
viral	-6138
▁twist	-6139
▁gallstones	-6140
▁supervision	-6141
▁Masturbation	-6142
▁lupus	-6143
▁spells	-6144
UB	-6145
▁lighthe	-6146
▁hysterectomy	-6147
ield	-6148
▁bear	-6149
▁Counseling	-6150
UN	-6151
ames	-6152
▁recovered	-6153
We	-6154
atty	-6155
▁search	-6156
▁Bil	-6157
zz	-6158
mand	-6159
▁mening	-6160
▁mucosa	-6161
▁reduces	-6162
▁breastfe	-6163
▁relevant	-6164
▁testosterone	-6165
▁250	-6166
▁Secondly	-6167
▁clotting	-6168
▁controlling	-6169
▁bub	-6170
▁cig	-6171
erals	-6172
▁distress	-6173
▁cholecyst	-6174
▁transfusion	-6175
there	-6176
aph	-6177
▁Act	-6178
▁hepat	-6179
▁output	-6180
CP	-6181
mission	-6182
▁sle	-6183
▁anytime	-6184
▁bloated	-6185
▁colored	-6186
▁shingles	-6187
▁interfe	-6188
▁suic	-6189
▁nodule	-6190
▁urticaria	-6191
▁service	-6192
oped	-6193
iciencies	-6194
▁technique	-6195
▁Del	-6196
▁load	-6197
▁outer	-6198
tenance	-6199
▁directed	-6200
▁Loo	-6201
indly	-6202
hypert	-6203
uncture	-6204
▁failed	-6205
▁hereditary	-6206
▁underneath	-6207
enior	-6208
▁deny	-6209
▁rectum	-6210
hether	-6211
▁shampoo	-6212
work	-6213
▁Cor	-6214
entin	-6215
▁males	-6216
rig	-6217
▁estimation	-6218
▁everyone	-6219
odic	-6220
▁jump	-6221
▁meaning	-6222
▁irritated	-6223
▁lethar	-6224
hem	-6225
▁isol	-6226
▁Cough	-6227
▁differenti	-6228
IST	-6229
▁herbal	-6230
▁advanced	-6231
ION	-6232
inse	-6233
idone	-6234
▁agent	-6235
▁plasma	-6236
igestion	-6237
▁beating	-6238
▁clearly	-6239
▁waking	-6240
▁heel	-6241
▁moistur	-6242
iac	-6243
MENT	-6244
There	-6245
abap	-6246
mill	-6247
▁info	-6248
▁feedback	-6249
br	-6250
otid	-6251
asive	-6252
▁blade	-6253
▁establ	-6254
▁prednisone	-6255
▁confidence	-6256
vered	-6257
▁Genl	-6258
However	-6259
PV	-6260
▁tit	-6261
▁paran	-6262
▁compared	-6263
kaline	-6264
▁practic	-6265
▁Left	-6266
▁Complete	-6267
▁confusion	-6268
▁sunscreen	-6269
▁Gynecologist	-6270
bran	-6271
▁agree	-6272
▁localized	-6273
udes	-6274
▁Amo	-6275
▁Rad	-6276
▁elevation	-6277
▁bronchodilator	-6278
ortisone	-6279
▁prominent	-6280
▁lightheaded	-6281
▁Sunday	-6282
care	-6283
▁MED	-6284
▁tips	-6285
▁pantoprazole	-6286
acic	-6287
▁herniation	-6288
ERE	-6289
aker	-6290
▁Rem	-6291
▁braces	-6292
▁suppose	-6293
▁generalized	-6294
▁deficiencies	-6295
▁fal	-6296
▁Sorry	-6297
▁brought	-6298
▁digestive	-6299
▁echocardi	-6300
▁Br	-6301
thal	-6302
▁Cell	-6303
▁capacity	-6304
ANT	-6305
▁FROM	-6306
▁Very	-6307
▁DR	-6308
ablet	-6309
▁sons	-6310
▁elimin	-6311
▁orally	-6312
cepha	-6313
▁inserted	-6314
▁scenario	-6315
▁direction	-6316
▁intermittent	-6317
▁bag	-6318
▁scars	-6319
▁favor	-6320
▁assume	-6321
▁revealed	-6322
▁parameters	-6323
icious	-6324
▁surely	-6325
ticasone	-6326
▁theres	-6327
▁connected	-6328
num	-6329
▁42	-6330
born	-6331
▁Cer	-6332
▁core	-6333
▁salivary	-6334
they	-6335
▁pale	-6336
▁encoura	-6337
▁markers	-6338
▁flutter	-6339
▁recurring	-6340
▁therapies	-6341
▁expectancy	-6342
ATI	-6343
▁PUT	-6344
▁Noted	-6345
▁aneur	-6346
▁behavioral	-6347
▁masturbating	-6348
▁angina	-6349
▁fibers	-6350
▁capsule	-6351
orrhea	-6352
▁aggressive	-6353
sens	-6354
ritious	-6355
▁variety	-6356
sa	-6357
ednes	-6358
▁sgpt	-6359
▁sphin	-6360
▁consultations	-6361
BLE	-6362
▁IM	-6363
▁bipolar	-6364
acc	-6365
▁SHE	-6366
aginal	-6367
▁waist	-6368
▁bandage	-6369
▁hepatic	-6370
pls	-6371
▁58	-6372
▁ann	-6373
▁Cong	-6374
▁ordered	-6375
▁prolactin	-6376
.3	-6377
axia	-6378
▁WHAT	-6379
▁item	-6380
▁SS	-6381
▁TENS	-6382
ocking	-6383
▁Disorder	-6384
osacral	-6385
▁minerals	-6386
▁ectopic	-6387
CVTS	-6388
▁Gall	-6389
▁Lung	-6390
▁motile	-6391
▁obstructive	-6392
▁corticosteroids	-6393
ednesday	-6394
▁Healthy	-6395
▁rhinitis	-6396
gered	-6397
tilage	-6398
hyse	-6399
▁compon	-6400
▁strugg	-6401
▁ischemic	-6402
▁intensity	-6403
▁hyperplasia	-6404
UE	-6405
▁mos	-6406
▁perit	-6407
▁GOT	-6408
▁cot	-6409
▁firm	-6410
▁stem	-6411
▁Proper	-6412
▁correction	-6413
▁preparation	-6414
▁port	-6415
omplete	-6416
▁consume	-6417
▁continuing	-6418
▁3)	-6419
▁caffe	-6420
pulmonary	-6421
MS	-6422
▁Poly	-6423
▁maintenance	-6424
▁hospitalized	-6425
VT	-6426
abs	-6427
▁NOW	-6428
▁sli	-6429
▁veg	-6430
▁nauseous	-6431
▁decreases	-6432
▁AF	-6433
▁greater	-6434
▁uncontrolled	-6435
▁resid	-6436
▁machine	-6437
lucid	-6438
▁elucid	-6439
reetings	-6440
lder	-6441
▁mixed	-6442
▁scaling	-6443
▁Generally	-6444
▁metastasis	-6445
▁Ph	-6446
▁Viral	-6447
▁venous	-6448
▁minimum	-6449
▁comments	-6450
▁dealing	-6451
▁implantation	-6452
▁New	-6453
▁mist	-6454
▁plain	-6455
▁outcome	-6456
▁radiates	-6457
▁tabs	-6458
cephaly	-6459
▁corrected	-6460
▁depressive	-6461
▁BM	-6462
▁Physical	-6463
▁heavyweight	-6464
usted	-6465
▁antibody	-6466
▁pet	-6467
▁sym	-6468
▁zinc	-6469
▁NSAIDs	-6470
▁afford	-6471
▁adverse	-6472
eutic	-6473
▁vaccination	-6474
lod	-6475
quit	-6476
agious	-6477
▁nutritious	-6478
LA	-6479
gy	-6480
▁roll	-6481
▁wart	-6482
▁Ayurveda	-6483
LC	-6484
▁ax	-6485
▁fre	-6486
▁leuk	-6487
verages	-6488
▁indicative	-6489
pre	-6490
ains	-6491
▁mir	-6492
metic	-6493
▁lemon	-6494
▁reass	-6495
▁paralysis	-6496
▁sil	-6497
▁Stay	-6498
▁discs	-6499
▁stature	-6500
▁impacted	-6501
▁nephrologist	-6502
abapentin	-6503
▁5-7	-6504
oderm	-6505
▁fungus	-6506
▁hypotension	-6507
bc	-6508
lines	-6509
▁followup	-6510
▁phenomen	-6511
▁pediatric	-6512
▁urinalysis	-6513
▁disturbance	-6514
▁bodies	-6515
▁purpose	-6516
▁99	-6517
▁via	-6518
▁tubal	-6519
▁Hospital	-6520
OTH	-6521
pal	-6522
▁chair	-6523
▁plays	-6524
▁Saturday	-6525
yc	-6526
LEASE	-6527
ext	-6528
▁Fib	-6529
ophren	-6530
▁weekly	-6531
▁bothering	-6532
▁producing	-6533
▁sphincter	-6534
▁omeprazole	-6535
▁fibromyalgia	-6536
▁gyn	-6537
▁suc	-6538
uitary	-6539
▁packs	-6540
lycemia	-6541
▁mucous	-6542
▁covered	-6543
▁estrogen	-6544
rely	-6545
rotic	-6546
cancer	-6547
▁inhalers	-6548
▁triggered	-6549
▁sup	-6550
▁deform	-6551
▁liquids	-6552
eph	-6553
▁Rel	-6554
▁falls	-6555
▁sugars	-6556
▁retention	-6557
▁Op	-6558
▁fixed	-6559
▁ruptured	-6560
▁bottle	-6561
▁explained	-6562
▁resistant	-6563
ACK	-6564
hor	-6565
▁kit	-6566
▁toot	-6567
▁influ	-6568
▁requirement	-6569
▁boost	-6570
▁worth	-6571
▁bridge	-6572
▁Gl	-6573
▁gon	-6574
▁August	-6575
ervation	-6576
▁visiting	-6577
▁reproductive	-6578
▁whic	-6579
▁share	-6580
▁record	-6581
▁potential	-6582
▁exercising	-6583
eric	-6584
▁PSA	-6585
▁Went	-6586
▁wise	-6587
▁Parkinson	-6588
alk	-6589
umes	-6590
itted	-6591
▁prick	-6592
▁Min	-6593
minal	-6594
▁tb	-6595
▁vit	-6596
▁Luck	-6597
▁gest	-6598
▁Small	-6599
ding	-6600
▁sust	-6601
mented	-6602
▁insufficiency	-6603
left	-6604
since	-6605
▁complains	-6606
erior	-6607
.......	-6608
▁airway	-6609
▁observed	-6610
onide	-6611
▁spir	-6612
aiting	-6613
▁mildly	-6614
▁SOME	-6615
▁alter	-6616
menting	-6617
▁Syndrome	-6618
▁genitals	-6619
▁Flu	-6620
▁cross	-6621
▁program	-6622
▁beverages	-6623
▁contagious	-6624
▁indigestion	-6625
▁Typ	-6626
ocaine	-6627
▁dissol	-6628
axis	-6629
iating	-6630
eed	-6631
▁buttocks	-6632
▁na	-6633
▁der	-6634
irect	-6635
▁burst	-6636
▁nutri	-6637
▁drinks	-6638
▁rectal	-6639
oarthritis	-6640
bo	-6641
phrag	-6642
▁Later	-6643
KD	-6644
ino	-6645
▁smooth	-6646
▁electrolyte	-6647
▁montelukast	-6648
ORM	-6649
URE	-6650
▁disk	-6651
▁anyway	-6652
▁content	-6653
▁Unfortunately	-6654
▁Ane	-6655
▁vas	-6656
▁.....	-6657
▁seven	-6658
peridone	-6659
▁Alcohol	-6660
▁membran	-6661
▁tendency	-6662
▁du	-6663
▁pins	-6664
▁donor	-6665
▁excluded	-6666
▁fallopian	-6667
▁TIM	-6668
▁pol	-6669
▁prevention	-6670
-20	-6671
NS	-6672
CTOR	-6673
▁jud	-6674
▁vital	-6675
necess	-6676
▁hydro	-6677
▁Lo	-6678
icle	-6679
▁Muscle	-6680
▁younger	-6681
▁attached	-6682
ik	-6683
▁53	-6684
▁ban	-6685
▁burns	-6686
uestion	-6687
▁peptic	-6688
▁scanning	-6689
▁pneum	-6690
▁suppress	-6691
▁ol	-6692
da	-6693
iatrist	-6694
▁Depending	-6695
An	-6696
▁54	-6697
▁tom	-6698
▁eaten	-6699
▁Severe	-6700
▁thorax	-6701
▁Exercise	-6702
▁familial	-6703
.6.	-6704
▁Age	-6705
▁acqu	-6706
▁switch	-6707
▁shouldn	-6708
▁waste	-6709
▁guided	-6710
▁turning	-6711
▁washing	-6712
operative	-6713
had	-6714
spir	-6715
▁Nove	-6716
▁Urin	-6717
ymptom	-6718
▁false	-6719
▁turns	-6720
▁numerous	-6721
well	-6722
▁passes	-6723
▁settle	-6724
▁administ	-6725
▁speaking	-6726
▁chemicals	-6727
14	-6728
zep	-6729
even	-6730
▁DIS	-6731
▁prep	-6732
▁quar	-6733
▁skeletal	-6734
▁vertebrae	-6735
▁Ma	-6736
cont	-6737
month	-6738
▁thru	-6739
▁Acute	-6740
▁mamm	-6741
gastro	-6742
should	-6743
tebral	-6744
▁hairs	-6745
▁melan	-6746
ifications	-6747
▁treatable	-6748
RA	-6749
ari	-6750
▁herniated	-6751
OC	-6752
seud	-6753
▁OCD	-6754
ein	-6755
▁MON	-6756
▁PCs	-6757
▁march	-6758
▁explan	-6759
ocetrizine	-6760
▁neurotrophic	-6761
▁December	-6762
▁Te	-6763
azepam	-6764
▁regimen	-6765
▁stronger	-6766
▁causative	-6767
▁56	-6768
▁palm	-6769
▁trim	-6770
▁tremors	-6771
▁unwanted	-6772
▁endometrial	-6773
▁ignore	-6774
▁Sit	-6775
▁Besides	-6776
▁swelled	-6777
▁stitches	-6778
▁Institute	-6779
▁alcoholic	-6780
▁id	-6781
▁fun	-6782
▁2012	-6783
ributed	-6784
uscular	-6785
▁polyps	-6786
▁severely	-6787
EP	-6788
▁Prim	-6789
▁neurosurgeon	-6790
ient	-6791
▁blow	-6792
▁measuring	-6793
omic	-6794
▁foramin	-6795
▁noticeable	-6796
lob	-6797
▁Biopsy	-6798
▁cerebral	-6799
▁elucidated	-6800
▁Om	-6801
▁um	-6802
▁lady	-6803
▁tone	-6804
▁prophyl	-6805
▁8.	-6806
from	-6807
▁odd	-6808
▁heals	-6809
▁Thursday	-6810
▁gastroenteritis	-6811
ucle	-6812
▁symp	-6813
▁heartburn	-6814
▁yellowish	-6815
ta	-6816
ores	-6817
renal	-6818
▁metal	-6819
▁Tuesday	-6820
▁underwent	-6821
aution	-6822
▁Ensure	-6823
▁mutated	-6824
▁aggravate	-6825
▁Ir	-6826
▁BLO	-6827
▁ovum	-6828
▁fractures	-6829
▁persisting	-6830
▁spondylosis	-6831
ucted	-6832
igence	-6833
▁suitable	-6834
▁swimming	-6835
▁penet	-6836
▁capsules	-6837
▁Unless	-6838
▁mobility	-6839
imer	-6840
▁November	-6841
▁unnecess	-6842
▁Medicines	-6843
▁asthmatic	-6844
raw	-6845
▁Sal	-6846
▁Sperm	-6847
ChatDoct	-6848
▁Certain	-6849
▁fiss	-6850
▁urge	-6851
▁itches	-6852
▁infants	-6853
▁alle	-6854
▁mand	-6855
▁adequately	-6856
▁Pregnancy	-6857
ene	-6858
▁gar	-6859
hache	-6860
▁eyel	-6861
▁thickening	-6862
▁lumbosacral	-6863
oz	-6864
▁pac	-6865
▁DOCTOR	-6866
▁ground	-6867
▁postures	-6868
cum	-6869
▁ensure	-6870
warm	-6871
cobal	-6872
▁uses	-6873
▁SSRI	-6874
▁metformin	-6875
ATE	-6876
▁Investig	-6877
▁Diclofenac	-6878
AIL	-6879
▁Fam	-6880
unnel	-6881
▁anno	-6882
▁shes	-6883
▁47	-6884
older	-6885
▁developmental	-6886
▁camp	-6887
▁Common	-6888
▁stable	-6889
▁deterior	-6890
▁Top	-6891
etail	-6892
▁mechanism	-6893
ryl	-6894
▁COM	-6895
▁raw	-6896
▁lunch	-6897
▁pleas	-6898
▁cartilage	-6899
▁decreasing	-6900
rees	-6901
▁antic	-6902
▁catch	-6903
▁partic	-6904
GT	-6905
due	-6906
▁bt	-6907
▁Smo	-6908
▁hypog	-6909
▁covering	-6910
▁Des	-6911
treated	-6912
▁impaired	-6913
▁transfer	-6914
leb	-6915
ror	-6916
▁seriously	-6917
▁thrombosis	-6918
▁44	-6919
▁October	-6920
▁tor	-6921
▁Sugg	-6922
▁mine	-6923
▁initi	-6924
izophren	-6925
▁attending	-6926
ya	-6927
umn	-6928
▁??	-6929
▁honey	-6930
▁consciousness	-6931
▁nap	-6932
▁VERY	-6933
▁stressful	-6934
Your	-6935
▁shaft	-6936
▁caffeine	-6937
Can	-6938
may	-6939
▁tho	-6940
▁reliable	-6941
▁maintaining	-6942
5,	-6943
AND	-6944
▁Apart	-6945
cycline	-6946
▁throwing	-6947
angi	-6948
▁FSH	-6949
ometry	-6950
▁conceived	-6951
▁observation	-6952
▁fertilization	-6953
ams	-6954
anus	-6955
▁hol	-6956
ylase	-6957
▁Next	-6958
▁email	-6959
▁sternum	-6960
▁cosmetic	-6961
▁informative	-6962
plz	-6963
▁PH	-6964
▁PP	-6965
ocyte	-6966
▁brace	-6967
▁numbers	-6968
oneph	-6969
--------	-6970
hope	-6971
ival	-6972
▁jer	-6973
▁quote	-6974
▁student	-6975
▁py	-6976
▁opt	-6977
▁ADHD	-6978
▁pharm	-6979
rimazole	-6980
farin	-6981
iding	-6982
letion	-6983
▁hungry	-6984
infection	-6985
▁sonogram	-6986
▁conclusion	-6987
ymptomatic	-6988
▁antidepressant	-6989
rowth	-6990
weeks	-6991
▁everytime	-6992
▁perfectly	-6993
col	-6994
▁alt	-6995
▁ayur	-6996
▁mold	-6997
▁antioxid	-6998
▁phenomenon	-6999
▁PT	-7000
apsed	-7001
amycin	-7002
▁produces	-7003
▁WOR	-7004
gnosed	-7005
▁meanwhile	-7006
▁preparations	-7007
cos	-7008
▁wan	-7009
▁Weight	-7010
▁Increased	-7011
oxide	-7012
▁teen	-7013
▁diffuse	-7014
▁driving	-7015
▁Affected	-7016
▁suggesting	-7017
acerb	-7018
enital	-7019
▁safer	-7020
▁Dentist	-7021
▁resulted	-7022
▁AG	-7023
FTER	-7024
free	-7025
ococ	-7026
▁chat	-7027
ussion	-7028
▁uncle	-7029
▁biting	-7030
▁stimul	-7031
▁guy	-7032
▁vig	-7033
▁dermat	-7034
▁combined	-7035
▁inability	-7036
▁sclerosis	-7037
uit	-7038
▁methyl	-7039
▁sciatica	-7040
▁nutrients	-7041
▁osteoporosis	-7042
▁TAKE	-7043
▁Brain	-7044
▁adhes	-7045
▁paren	-7046
▁Clinic	-7047
olf	-7048
iling	-7049
▁Tablet	-7050
normally	-7051
urrently	-7052
▁perhaps	-7053
▁OP	-7054
▁Hot	-7055
▁induction	-7056
▁anesthetic	-7057
AA	-7058
▁pox	-7059
aches	-7060
osper	-7061
▁glans	-7062
▁Looking	-7063
▁PL	-7064
▁react	-7065
▁lasting	-7066
-9	-7067
▁Abs	-7068
gment	-7069
▁cigaret	-7070
▁pillows	-7071
▁pulling	-7072
▁extension	-7073
▁presentation	-7074
▁transplantation	-7075
TIC	-7076
urt	-7077
swer	-7078
▁cotton	-7079
▁readings	-7080
▁LH	-7081
anti	-7082
▁Ble	-7083
▁neut	-7084
▁phosphat	-7085
▁watching	-7086
▁rehabilitation	-7087
▁acts	-7088
▁blocks	-7089
▁granul	-7090
▁halluc	-7091
amination	-7092
▁intolerance	-7093
FR	-7094
ME	-7095
▁43	-7096
▁62	-7097
▁Sub	-7098
ector	-7099
▁Advil	-7100
▁leaving	-7101
▁Actually	-7102
▁electrical	-7103
▁Hey	-7104
▁Urinary	-7105
▁frag	-7106
▁responding	-7107
▁Long	-7108
▁inject	-7109
▁limits	-7110
▁exacerb	-7111
▁disturbed	-7112
▁Tuberculosis	-7113
ALL	-7114
▁130	-7115
▁gut	-7116
▁eats	-7117
▁odor	-7118
▁pulp	-7119
▁carrier	-7120
ORE	-7121
lude	-7122
onin	-7123
agement	-7124
ilities	-7125
▁swings	-7126
▁Whether	-7127
▁secretion	-7128
▁Prog	-7129
inally	-7130
▁connection	-7131
▁ALSO	-7132
▁Diet	-7133
▁ment	-7134
▁Moreover	-7135
▁deposits	-7136
▁endometrium	-7137
▁lean	-7138
▁events	-7139
▁bruises	-7140
esium	-7141
▁arri	-7142
NE	-7143
.1)	-7144
USE	-7145
bor	-7146
lugg	-7147
▁Iam	-7148
▁fold	-7149
▁asymptomatic	-7150
▁dye	-7151
▁optim	-7152
▁yours	-7153
▁fermentation	-7154
cler	-7155
▁caught	-7156
▁sensory	-7157
udesonide	-7158
Any	-7159
▁asc	-7160
▁column	-7161
▁Diagnosis	-7162
worm	-7163
▁suffers	-7164
▁informed	-7165
▁excessively	-7166
▁breastfeeding	-7167
opt	-7168
vast	-7169
▁correctly	-7170
▁supplementation	-7171
St	-7172
▁160	-7173
quate	-7174
lation	-7175
onitis	-7176
ribute	-7177
▁brisk	-7178
▁atrial	-7179
▁precaution	-7180
▁explanation	-7181
▁fluticasone	-7182
▁stimulation	-7183
ruc	-7184
▁LIKE	-7185
▁Seiz	-7186
bile	-7187
▁mes	-7188
▁rapidly	-7189
▁49	-7190
▁hv	-7191
▁services	-7192
asy	-7193
▁Fl	-7194
ences	-7195
▁nuts	-7196
▁deposition	-7197
ERG	-7198
ama	-7199
▁nurs	-7200
▁soot	-7201
SI	-7202
▁stays	-7203
▁traumatic	-7204
▁rheumatoid	-7205
hypertensive	-7206
asp	-7207
ruary	-7208
ospermia	-7209
▁concieve	-7210
yond	-7211
uinal	-7212
▁erect	-7213
▁items	-7214
▁bloody	-7215
▁plaque	-7216
▁rubbing	-7217
ls	-7218
otin	-7219
▁comprom	-7220
xycycline	-7221
▁internet	-7222
▁CRP	-7223
juana	-7224
▁uncommon	-7225
OUT	-7226
▁ket	-7227
▁Type	-7228
▁hemorrhage	-7229
▁Psychotherapy	-7230
gastroesophageal	-7231
▁gm	-7232
▁Amox	-7233
▁erectile	-7234
▁mus	-7235
▁onto	-7236
▁vomited	-7237
▁cup	-7238
entle	-7239
▁vide	-7240
▁awhile	-7241
▁narrow	-7242
▁forearm	-7243
▁ongoing	-7244
▁(3	-7245
ert	-7246
▁divertic	-7247
So	-7248
▁cip	-7249
▁gre	-7250
▁prevents	-7251
▁modification	-7252
▁hr	-7253
actic	-7254
erate	-7255
▁hang	-7256
▁clarify	-7257
▁pleurisy	-7258
cg	-7259
could	-7260
▁cathe	-7261
oprolol	-7262
▁carried	-7263
▁foreign	-7264
▁himself	-7265
▁embolism	-7266
▁harmless	-7267
▁significantly	-7268
obia	-7269
▁IUD	-7270
▁glyc	-7271
▁floss	-7272
▁Anemia	-7273
appy	-7274
▁mov	-7275
▁MEDIC	-7276
▁passage	-7277
▁peeling	-7278
▁pregabalin	-7279
iles	-7280
▁2013	-7281
▁PLEASE	-7282
▁Ultrasonography	-7283
▁WHO	-7284
inding	-7285
▁Semen	-7286
▁device	-7287
law	-7288
ola	-7289
▁85	-7290
▁eti	-7291
▁awake	-7292
▁reflex	-7293
▁luke	-7294
▁worms	-7295
▁limiting	-7296
▁untreated	-7297
va	-7298
ocl	-7299
▁fatal	-7300
▁induce	-7301
▁retain	-7302
▁replaced	-7303
▁troubles	-7304
▁intellectual	-7305
ii	-7306
Inf	-7307
ulty	-7308
After	-7309
arring	-7310
▁Fatty	-7311
▁elder	-7312
▁dengue	-7313
cycl	-7314
▁Bre	-7315
▁dup	-7316
▁abst	-7317
▁icing	-7318
▁begins	-7319
▁survive	-7320
▁unex	-7321
▁Mostly	-7322
▁concerning	-7323
▁Stop	-7324
▁monit	-7325
ressure	-7326
▁danger	-7327
roscopic	-7328
oses	-7329
▁Syn	-7330
▁AFTER	-7331
▁stretc	-7332
▁TR	-7333
emale	-7334
itude	-7335
▁trial	-7336
▁decomp	-7337
▁burping	-7338
▁protrusion	-7339
▁pituitary	-7340
▁sonography	-7341
,,,	-7342
▁41	-7343
amic	-7344
auses	-7345
▁sneeze	-7346
▁pressing	-7347
▁irritable	-7348
hens	-7349
▁shr	-7350
▁blocker	-7351
WW	-7352
▁forgot	-7353
▁regain	-7354
▁albumin	-7355
▁diaphrag	-7356
▁fractured	-7357
▁hemorrhoid	-7358
ULT	-7359
ury	-7360
▁Init	-7361
▁appt	-7362
▁Answer	-7363
▁assure	-7364
▁shiver	-7365
▁Esc	-7366
▁BEEN	-7367
▁dilated	-7368
▁upd	-7369
▁busy	-7370
▁injected	-7371
▁seed	-7372
▁disrup	-7373
▁laxity	-7374
▁thrush	-7375
▁breaths	-7376
▁session	-7377
)-	-7378
CI	-7379
ida	-7380
▁Acid	-7381
▁poll	-7382
veness	-7383
oxidil	-7384
agulation	-7385
▁IC	-7386
▁nit	-7387
▁foul	-7388
▁BLOOD	-7389
▁shoes	-7390
ception	-7391
▁46	-7392
▁199	-7393
▁god	-7394
▁virt	-7395
ractor	-7396
izophrenia	-7397
▁endometriosis	-7398
zhe	-7399
▁WILL	-7400
▁pock	-7401
▁Senior	-7402
Hope	-7403
▁Ret	-7404
alore	-7405
▁tens	-7406
oterol	-7407
▁allevi	-7408
lem	-7409
▁57	-7410
▁Ur	-7411
aric	-7412
▁2009	-7413
▁Swelling	-7414
▁lukewarm	-7415
!!!!	-7416
▁distal	-7417
▁gained	-7418
▁washed	-7419
▁Respected	-7420
look	-7421
▁slept	-7422
▁beyond	-7423
▁popped	-7424
▁college	-7425
▁extensive	-7426
isp	-7427
▁forte	-7428
▁complained	-7429
hank	-7430
▁OTC	-7431
rating	-7432
▁click	-7433
▁improves	-7434
▁afterwards	-7435
▁yo	-7436
ibular	-7437
▁viruses	-7438
▁grows	-7439
▁noticing	-7440
cardi	-7441
▁Thus	-7442
▁series	-7443
odontist	-7444
▁digestion	-7445
mal	-7446
▁CM	-7447
▁hey	-7448
using	-7449
▁benz	-7450
▁inguinal	-7451
hyp	-7452
▁wt	-7453
obic	-7454
toms	-7455
▁spreads	-7456
▁ligaments	-7457
ibroma	-7458
▁relatively	-7459
▁specifically	-7460
%.	-7461
ryn	-7462
▁SY	-7463
alled	-7464
chers	-7465
lower	-7466
usive	-7467
asmodic	-7468
rential	-7469
cutaneous	-7470
▁penicillin	-7471
ymal	-7472
aphyl	-7473
avoid	-7474
▁team	-7475
ocytosis	-7476
vertebral	-7477
▁Management	-7478
▁permanently	-7479
rocin	-7480
▁Period	-7481
▁master	-7482
angalore	-7483
▁Multiple	-7484
▁Dermatologist	-7485
ats	-7486
▁DE	-7487
THER	-7488
▁diag	-7489
inemia	-7490
%,	-7491
hep	-7492
▁mur	-7493
jacent	-7494
▁110	-7495
bably	-7496
▁Folic	-7497
▁infar	-7498
▁rinse	-7499
▁triple	-7500
▁illnesses	-7501
▁twitching	-7502
psych	-7503
▁Iron	-7504
ameter	-7505
▁extrem	-7506
▁nearest	-7507
orta	-7508
uted	-7509
▁poop	-7510
indamycin	-7511
▁ischemia	-7512
GG	-7513
▁CL	-7514
▁LDL	-7515
▁puls	-7516
▁categ	-7517
▁summer	-7518
▁somewhere	-7519
cha	-7520
▁ox	-7521
eter	-7522
▁ASA	-7523
sient	-7524
▁layer	-7525
▁wakes	-7526
lycerides	-7527
ety	-7528
▁0.5	-7529
ctive	-7530
▁precip	-7531
▁menopause	-7532
▁determined	-7533
▁varicocele	-7534
.4)	-7535
IND	-7536
▁Az	-7537
tivity	-7538
▁destro	-7539
▁Without	-7540
▁fainting	-7541
la	-7542
▁AV	-7543
▁mi	-7544
▁125	-7545
adays	-7546
▁fits	-7547
▁YEARS	-7548
ruciating	-7549
▁aneurysm	-7550
▁toothache	-7551
▁differential	-7552
RO	-7553
doc	-7554
ora	-7555
mond	-7556
raum	-7557
▁radio	-7558
▁handle	-7559
▁sickness	-7560
Ray	-7561
▁thoracic	-7562
.3)	-7563
▁64	-7564
▁Occ	-7565
icular	-7566
▁Early	-7567
▁knows	-7568
▁anomal	-7569
▁squeeze	-7570
▁Patients	-7571
▁encourage	-7572
▁consistent	-7573
▁intrauterine	-7574
bi	-7575
IDE	-7576
▁outb	-7577
▁field	-7578
▁angioplasty	-7579
OST	-7580
aves	-7581
roscopy	-7582
▁meningitis	-7583
▁.1.	-7584
▁bout	-7585
▁stick	-7586
▁dropped	-7587
▁Researchers	-7588
▁Beta	-7589
▁Prost	-7590
▁access	-7591
▁clears	-7592
▁harder	-7593
▁nodules	-7594
▁pushing	-7595
▁slipped	-7596
▁encephal	-7597
▁photograph	-7598
▁performance	-7599
mar	-7600
gued	-7601
astric	-7602
openia	-7603
▁retin	-7604
▁wheat	-7605
▁monitored	-7606
▁ovulating	-7607
▁microscopy	-7608
▁modifications	-7609
▁osteoarthritis	-7610
was	-7611
oups	-7612
▁STI	-7613
▁Horm	-7614
emaker	-7615
▁consequ	-7616
Con	-7617
UST	-7618
oxy	-7619
omer	-7620
▁Inter	-7621
▁Total	-7622
oneal	-7623
ulsive	-7624
▁flare	-7625
▁incident	-7626
▁therapeutic	-7627
rite	-7628
▁phone	-7629
▁subsequ	-7630
▁adjacent	-7631
▁myopathy	-7632
▁migraines	-7633
ausea	-7634
▁butter	-7635
▁carbon	-7636
▁juices	-7637
omyopathy	-7638
romatosis	-7639
▁exhausted	-7640
▁interfere	-7641
▁constipated	-7642
▁paper	-7643
▁fevers	-7644
▁patency	-7645
▁staying	-7646
▁recovering	-7647
▁realize	-7648
▁relapse	-7649
▁lymphaden	-7650
▁Bronchitis	-7651
▁Congenital	-7652
▁(5	-7653
▁51	-7654
angu	-7655
▁thy	-7656
under	-7657
vaginal	-7658
▁finish	-7659
▁Firstly	-7660
▁improper	-7661
▁Hb	-7662
▁Chem	-7663
▁skill	-7664
▁cellulitis	-7665
▁cast	-7666
ciation	-7667
▁smoked	-7668
8,	-7669
▁Val	-7670
▁BACK	-7671
▁expector	-7672
▁obviously	-7673
▁saf	-7674
atous	-7675
▁Upper	-7676
ractice	-7677
▁parench	-7678
▁protective	-7679
▁secretions	-7680
CA	-7681
RING	-7682
otrin	-7683
▁Life	-7684
▁fats	-7685
▁oxid	-7686
▁palsy	-7687
▁Detail	-7688
▁palpitation	-7689
▁PET	-7690
iscus	-7691
meric	-7692
etc	-7693
▁1:	-7694
▁jog	-7695
icians	-7696
▁Orthop	-7697
▁forming	-7698
▁paining	-7699
ura	-7700
▁EM	-7701
asse	-7702
itating	-7703
▁PROBLE	-7704
▁popping	-7705
▁scoliosis	-7706
▁esophageal	-7707
ARD	-7708
lin	-7709
▁POD	-7710
▁Tri	-7711
▁Hist	-7712
▁displ	-7713
▁mature	-7714
▁portal	-7715
▁drank	-7716
▁lives	-7717
▁scab	-7718
▁teet	-7719
▁Creat	-7720
▁diameter	-7721
▁excruciating	-7722
As	-7723
ye	-7724
idd	-7725
▁PE	-7726
hast	-7727
▁ker	-7728
omnia	-7729
▁Cause	-7730
▁landed	-7731
apine	-7732
arcoma	-7733
▁Never	-7734
▁acids	-7735
▁metastatic	-7736
▁hoping	-7737
▁observe	-7738
▁predict	-7739
▁presents	-7740
▁organisms	-7741
udden	-7742
▁umbil	-7743
ference	-7744
▁boiled	-7745
▁attributed	-7746
▁pathological	-7747
▁63	-7748
▁clav	-7749
▁ambul	-7750
▁xrays	-7751
aked	-7752
▁cla	-7753
▁torn	-7754
▁apnea	-7755
▁Addition	-7756
▁tailbone	-7757
▁multivitamins	-7758
GN	-7759
fied	-7760
itched	-7761
▁holding	-7762
▁message	-7763
▁antacids	-7764
▁catheter	-7765
▁families	-7766
aring	-7767
▁blot	-7768
▁drive	-7769
▁Always	-7770
▁Holder	-7771
▁extend	-7772
ecreased	-7773
▁private	-7774
▁maintained	-7775
▁whom	-7776
idering	-7777
▁embryo	-7778
▁lactose	-7779
▁Cognitive	-7780
▁Infectious	-7781
ALLY	-7782
dish	-7783
ortun	-7784
▁ASAP	-7785
oconut	-7786
▁Lately	-7787
▁disloc	-7788
▁discussed	-7789
▁abnormally	-7790
▁testicular	-7791
eps	-7792
inge	-7793
▁3-5	-7794
▁fro	-7795
▁tells	-7796
▁Seizures	-7797
▁physiological	-7798
▁5-	-7799
osal	-7800
▁aim	-7801
▁cong	-7802
▁dots	-7803
▁immo	-7804
opedia	-7805
▁Our	-7806
▁Echo	-7807
▁complicated	-7808
pill	-7809
▁belt	-7810
▁physio	-7811
onscious	-7812
▁frontal	-7813
cyclopedia	-7814
▁guidelines	-7815
▁(4	-7816
iring	-7817
▁enhance	-7818
▁killers	-7819
▁resolves	-7820
▁gp	-7821
▁benefits	-7822
▁scratching	-7823
▁Encyclopedia	-7824
▁comb	-7825
▁lith	-7826
▁orange	-7827
▁Problem	-7828
▁density	-7829
▁triggers	-7830
▁Abdominal	-7831
▁consultant	-7832
▁calcification	-7833
▁lob	-7834
▁fathers	-7835
▁fatigued	-7836
▁Emergency	-7837
▁daughters	-7838
thood	-7839
▁herself	-7840
gin	-7841
rea	-7842
brow	-7843
about	-7844
hexid	-7845
ipine	-7846
tery	-7847
▁Ver	-7848
▁Neph	-7849
▁Yoga	-7850
▁MONTH	-7851
anguage	-7852
▁mineral	-7853
▁OD	-7854
▁Ref	-7855
roxen	-7856
▁apple	-7857
▁antigen	-7858
▁workout	-7859
▁friction	-7860
▁grandson	-7861
irt	-7862
tib	-7863
ager	-7864
▁INF	-7865
▁pulses	-7866
▁tonsil	-7867
▁degrees	-7868
▁correlation	-7869
▁10.	-7870
▁HSG	-7871
▁amp	-7872
helial	-7873
▁bleeds	-7874
▁biliary	-7875
▁polycystic	-7876
▁environmental	-7877
ABLE	-7878
atio	-7879
▁Tell	-7880
ancies	-7881
ficial	-7882
▁Defin	-7883
▁april	-7884
▁linked	-7885
entral	-7886
▁Again	-7887
▁calling	-7888
Do	-7889
▁ED	-7890
hand	-7891
odia	-7892
olid	-7893
uses	-7894
▁Cat	-7895
▁clue	-7896
▁gout	-7897
▁kinds	-7898
illation	-7899
▁breathless	-7900
▁impression	-7901
▁und	-7902
▁glut	-7903
▁sett	-7904
▁focal	-7905
▁attach	-7906
▁neither	-7907
▁Wednesday	-7908
▁van	-7909
Avoid	-7910
▁Radi	-7911
▁fibrous	-7912
igmentation	-7913
▁borderline	-7914
lip	-7915
▁AP	-7916
isin	-7917
odon	-7918
▁OLD	-7919
▁tur	-7920
ococcal	-7921
cepti	-7922
▁Micro	-7923
▁eyebrow	-7924
▁witChatDoctor	-7925
▁Add	-7926
▁lic	-7927
▁worsens	-7928
▁stability	-7929
0,	-7930
SE	-7931
TR	-7932
rich	-7933
gging	-7934
▁plant	-7935
▁Americ	-7936
▁states	-7937
▁monthly	-7938
▁Greetings	-7939
▁pacemaker	-7940
▁reversible	-7941
▁microscopic	-7942
▁unfortunately	-7943
▁mac	-7944
▁laugh	-7945
ellitus	-7946
▁friday	-7947
▁mosquit	-7948
▁Acetaminophen	-7949
▁Da	-7950
▁Alzhe	-7951
hexidine	-7952
▁curious	-7953
▁loosing	-7954
▁scarring	-7955
▁histopath	-7956
ued	-7957
idym	-7958
▁save	-7959
raline	-7960
▁TREAT	-7961
▁humid	-7962
▁pubic	-7963
▁threw	-7964
idental	-7965
diopathic	-7966
▁ayurvedic	-7967
orax	-7968
▁wip	-7969
▁TEST	-7970
▁seasonal	-7971
▁Depression	-7972
▁incomplete	-7973
omid	-7974
▁Comp	-7975
▁sulf	-7976
inence	-7977
ossible	-7978
ECT	-7979
enta	-7980
▁6-8	-7981
cribed	-7982
▁Lower	-7983
▁thecal	-7984
▁Escitalopram	-7985
feel	-7986
▁mcg	-7987
▁mum	-7988
▁recept	-7989
▁termin	-7990
▁invasive	-7991
▁majority	-7992
▁partners	-7993
▁residual	-7994
▁discontin	-7995
bling	-7996
▁demand	-7997
▁ingred	-7998
▁objects	-7999
▁annoying	-8000
▁:-	-8001
▁hal	-8002
▁lub	-8003
▁tears	-8004
▁animal	-8005
▁gentle	-8006
▁calamine	-8007
▁concussion	-8008
IH	-8009
201	-8010
▁une	-8011
▁tram	-8012
▁infilt	-8013
▁testes	-8014
▁fistula	-8015
▁plastic	-8016
▁por	-8017
▁spi	-8018
omiting	-8019
▁homeopathy	-8020
▁ova	-8021
▁eight	-8022
▁critical	-8023
▁language	-8024
▁learning	-8025
▁Men	-8026
opril	-8027
rough	-8028
uling	-8029
▁artic	-8030
▁eruption	-8031
▁poisoning	-8032
PL	-8033
▁net	-8034
▁Cerv	-8035
▁contribute	-8036
inflammation	-8037
▁laparoscopy	-8038
▁decongestants	-8039
oor	-8040
▁HPV	-8041
▁Deep	-8042
▁Ster	-8043
▁lines	-8044
▁protocol	-8045
▁angiogram	-8046
▁interested	-8047
▁aid	-8048
oking	-8049
▁FEEL	-8050
▁THAN	-8051
▁ducts	-8052
▁absent	-8053
▁diligence	-8054
ega	-8055
0000	-8056
down	-8057
▁Lim	-8058
▁til	-8059
illed	-8060
ranial	-8061
sometimes	-8062
▁Whenever	-8063
▁restricted	-8064
uro	-8065
mary	-8066
opat	-8067
▁led	-8068
▁aorta	-8069
▁feeds	-8070
▁tunnel	-8071
▁achieve	-8072
▁closely	-8073
▁Psychiatrist	-8074
▁hypertensive	-8075
CER	-8076
olo	-8077
ecia	-8078
ypical	-8079
▁graft	-8080
▁aortic	-8081
iar	-8082
▁Prol	-8083
ulthood	-8084
▁diaper	-8085
▁cortisone	-8086
▁respective	-8087
▁intravenous	-8088
▁BMI	-8089
luggish	-8090
formoterol	-8091
▁Recurrent	-8092
▁rt	-8093
▁102	-8094
▁tick	-8095
▁colic	-8096
entially	-8097
inations	-8098
▁component	-8099
ss	-8100
▁!!	-8101
▁oint	-8102
▁noise	-8103
▁Calcium	-8104
▁channel	-8105
▁impossible	-8106
hest	-8107
▁12.	-8108
▁III	-8109
▁Ste	-8110
▁Chol	-8111
▁Wear	-8112
ngitis	-8113
▁bowels	-8114
▁chirop	-8115
hesis	-8116
▁focused	-8117
py	-8118
ios	-8119
ands	-8120
▁THERE	-8121
▁terri	-8122
▁discharged	-8123
stet	-8124
▁trip	-8125
▁alpha	-8126
otrex	-8127
▁Stud	-8128
▁quad	-8129
ologic	-8130
▁antidepressants	-8131
occus	-8132
▁Been	-8133
▁darker	-8134
▁easier	-8135
▁blockers	-8136
▁etiology	-8137
▁pictures	-8138
▁spontaneously	-8139
elly	-8140
lean	-8141
▁clu	-8142
Doctor	-8143
▁regurg	-8144
▁toward	-8145
▁paranoid	-8146
gan	-8147
▁occas	-8148
▁Smoking	-8149
▁regulate	-8150
▁discontinue	-8151
▁ventricular	-8152
rem	-8153
▁defic	-8154
▁Coming	-8155
▁leaves	-8156
▁tremor	-8157
▁systems	-8158
aken	-8159
▁pool	-8160
untary	-8161
▁reddish	-8162
▁ventric	-8163
uz	-8164
▁3.5	-8165
arget	-8166
outine	-8167
▁reocc	-8168
▁leaking	-8169
rinologist	-8170
▁obsession	-8171
MA	-8172
▁Cip	-8173
▁clon	-8174
▁nost	-8175
▁teac	-8176
▁breaks	-8177
▁separate	-8178
▁underwear	-8179
▁methylcobal	-8180
▁Ig	-8181
rans	-8182
▁Nor	-8183
opecia	-8184
ounter	-8185
▁pushed	-8186
athyroid	-8187
ients	-8188
▁ataxia	-8189
▁neuralgia	-8190
▁Neurologist	-8191
SF	-8192
ata	-8193
▁59	-8194
▁Wash	-8195
▁pati	-8196
▁suscepti	-8197
▁resolution	-8198
▁30%	-8199
▁Ext	-8200
▁ointments	-8201
▁vaccinated	-8202
CL	-8203
And	-8204
ICH	-8205
▁oo	-8206
▁180	-8207
▁anemic	-8208
▁preval	-8209
▁condoms	-8210
▁thinning	-8211
wel	-8212
▁Inc	-8213
▁key	-8214
▁pure	-8215
▁awful	-8216
▁corner	-8217
▁Contact	-8218
▁bronchi	-8219
▁infancy	-8220
▁Nov	-8221
ORMAL	-8222
▁scabies	-8223
yed	-8224
eliac	-8225
▁june	-8226
▁techn	-8227
▁fissure	-8228
▁consuming	-8229
lants	-8230
tical	-8231
▁nipples	-8232
▁reached	-8233
▁acquired	-8234
▁electric	-8235
▁automatic	-8236
▁receiving	-8237
aj	-8238
▁MRSA	-8239
▁palms	-8240
▁Excess	-8241
▁Morning	-8242
▁September	-8243
lies	-8244
▁OUT	-8245
itory	-8246
▁adoles	-8247
▁flucon	-8248
▁mornings	-8249
▁original	-8250
▁immunotherapy	-8251
nut	-8252
▁deb	-8253
▁som	-8254
eside	-8255
▁july	-8256
▁cheese	-8257
▁ovulate	-8258
diagnosed	-8259
▁Practice	-8260
iced	-8261
▁8-10	-8262
▁artif	-8263
assemia	-8264
▁unwell	-8265
▁ventil	-8266
otrexate	-8267
▁Wellcome	-8268
▁smelling	-8269
▁abuse	-8270
ococcus	-8271
▁mitral	-8272
▁winter	-8273
▁overnight	-8274
▁probiotics	-8275
▁malformation	-8276
▁Af	-8277
▁Si	-8278
icks	-8279
▁bac	-8280
▁Local	-8281
plained	-8282
adequate	-8283
▁Primary	-8284
▁isolated	-8285
Reg	-8286
osite	-8287
▁cuff	-8288
▁educ	-8289
▁neurof	-8290
▁stayed	-8291
▁connect	-8292
▁occasions	-8293
iap	-8294
ayed	-8295
▁fas	-8296
lovir	-8297
▁Amoxicillin	-8298
▁hematologist	-8299
▁Investigations	-8300
12,	-8301
hrs	-8302
rape	-8303
thle	-8304
▁wid	-8305
lusion	-8306
▁arising	-8307
▁partially	-8308
don	-8309
apar	-8310
▁4-7	-8311
elvic	-8312
▁TIME	-8313
▁Being	-8314
▁spend	-8315
▁spong	-8316
▁Bleeding	-8317
▁Children	-8318
▁fluttering	-8319
▁superficial	-8320
sal	-8321
▁Sch	-8322
▁ther	-8323
allerg	-8324
▁Cereb	-8325
ologies	-8326
▁stream	-8327
▁Currently	-8328
▁eliminate	-8329
OLL	-8330
▁bic	-8331
▁loud	-8332
▁mari	-8333
▁alarm	-8334
▁Breast	-8335
▁choose	-8336
▁written	-8337
ICE	-8338
▁Male	-8339
▁intro	-8340
requent	-8341
▁simult	-8342
▁organic	-8343
▁virtual	-8344
▁Orthopedic	-8345
▁marker	-8346
▁appearing	-8347
▁Bone	-8348
▁Write	-8349
▁unclear	-8350
▁obtained	-8351
▁personally	-8352
ffic	-8353
▁satisfaction	-8354
TER	-8355
▁Few	-8356
anged	-8357
ospor	-8358
▁sites	-8359
▁monday	-8360
thyroidism	-8361
▁diaphragm	-8362
olol	-8363
▁fed	-8364
thalm	-8365
ention	-8366
▁usage	-8367
struction	-8368
▁epidural	-8369
ocetirizine	-8370
▁aggravated	-8371
▁IUI	-8372
▁Mar	-8373
onest	-8374
▁pierc	-8375
▁infant	-8376
▁elderly	-8377
ubercular	-8378
▁LOW	-8379
▁nov	-8380
▁belie	-8381
atation	-8382
thro	-8383
▁tap	-8384
▁mail	-8385
▁facet	-8386
▁finds	-8387
▁judge	-8388
▁proved	-8389
▁primarily	-8390
▁absorption	-8391
▁Considering	-8392
▁SA	-8393
lier	-8394
ausal	-8395
▁murm	-8396
mother	-8397
▁Sleep	-8398
▁images	-8399
▁temple	-8400
▁blurred	-8401
▁nostril	-8402
▁warfarin	-8403
▁avoidance	-8404
▁fluconazole	-8405
▁contractions	-8406
▁pm	-8407
anax	-8408
aract	-8409
codone	-8410
▁gangl	-8411
▁whose	-8412
▁February	-8413
▁consists	-8414
▁azithromycin	-8415
▁papill	-8416
/1	-8417
pf	-8418
OLOG	-8419
▁Food	-8420
▁lubric	-8421
▁context	-8422
IF	-8423
For	-8424
lig	-8425
ofen	-8426
ritin	-8427
▁analy	-8428
odiazep	-8429
▁Topical	-8430
hr	-8431
aff	-8432
usp	-8433
VING	-8434
your	-8435
▁10%	-8436
▁GGT	-8437
▁bene	-8438
▁inqu	-8439
▁account	-8440
▁circumst	-8441
▁intervals	-8442
▁ejaculated	-8443
▁ana	-8444
▁nails	-8445
certain	-8446
▁shivering	-8447
eria	-8448
ipped	-8449
▁mono	-8450
▁suspic	-8451
▁massive	-8452
▁measured	-8453
ITI	-8454
NOW	-8455
▁68	-8456
▁Inflamm	-8457
▁magnesium	-8458
hee	-8459
▁jan	-8460
▁spr	-8461
▁Using	-8462
traline	-8463
▁signal	-8464
▁calorie	-8465
▁coconut	-8466
▁Sha	-8467
▁coc	-8468
▁chocol	-8469
▁recogn	-8470
▁patience	-8471
▁remission	-8472
▁scientifically	-8473
▁Mel	-8474
odine	-8475
▁Cost	-8476
▁claim	-8477
▁india	-8478
▁embarr	-8479
▁leakage	-8480
▁antibacterial	-8481
)?	-8482
nai	-8483
▁flap	-8484
▁labs	-8485
▁span	-8486
rednis	-8487
▁Happy	-8488
▁retard	-8489
anth	-8490
▁HDL	-8491
▁bald	-8492
▁golf	-8493
▁stor	-8494
▁Immun	-8495
▁meniscus	-8496
▁cms	-8497
▁motiv	-8498
▁insist	-8499
▁latest	-8500
▁tolerate	-8501
▁endoscopic	-8502
▁progresses	-8503
ita	-8504
▁INR	-8505
▁Ins	-8506
▁tel	-8507
▁wks	-8508
first	-8509
▁ends	-8510
▁lary	-8511
▁ideal	-8512
▁neurop	-8513
▁tramadol	-8514
▁adulthood	-8515
▁fibrillation	-8516
▁cholecystectomy	-8517
-12	-8518
ITY	-8519
max	-8520
▁ONE	-8521
epilep	-8522
▁regen	-8523
▁decayed	-8524
▁texture	-8525
▁tylenol	-8526
▁describing	-8527
▁clotrimazole	-8528
▁Hyd	-8529
▁Mang	-8530
▁puber	-8531
onazole	-8532
▁garlic	-8533
▁foraminal	-8534
▁Medication	-8535
ysp	-8536
only	-8537
will	-8538
▁101	-8539
▁sep	-8540
ostosis	-8541
▁breaking	-8542
▁recommendations	-8543
bles	-8544
vell	-8545
▁Bag	-8546
amous	-8547
▁excer	-8548
▁prompt	-8549
▁beneath	-8550
▁box	-8551
▁tetanus	-8552
▁Cervical	-8553
▁clothing	-8554
▁straining	-8555
▁BY	-8556
enic	-8557
isis	-8558
▁synt	-8559
othorax	-8560
▁workup	-8561
oin	-8562
▁HS	-8563
▁corp	-8564
▁arise	-8565
▁penile	-8566
▁outlook	-8567
▁building	-8568
▁urgently	-8569
▁marijuana	-8570
▁consistency	-8571
▁El	-8572
ette	-8573
▁Fer	-8574
▁Plz	-8575
monia	-8576
selves	-8577
▁Intra	-8578
▁wanna	-8579
sensitivity	-8580
▁prophylaxis	-8581
unc	-8582
▁BD	-8583
▁upto	-8584
▁bland	-8585
▁boils	-8586
▁Friend	-8587
▁alkaline	-8588
▁coagulation	-8589
▁HelloWelcome	-8590
enza	-8591
▁sug	-8592
elled	-8593
▁anat	-8594
ivitis	-8595
▁Pediatr	-8596
▁counsel	-8597
▁wanting	-8598
▁hairline	-8599
.).	-8600
phal	-8601
▁Plus	-8602
▁hate	-8603
oderma	-8604
uclear	-8605
lications	-8606
▁Antihist	-8607
▁unrelated	-8608
▁bud	-8609
▁sin	-8610
▁edge	-8611
▁haem	-8612
▁hiat	-8613
anging	-8614
▁diuretics	-8615
▁Individual	-8616
HO	-8617
ere	-8618
▁Maybe	-8619
▁spent	-8620
illitis	-8621
▁acidic	-8622
▁newborn	-8623
phy	-8624
▁66	-8625
anal	-8626
▁Ide	-8627
▁rush	-8628
▁White	-8629
▁disab	-8630
▁sticky	-8631
▁wouldn	-8632
▁Neurological	-8633
ilk	-8634
▁wi	-8635
health	-8636
▁vigor	-8637
▁Causes	-8638
readmill	-8639
ulations	-8640
▁Discuss	-8641
▁adrenal	-8642
▁cholest	-8643
▁relative	-8644
budesonide	-8645
▁67	-8646
▁ail	-8647
umbar	-8648
▁THEY	-8649
▁coma	-8650
utions	-8651
▁Rheum	-8652
▁aging	-8653
vastatin	-8654
▁morphine	-8655
▁cardiomyopathy	-8656
key	-8657
iapical	-8658
clerosis	-8659
Bl	-8660
fall	-8661
▁buy	-8662
▁vul	-8663
igned	-8664
▁bent	-8665
▁gently	-8666
▁smells	-8667
ithelial	-8668
▁cortical	-8669
rofloxacin	-8670
▁Augmenting	-8671
chy	-8672
hab	-8673
▁ages	-8674
▁gram	-8675
ostatic	-8676
▁racing	-8677
▁cutting	-8678
▁Initially	-8679
ERD	-8680
▁IG	-8681
izers	-8682
▁Manga	-8683
▁Everything	-8684
▁chromosomes	-8685
▁interaction	-8686
Hyp	-8687
▁ham	-8688
▁rig	-8689
▁Anal	-8690
▁infe	-8691
▁paint	-8692
▁antiviral	-8693
▁estimated	-8694
ka	-8695
risome	-8696
roxine	-8697
▁quarter	-8698
▁camphene	-8699
▁worrisome	-8700
▁parenchymal	-8701
▁Bar	-8702
▁cum	-8703
inary	-8704
monds	-8705
▁bike	-8706
▁excre	-8707
anxiety	-8708
ipheral	-8709
▁adding	-8710
idocaine	-8711
▁denture	-8712
HE	-8713
ORT	-8714
▁cour	-8715
▁imag	-8716
haston	-8717
▁Relax	-8718
▁Where	-8719
▁lowering	-8720
▁puncture	-8721
▁alleviate	-8722
▁squeezing	-8723
▁necessarily	-8724
?)	-8725
ads	-8726
aid	-8727
sha	-8728
▁DVT	-8729
▁ekg	-8730
▁athle	-8731
▁serve	-8732
▁holder	-8733
omuscular	-8734
halassemia	-8735
▁probiotic	-8736
▁disturbing	-8737
▁effectively	-8738
▁accidentally	-8739
-30	-8740
ias	-8741
oplasm	-8742
▁pleura	-8743
▁mellitus	-8744
▁pinching	-8745
▁realized	-8746
▁Hopefully	-8747
▁administered	-8748
▁3-	-8749
▁mask	-8750
▁synd	-8751
▁trace	-8752
▁mobile	-8753
▁gingival	-8754
▁abstinence	-8755
icc	-8756
▁Warm	-8757
▁cous	-8758
▁coord	-8759
▁units	-8760
osterior	-8761
▁drained	-8762
striction	-8763
▁2-	-8764
hered	-8765
legra	-8766
▁hosp	-8767
▁news	-8768
ialysis	-8769
▁flight	-8770
▁skills	-8771
activity	-8772
▁instant	-8773
▁membrane	-8774
▁diagnoses	-8775
▁obsessive	-8776
▁Colon	-8777
▁bouts	-8778
▁restric	-8779
hane	-8780
▁store	-8781
▁buttock	-8782
▁Ant	-8783
▁conj	-8784
▁shad	-8785
mental	-8786
▁dream	-8787
▁miles	-8788
tipation	-8789
▁citrate	-8790
▁shortly	-8791
▁structural	-8792
▁respectively	-8793
lot	-8794
▁1,	-8795
▁Inj	-8796
▁NEED	-8797
▁incontin	-8798
▁schizophrenia	-8799
CC	-8800
MRI	-8801
▁:(	-8802
▁cep	-8803
▁fol	-8804
▁Hemat	-8805
non	-8806
▁Hypot	-8807
▁WHICH	-8808
▁video	-8809
▁stents	-8810
▁masterb	-8811
▁embarrass	-8812
▁irritating	-8813
odg	-8814
idine	-8815
▁WHEN	-8816
▁clus	-8817
▁worsened	-8818
▁incidence	-8819
Ex	-8820
hav	-8821
▁spit	-8822
▁deeply	-8823
▁extended	-8824
▁sunlight	-8825
▁trimester	-8826
hew	-8827
▁ALLERG	-8828
▁picked	-8829
▁History	-8830
▁communic	-8831
▁Brief	-8832
▁Nerve	-8833
▁funny	-8834
▁staph	-8835
▁puberty	-8836
▁Betadine	-8837
▁carrying	-8838
▁insomnia	-8839
flu	-8840
lim	-8841
agul	-8842
▁ADD	-8843
▁BAD	-8844
▁bread	-8845
▁screw	-8846
▁Repeat	-8847
▁glasses	-8848
▁contribut	-8849
plan	-8850
▁11.	-8851
▁HCV	-8852
icked	-8853
▁Elev	-8854
▁insp	-8855
▁occup	-8856
tibular	-8857
▁closer	-8858
▁mosquito	-8859
▁suspicious	-8860
▁gestational	-8861
oxic	-8862
▁sec	-8863
▁Talk	-8864
▁sand	-8865
▁sequ	-8866
▁Aplasia	-8867
▁precise	-8868
▁researc	-8869
60	-8870
ham	-8871
▁Count	-8872
▁gaining	-8873
▁squeezed	-8874
Infectious	-8875
▁Individuals	-8876
▁DAYS	-8877
venile	-8878
▁blades	-8879
▁infest	-8880
▁varicose	-8881
blast	-8882
▁burs	-8883
▁palliative	-8884
ugar	-8885
▁CKD	-8886
▁bran	-8887
kindly	-8888
osphat	-8889
▁RIGHT	-8890
▁exams	-8891
▁pseud	-8892
▁regions	-8893
▁Pneumonia	-8894
▁presently	-8895
▁scientific	-8896
aut	-8897
▁PRE	-8898
▁WEE	-8899
adryl	-8900
▁aren	-8901
▁target	-8902
ofenadine	-8903
▁brownish	-8904
▁deletion	-8905
▁teething	-8906
▁transient	-8907
OID	-8908
rep	-8909
▁Dys	-8910
▁rear	-8911
▁shed	-8912
▁lethargic	-8913
▁lymphocytes	-8914
bet	-8915
▁IR	-8916
▁hom	-8917
umber	-8918
▁cloth	-8919
▁randomly	-8920
▁hypoglycemia	-8921
▁cav	-8922
▁needful	-8923
▁researchers	-8924
▁spondylitis	-8925
▁regurgitation	-8926
legia	-8927
uated	-8928
▁100.	-8929
▁spor	-8930
odgkin	-8931
▁attempt	-8932
▁pleasure	-8933
▁detection	-8934
▁mitochond	-8935
▁repeatedly	-8936
▁4)	-8937
▁ratio	-8938
▁static	-8939
▁Typhoid	-8940
▁thinner	-8941
▁hemorrhoids	-8942
spr	-8943
tly	-8944
▁ride	-8945
▁ABOUT	-8946
▁wheeze	-8947
▁distance	-8948
▁mammogram	-8949
▁ft	-8950
illi	-8951
stolic	-8952
▁micros	-8953
▁automatically	-8954
▁circumstances	-8955
▁2,	-8956
▁Gu	-8957
▁tan	-8958
domen	-8959
hennai	-8960
▁index	-8961
▁jogging	-8962
▁Allergic	-8963
▁expecting	-8964
▁PS	-8965
OUND	-8966
▁Seb	-8967
▁tha	-8968
ailure	-8969
▁waves	-8970
▁endocrinologist	-8971
RY	-8972
iter	-8973
▁viol	-8974
▁fails	-8975
daughter	-8976
▁explains	-8977
▁mentally	-8978
▁themselves	-8979
▁hypertrophy	-8980
▁inferential	-8981
▁hallucinations	-8982
▁CONS	-8983
rabies	-8984
because	-8985
▁Sudden	-8986
▁potato	-8987
▁company	-8988
▁nursing	-8989
▁Endoscopy	-8990
▁Hypertension	-8991
▁decompression	-8992
15	-8993
mis	-8994
▁COU	-8995
▁HIS	-8996
rician	-8997
urring	-8998
▁ablation	-8999
PE	-9000
▁95%	-9001
▁NIH	-9002
▁LAST	-9003
▁Root	-9004
ruction	-9005
▁pylori	-9006
▁scream	-9007
▁scrotal	-9008
▁specialists	-9009
YS	-9010
aries	-9011
▁Lump	-9012
▁10-15	-9013
▁public	-9014
▁Probably	-9015
▁inactive	-9016
▁opportun	-9017
▁variation	-9018
▁Chemotherapy	-9019
OK	-9020
Re	-9021
▁SM	-9022
rohn	-9023
ardial	-9024
▁sweet	-9025
▁travell	-9026
cancerous	-9027
▁hemolytic	-9028
▁insertion	-9029
AX	-9030
hour	-9031
itish	-9032
ogurt	-9033
oconazole	-9034
▁placenta	-9035
▁Disorders	-9036
aya	-9037
een	-9038
▁OB	-9039
atus	-9040
heart	-9041
raind	-9042
▁pinch	-9043
▁august	-9044
van	-9045
berry	-9046
▁Plan	-9047
▁achy	-9048
ipping	-9049
▁SHOULD	-9050
▁spider	-9051
isinopril	-9052
▁addiction	-9053
▁pollution	-9054
▁scratched	-9055
▁q	-9056
▁61	-9057
▁irre	-9058
▁behavi	-9059
▁coughs	-9060
▁patent	-9061
▁PROBLEM	-9062
▁apparently	-9063
▁population	-9064
▁arch	-9065
sociated	-9066
▁buildup	-9067
▁localizing	-9068
AG	-9069
▁FO	-9070
ails	-9071
▁tree	-9072
▁ultim	-9073
▁dependent	-9074
?.	-9075
ERS	-9076
ops	-9077
rub	-9078
▁1000	-9079
▁cere	-9080
▁eros	-9081
▁semi	-9082
▁taper	-9083
▁walls	-9084
▁indirect	-9085
▁opposite	-9086
▁soothing	-9087
▁adhesions	-9088
▁hospitals	-9089
▁occurrence	-9090
▁Medications	-9091
OUS	-9092
tis	-9093
agen	-9094
artan	-9095
▁acet	-9096
▁pipe	-9097
▁Doing	-9098
▁Inhal	-9099
▁ceiling	-9100
▁assuming	-9101
ocytopenia	-9102
▁congestive	-9103
▁Bas	-9104
osupp	-9105
▁maxill	-9106
▁insight	-9107
▁syncope	-9108
▁Medicine	-9109
▁consumed	-9110
▁idiopathic	-9111
▁Progesterone	-9112
aby	-9113
▁20%	-9114
▁Until	-9115
rapment	-9116
▁canker	-9117
▁fallen	-9118
▁rating	-9119
▁toothp	-9120
▁bc	-9121
▁ANA	-9122
▁Pen	-9123
▁shut	-9124
▁carries	-9125
▁neglect	-9126
▁benzodiazep	-9127
▁cardiovascular	-9128
flex	-9129
high	-9130
romb	-9131
▁protrud	-9132
▁sending	-9133
TE	-9134
ulum	-9135
▁Tum	-9136
▁knew	-9137
▁pract	-9138
▁Rarely	-9139
▁digest	-9140
▁update	-9141
lodipine	-9142
▁histamine	-9143
▁prevented	-9144
▁unconscious	-9145
▁unexplained	-9146
PA	-9147
izes	-9148
virus	-9149
▁groups	-9150
▁Instead	-9151
racranial	-9152
▁contents	-9153
▁psychotic	-9154
▁restriction	-9155
No	-9156
▁brand	-9157
▁postp	-9158
▁diagon	-9159
▁ruling	-9160
▁healthcare	-9161
▁subcutaneous	-9162
len	-9163
▁95	-9164
▁BR	-9165
vial	-9166
▁ped	-9167
idemia	-9168
▁proven	-9169
▁mentioning	-9170
▁triglycerides	-9171
▁TMT	-9172
▁uns	-9173
luding	-9174
▁scale	-9175
▁introd	-9176
▁shaped	-9177
▁fullness	-9178
▁lifetime	-9179
▁AK	-9180
▁skip	-9181
▁plans	-9182
▁score	-9183
▁contraind	-9184
▁Antibiotic	-9185
▁transmission	-9186
▁simultaneously	-9187
mus	-9188
smo	-9189
▁route	-9190
oidosis	-9191
▁hypoplasia	-9192
▁chiropractor	-9193
-0	-9194
uate	-9195
▁tib	-9196
▁Angi	-9197
▁carotid	-9198
▁Muscular	-9199
▁disappeared	-9200
▁temporarily	-9201
-1.	-9202
roke	-9203
tage	-9204
▁unit	-9205
▁suicidal	-9206
▁chlorhexidine	-9207
▁UP	-9208
plex	-9209
▁asap	-9210
cholic	-9211
▁anter	-9212
▁towel	-9213
▁circle	-9214
▁elbows	-9215
▁hyperp	-9216
▁extract	-9217
▁Diabetic	-9218
▁resolving	-9219
absor	-9220
lysis	-9221
▁Lapar	-9222
▁weighs	-9223
▁calculi	-9224
ey	-9225
eck	-9226
ulp	-9227
who	-9228
both	-9229
▁Who	-9230
▁fec	-9231
▁PCOS	-9232
▁cuts	-9233
▁valves	-9234
izziness	-9235
▁reaching	-9236
▁Metformin	-9237
▁contracted	-9238
▁experiences	-9239
auc	-9240
het	-9241
▁ANTI	-9242
▁pole	-9243
▁Sinus	-9244
▁desper	-9245
▁reverse	-9246
▁suspicion	-9247
ocar	-9248
rant	-9249
oprot	-9250
erable	-9251
▁pocket	-9252
▁sunday	-9253
▁effected	-9254
▁emotions	-9255
▁passages	-9256
▁Intellectual	-9257
DE	-9258
LL	-9259
cap	-9260
▁REL	-9261
Hypoplasia	-9262
ATED	-9263
ften	-9264
surg	-9265
trade	-9266
▁biop	-9267
▁bilious	-9268
▁unnecessarily	-9269
.6	-9270
Th	-9271
chan	-9272
▁nic	-9273
▁Cold	-9274
▁bled	-9275
isions	-9276
▁withd	-9277
▁Altern	-9278
▁Howell	-9279
▁clomid	-9280
▁gender	-9281
▁indeed	-9282
▁resear	-9283
▁neuromuscular	-9284
ero	-9285
zes	-9286
lets	-9287
oglob	-9288
▁artificial	-9289
▁connective	-9290
ONG	-9291
quin	-9292
oline	-9293
▁sgot	-9294
▁town	-9295
derall	-9296
▁Sever	-9297
▁Stage	-9298
▁scaly	-9299
healthy	-9300
usually	-9301
▁Prostate	-9302
▁bursitis	-9303
ARY	-9304
▁indul	-9305
▁assured	-9306
▁hitting	-9307
▁probability	-9308
▁HR	-9309
▁nil	-9310
otomy	-9311
▁fire	-9312
▁wine	-9313
▁needy	-9314
▁Almost	-9315
▁positions	-9316
▁laparoscopic	-9317
▁diverticulitis	-9318
USG	-9319
▁CO	-9320
▁Less	-9321
aching	-9322
ophane	-9323
▁vacation	-9324
onephritis	-9325
▁blockages	-9326
3-	-9327
oring	-9328
▁comfort	-9329
▁pressed	-9330
▁baseline	-9331
▁painfull	-9332
▁dilatation	-9333
▁incontinence	-9334
▁intervertebral	-9335
▁2014	-9336
acement	-9337
▁convin	-9338
▁pigment	-9339
▁countries	-9340
▁treadmill	-9341
▁grandmother	-9342
mas	-9343
▁PCP	-9344
point	-9345
▁SCAN	-9346
▁hypo	-9347
istics	-9348
▁Allerg	-9349
▁NORMAL	-9350
▁copper	-9351
iddiness	-9352
▁pounding	-9353
least	-9354
ECTION	-9355
▁views	-9356
▁antisp	-9357
▁symtoms	-9358
▁rupturing	-9359
hoe	-9360
▁RCT	-9361
allic	-9362
medical	-9363
▁banana	-9364
▁safety	-9365
▁flashes	-9366
▁bronchial	-9367
▁mandatory	-9368
▁stabilize	-9369
▁involuntary	-9370
▁antioxidants	-9371
▁TW	-9372
▁nt	-9373
amma	-9374
uish	-9375
▁MAY	-9376
▁glo	-9377
strual	-9378
▁opened	-9379
CR	-9380
▁Ul	-9381
▁SIN	-9382
▁UND	-9383
▁dee	-9384
etitive	-9385
umbness	-9386
▁gluten	-9387
▁achieved	-9388
▁supports	-9389
▁gabapentin	-9390
dil	-9391
▁103	-9392
▁Each	-9393
▁Vent	-9394
▁duod	-9395
▁adviced	-9396
▁peroxide	-9397
▁studying	-9398
▁establish	-9399
▁Cetirizine	-9400
II	-9401
▁coz	-9402
▁door	-9403
▁desire	-9404
▁holiday	-9405
▁acidosis	-9406
▁meant	-9407
▁Nausea	-9408
▁parasite	-9409
▁tolerance	-9410
▁progressively	-9411
▁hyperthyroidism	-9412
▁Sex	-9413
▁oph	-9414
▁scary	-9415
▁thirst	-9416
ChatDoctore	-9417
4-5	-9418
▁78	-9419
▁ni	-9420
▁Muc	-9421
▁Ple	-9422
▁Varic	-9423
▁Within	-9424
▁conver	-9425
▁shrink	-9426
▁cracked	-9427
▁suicide	-9428
▁Loss	-9429
▁gels	-9430
▁soda	-9431
▁warr	-9432
tening	-9433
Regards	-9434
▁facility	-9435
▁entrapment	-9436
▁literature	-9437
▁prevalence	-9438
▁compressing	-9439
40	-9440
oeb	-9441
sed	-9442
▁ut	-9443
amed	-9444
llen	-9445
▁ADV	-9446
▁gold	-9447
hasone	-9448
oscope	-9449
▁Trans	-9450
▁strokes	-9451
▁Examination	-9452
AME	-9453
▁ICU	-9454
odium	-9455
▁contamin	-9456
▁Hemoglobin	-9457
5)	-9458
:1)	-9459
▁CB	-9460
cold	-9461
▁Sim	-9462
ground	-9463
ventive	-9464
▁outbre	-9465
▁signals	-9466
▁SI	-9467
odeoxy	-9468
▁flank	-9469
▁potent	-9470
ulopathy	-9471
▁atypical	-9472
▁classical	-9473
▁Fru	-9474
▁Mac	-9475
▁ups	-9476
oidal	-9477
▁Lots	-9478
▁Wait	-9479
arditis	-9480
▁murmur	-9481
▁tingly	-9482
▁ignored	-9483
▁numbing	-9484
▁umbilical	-9485
oil	-9486
pan	-9487
▁600	-9488
▁XXX	-9489
athic	-9490
▁SUGG	-9491
▁Afric	-9492
regards	-9493
▁stinging	-9494
▁nauseated	-9495
▁frustrated	-9496
80	-9497
9,	-9498
▁???	-9499
uscult	-9500
▁United	-9501
▁granddaughter	-9502
gl	-9503
▁Mr	-9504
veolar	-9505
▁caries	-9506
▁segment	-9507
▁Occasion	-9508
▁pregnancies	-9509
▁rheumatologist	-9510
SD	-9511
VEN	-9512
icin	-9513
▁Pot	-9514
▁folds	-9515
geminal	-9516
▁Female	-9517
▁returns	-9518
▁patterns	-9519
▁Psoriasis	-9520
▁periodically	-9521
gel	-9522
ght	-9523
▁pt	-9524
diab	-9525
hysema	-9526
▁Breat	-9527
artment	-9528
▁somehow	-9529
ofloxacin	-9530
▁receptor	-9531
▁Ovulation	-9532
▁Cellophane	-9533
▁imbalances	-9534
Anti	-9535
▁bun	-9536
cules	-9537
utive	-9538
▁expl	-9539
▁flora	-9540
▁recall	-9541
▁resume	-9542
▁shadow	-9543
▁periapical	-9544
▁moisturizer	-9545
lon	-9546
tin	-9547
▁Cy	-9548
▁ms	-9549
Consult	-9550
optysis	-9551
▁Mother	-9552
▁widely	-9553
▁nowadays	-9554
▁granuloma	-9555
:30	-9556
ists	-9557
▁AKT	-9558
▁div	-9559
▁Hair	-9560
▁Lyme	-9561
▁fewer	-9562
▁centre	-9563
▁cleans	-9564
▁decongestant	-9565
rus	-9566
▁cope	-9567
called	-9568
▁2010.	-9569
ulatory	-9570
▁molars	-9571
▁toxins	-9572
▁Alzheimer	-9573
▁appropriately	-9574
hors	-9575
▁Cir	-9576
▁KNOW	-9577
▁para	-9578
▁peels	-9579
astolic	-9580
▁switched	-9581
▁Omeprazole	-9582
▁microscope	-9583
▁examinations	-9584
ATH	-9585
lamy	-9586
▁quiet	-9587
ophilia	-9588
▁heavily	-9589
▁impinge	-9590
▁cigarettes	-9591
omyel	-9592
ophils	-9593
roaden	-9594
▁START	-9595
▁gross	-9596
▁knuck	-9597
▁warts	-9598
▁visits	-9599
▁forever	-9600
▁vaccines	-9601
▁CP	-9602
▁DS	-9603
week	-9604
▁BEC	-9605
▁docs	-9606
▁ling	-9607
▁torso	-9608
▁Hernia	-9609
▁honest	-9610
▁Feeling	-9611
▁melanoma	-9612
▁Bilirubin	-9613
▁toothpaste	-9614
▁PV	-9615
▁COL	-9616
▁Pat	-9617
▁loos	-9618
▁2011.	-9619
▁market	-9620
▁pieces	-9621
▁sooner	-9622
▁subject	-9623
▁absorbed	-9624
▁particles	-9625
▁tonsillitis	-9626
▁Rh	-9627
▁mas	-9628
▁aunt	-9629
▁docu	-9630
▁wipe	-9631
▁avail	-9632
▁effort	-9633
▁fighting	-9634
▁molecules	-9635
▁infestation	-9636
▁Pus	-9637
▁frm	-9638
▁mim	-9639
▁pun	-9640
aedic	-9641
otrop	-9642
alcohol	-9643
ectasis	-9644
▁diuretic	-9645
▁destruction	-9646
▁potentially	-9647
▁levocetirizine	-9648
mad	-9649
▁Ro	-9650
▁tat	-9651
▁Took	-9652
▁bought	-9653
▁unsure	-9654
▁lethargy	-9655
▁TV	-9656
▁Allergy	-9657
▁retardation	-9658
▁Cardiologist	-9659
TING	-9660
▁2-4	-9661
▁depo	-9662
stream	-9663
▁balls	-9664
lamydia	-9665
▁bubble	-9666
▁erythe	-9667
▁whitish	-9668
▁temporal	-9669
▁differentiate	-9670
tw	-9671
▁LC	-9672
▁nu	-9673
▁lac	-9674
otics	-9675
hyseal	-9676
itated	-9677
ospasm	-9678
▁States	-9679
▁ascites	-9680
▁ranging	-9681
▁implants	-9682
▁postural	-9683
▁spirometry	-9684
hale	-9685
▁Vol	-9686
▁limp	-9687
▁word	-9688
▁piles	-9689
▁Indian	-9690
▁Spinal	-9691
▁hanging	-9692
▁tendons	-9693
▁congested	-9694
▁gingivitis	-9695
▁compromised	-9696
2-	-9697
▁80%	-9698
▁girls	-9699
▁listen	-9700
▁daytime	-9701
▁dentures	-9702
▁commonest	-9703
▁nighttime	-9704
▁clindamycin	-9705
▁spontaneous	-9706
DA	-9707
▁uti	-9708
urnal	-9709
▁pers	-9710
antile	-9711
growth	-9712
inting	-9713
▁Herpes	-9714
▁cousin	-9715
▁immunosupp	-9716
▁risperidone	-9717
opia	-9718
Hence	-9719
▁goal	-9720
▁norm	-9721
▁extens	-9722
▁mirror	-9723
▁oozing	-9724
mination	-9725
reatment	-9726
▁clearing	-9727
▁pregnent	-9728
▁radiologist	-9729
▁thalassemia	-9730
EASE	-9731
irty	-9732
kers	-9733
▁REC	-9734
▁RES	-9735
▁fly	-9736
antly	-9737
▁Fall	-9738
▁effic	-9739
▁jelly	-9740
▁spoon	-9741
▁frozen	-9742
▁sprays	-9743
▁pumping	-9744
▁transmit	-9745
▁TREATMENT	-9746
▁minoxidil	-9747
MP	-9748
▁grew	-9749
before	-9750
dering	-9751
uating	-9752
▁Simple	-9753
odactyly	-9754
▁strained	-9755
arms	-9756
▁Dan	-9757
▁Den	-9758
▁lor	-9759
ingly	-9760
icylic	-9761
▁olive	-9762
▁Getting	-9763
abdominal	-9764
▁swellings	-9765
▁transport	-9766
▁Creatinine	-9767
▁Progressive	-9768
VEL	-9769
ults	-9770
▁ecg	-9771
▁qua	-9772
▁Oste	-9773
ulates	-9774
▁cryst	-9775
▁erupt	-9776
ressing	-9777
▁biotin	-9778
▁ferritin	-9779
▁stimulate	-9780
lav	-9781
xia	-9782
ilis	-9783
vern	-9784
▁SOS	-9785
natal	-9786
▁medi	-9787
havior	-9788
larged	-9789
▁basal	-9790
▁prove	-9791
▁tough	-9792
▁setting	-9793
eficiency	-9794
▁remained	-9795
▁struggling	-9796
▁consideration	-9797
▁manifestation	-9798
nee	-9799
pin	-9800
▁EN	-9801
Some	-9802
▁(24	-9803
▁800	-9804
▁AFB	-9805
▁dan	-9806
Blood	-9807
chest	-9808
▁Body	-9809
▁panel	-9810
alities	-9811
▁rightly	-9812
▁established	-9813
▁measurement	-9814
▁satisfactor	-9815
hpf	-9816
igo	-9817
▁UN	-9818
▁170	-9819
▁DON	-9820
▁bra	-9821
cence	-9822
▁gait	-9823
▁gynec	-9824
▁names	-9825
welcome	-9826
▁Ovarian	-9827
▁Decreased	-9828
▁placement	-9829
▁peric	-9830
▁split	-9831
▁surpr	-9832
▁ranges	-9833
▁reaches	-9834
IV	-9835
▁av	-9836
▁625	-9837
▁dot	-9838
every	-9839
▁Aspir	-9840
section	-9841
▁digital	-9842
▁trained	-9843
▁Definite	-9844
▁variable	-9845
▁swallowed	-9846
▁vomitting	-9847
ILD	-9848
ser	-9849
▁medium	-9850
▁convers	-9851
▁Bangalore	-9852
odeoxycholic	-9853
▁doxycycline	-9854
▁Kg	-9855
▁HbA	-9856
▁Cardiac	-9857
▁killing	-9858
▁sponging	-9859
▁sertraline	-9860
ket	-9861
scan	-9862
▁lod	-9863
▁Char	-9864
ryngitis	-9865
stetrician	-9866
▁nebulization	-9867
PFT	-9868
▁40%	-9869
▁shake	-9870
▁train	-9871
▁beside	-9872
▁stuffy	-9873
▁Several	-9874
▁spastic	-9875
▁orthostatic	-9876
cks	-9877
nex	-9878
arse	-9879
rena	-9880
▁Ton	-9881
▁sedi	-9882
▁incon	-9883
▁Benign	-9884
▁Detailed	-9885
▁trusting	-9886
▁compressed	-9887
▁moderately	-9888
▁preventive	-9889
▁ingredients	-9890
olk	-9891
vol	-9892
anit	-9893
▁7-10	-9894
▁ONLY	-9895
▁Sens	-9896
▁anim	-9897
▁celiac	-9898
▁lightly	-9899
▁triggering	-9900
mias	-9901
▁fade	-9902
lection	-9903
odontic	-9904
▁creatine	-9905
▁irritant	-9906
▁surgeons	-9907
▁practition	-9908
▁subsequent	-9909
thy	-9910
VERY	-9911
▁boo	-9912
▁drs	-9913
check	-9914
urant	-9915
mentin	-9916
▁teasp	-9917
▁career	-9918
▁instru	-9919
▁drainage	-9920
▁apprehens	-9921
▁sincerely	-9922
---	-9923
Get	-9924
▁98	-9925
▁PPI	-9926
ocytic	-9927
▁2012.	-9928
▁Steam	-9929
▁cloud	-9930
▁arises	-9931
▁metallic	-9932
▁convinced	-9933
▁literally	-9934
UC	-9935
pox	-9936
▁:)	-9937
▁Es	-9938
▁ORS	-9939
inking	-9940
▁blunt	-9941
▁neutroph	-9942
▁pinpoint	-9943
▁recommendation	-9944
PLE	-9945
▁tsp	-9946
▁storage	-9947
uscultation	-9948
▁Constipation	-9949
▁LO	-9950
kine	-9951
▁LEFT	-9952
rasion	-9953
▁glomer	-9954
▁layers	-9955
▁tensed	-9956
▁yogurt	-9957
▁turmeric	-9958
xofenadine	-9959
▁irritability	-9960
▁methotrexate	-9961
▁neurofibroma	-9962
sir	-9963
▁iu	-9964
PRESS	-9965
brush	-9966
▁Clean	-9967
▁Elect	-9968
▁OTHER	-9969
▁recon	-9970
▁Advise	-9971
▁rising	-9972
▁challen	-9973
ece	-9974
▁GR	-9975
loss	-9976
rict	-9977
wide	-9978
▁Ill	-9979
oloft	-9980
▁coug	-9981
culitis	-9982
▁hyster	-9983
▁orgasm	-9984
▁spaces	-9985
▁circles	-9986
▁photographs	-9987
...,	-9988
▁urs	-9989
▁game	-9990
ipital	-9991
tomach	-9992
▁image	-9993
▁nodal	-9994
▁paste	-9995
viously	-9996
▁brings	-9997
▁excised	-9998
▁arterial	-9999
▁diagnosing	-10000
▁echocardiogram	-10001
▁Mc	-10002
▁mad	-10003
▁thi	-10004
▁Camp	-10005
▁marg	-10006
tified	-10007
▁dates	-10008
▁walks	-10009
▁TAKING	-10010
▁lipase	-10011
▁existing	-10012
urred	-10013
▁rays	-10014
Kindly	-10015
▁COULD	-10016
▁Control	-10017
▁Protein	-10018
▁centers	-10019
▁presume	-10020
▁Pressure	-10021
▁productive	-10022
▁intracranial	-10023
cor	-10024
uti	-10025
▁Vit	-10026
OTHER	-10027
▁rely	-10028
lective	-10029
▁Report	-10030
▁ginger	-10031
▁controls	-10032
▁dissolve	-10033
▁74	-10034
▁pu	-10035
amox	-10036
eness	-10037
▁forth	-10038
▁allowed	-10039
▁gradual	-10040
▁restrict	-10041
At	-10042
▁Id	-10043
▁devi	-10044
atelet	-10045
▁story	-10046
▁antico	-10047
▁seeking	-10048
▁ophthalm	-10049
▁hypotonia	-10050
▁mechanical	-10051
▁specialized	-10052
"".	-10053
▁9.	-10054
tons	-10055
▁CAT	-10056
▁Oct	-10057
▁cam	-10058
orter	-10059
oxysm	-10060
asting	-10061
▁spell	-10062
▁Vomiting	-10063
▁osteophy	-10064
▁disappears	-10065
▁Azithromycin	-10066
imp	-10067
▁EL	-10068
▁25%	-10069
▁SUR	-10070
▁gray	-10071
initis	-10072
▁carboy	-10073
▁immobil	-10074
spasmodic	-10075
specially	-10076
▁attitude	-10077
▁counselor	-10078
▁giddiness	-10079
▁modalities	-10080
▁dehydration	-10081
▁phosphatase	-10082
▁BC	-10083
▁wed	-10084
▁coil	-10085
▁puts	-10086
▁abort	-10087
▁biopsi	-10088
▁docter	-10089
▁evident	-10090
▁inferior	-10091
▁relaxing	-10092
▁Peripheral	-10093
▁cholecystitis	-10094
?2.	-10095
▁prox	-10096
develop	-10097
oxysmal	-10098
▁Inform	-10099
▁sleeps	-10100
▁levocetrizine	-10101
▁69	-10102
▁Up	-10103
▁cow	-10104
ilial	-10105
▁dying	-10106
▁shaky	-10107
▁carpal	-10108
▁occult	-10109
▁wounds	-10110
rogenase	-10111
▁disting	-10112
▁satisfy	-10113
▁confident	-10114
:00	-10115
tired	-10116
▁fles	-10117
▁nine	-10118
▁tric	-10119
▁wond	-10120
kidney	-10121
▁strept	-10122
▁Headache	-10123
▁impingement	-10124
▁successfully	-10125
oken	-10126
▁Mit	-10127
▁Neg	-10128
▁grace	-10129
▁HAVING	-10130
▁debris	-10131
▁vomits	-10132
▁strictly	-10133
▁systolic	-10134
▁medically	-10135
▁immunization	-10136
ELY	-10137
rile	-10138
▁4.5	-10139
▁KID	-10140
▁Max	-10141
THING	-10142
matic	-10143
▁Lact	-10144
▁UNDER	-10145
▁MONTHS	-10146
▁liters	-10147
▁amylase	-10148
▁plantar	-10149
▁withdraw	-10150
▁parasitic	-10151
▁prednisolone	-10152
▁MM	-10153
▁ho	-10154
tives	-10155
▁book	-10156
▁clog	-10157
▁amoeb	-10158
efaction	-10159
▁assumed	-10160
▁meeting	-10161
▁epididym	-10162
▁extremities	-10163
▁Ca	-10164
▁FL	-10165
bend	-10166
▁APP	-10167
▁HBV	-10168
▁Nat	-10169
▁oct	-10170
▁sight	-10171
cturnal	-10172
ramadol	-10173
▁smokes	-10174
▁elevate	-10175
▁expensive	-10176
1-	-10177
ilst	-10178
▁bee	-10179
based	-10180
icles	-10181
▁Sing	-10182
ortisol	-10183
▁temper	-10184
▁calories	-10185
▁ingestion	-10186
▁resection	-10187
▁consequences	-10188
▁OPG	-10189
▁PUB	-10190
ripty	-10191
▁15-20	-10192
▁emerg	-10193
▁infect	-10194
▁predisp	-10195
▁travels	-10196
oglobulin	-10197
▁restless	-10198
▁examining	-10199
▁3,	-10200
▁nep	-10201
▁mini	-10202
▁Failure	-10203
▁calcified	-10204
▁indicating	-10205
▁lightheadedness	-10206
ASH	-10207
▁Gr	-10208
▁esp	-10209
▁wax	-10210
▁porn	-10211
▁tool	-10212
atigue	-10213
▁Green	-10214
▁Lupus	-10215
▁peace	-10216
ecutive	-10217
▁Family	-10218
▁Motrin	-10219
▁heating	-10220
▁pharmac	-10221
▁Gabapentin	-10222
▁confirmatory	-10223
elt	-10224
▁14.	-10225
▁Find	-10226
▁THEN	-10227
▁Often	-10228
▁risky	-10229
▁allows	-10230
▁lichen	-10231
▁bronchoscopy	-10232
▁).	-10233
cial	-10234
flow	-10235
▁6-7	-10236
▁diar	-10237
▁shunt	-10238
▁Delayed	-10239
▁rinsing	-10240
▁climbing	-10241
▁breakdown	-10242
▁itchiness	-10243
▁indentation	-10244
▁opportunity	-10245
top	-10246
▁os	-10247
▁Oxy	-10248
▁wean	-10249
▁Impro	-10250
fertility	-10251
▁allowing	-10252
▁efficacy	-10253
▁diastolic	-10254
▁sustained	-10255
▁inadequate	-10256
▁bloodstream	-10257
bic	-10258
▁(10	-10259
▁60%	-10260
▁Mod	-10261
▁Nar	-10262
▁tht	-10263
▁Supp	-10264
▁coccy	-10265
▁demon	-10266
▁faith	-10267
atories	-10268
sistent	-10269
▁swells	-10270
▁timing	-10271
▁seminal	-10272
▁willing	-10273
riptyline	-10274
▁bloodwork	-10275
▁chocolate	-10276
▁emphysema	-10277
tomy	-10278
▁ITP	-10279
onset	-10280
▁vera	-10281
▁costs	-10282
▁perfor	-10283
▁splint	-10284
ogenesis	-10285
▁categor	-10286
▁drinker	-10287
▁Elevated	-10288
▁entirely	-10289
▁deformity	-10290
▁ventricle	-10291
▁protruding	-10292
▁association	-10293
IG	-10294
ACT	-10295
▁abt	-10296
▁bill	-10297
bronch	-10298
▁Night	-10299
iration	-10300
through	-10301
▁regime	-10302
▁smelly	-10303
▁erosion	-10304
▁matters	-10305
Therefore	-10306
▁vigorous	-10307
ventricular	-10308
▁clonazepam	-10309
▁peritoneal	-10310
▁thereafter	-10311
▁Cholesterol	-10312
opa	-10313
▁seat	-10314
▁cleft	-10315
▁horse	-10316
▁narco	-10317
ofacial	-10318
▁Coronary	-10319
▁Frequent	-10320
▁erupting	-10321
▁periodic	-10322
▁everywhere	-10323
▁insemination	-10324
pret	-10325
prod	-10326
rams	-10327
▁Gast	-10328
▁attend	-10329
▁repres	-10330
ocardial	-10331
▁confirming	-10332
▁toothbrush	-10333
▁ketoconazole	-10334
odes	-10335
▁TIA	-10336
▁SIDE	-10337
onsive	-10338
osition	-10339
▁oxidants	-10340
▁squamous	-10341
▁traveling	-10342
▁dehydrogenase	-10343
ISE	-10344
ading	-10345
▁grey	-10346
themia	-10347
▁wiped	-10348
▁nephew	-10349
▁carbonated	-10350
▁importance	-10351
▁travelling	-10352
▁sedimentation	-10353
gra	-10354
abad	-10355
osum	-10356
onucle	-10357
▁arrest	-10358
▁tomato	-10359
versible	-10360
▁aerobic	-10361
▁samples	-10362
▁trapped	-10363
▁Motility	-10364
▁psychosis	-10365
▁SW	-10366
ifen	-10367
▁dim	-10368
agmus	-10369
ascar	-10370
▁newer	-10371
▁unhealthy	-10372
▁Symptomatic	-10373
▁pneumothorax	-10374
▁practitioner	-10375
ca	-10376
AYS	-10377
nit	-10378
▁lies	-10379
▁iodine	-10380
▁walked	-10381
▁animals	-10382
▁included	-10383
OSE	-10384
ips	-10385
▁DM	-10386
▁comm	-10387
▁curd	-10388
▁Develop	-10389
▁prepared	-10390
▁sticking	-10391
▁recording	-10392
▁dislocation	-10393
▁Pantoprazole	-10394
▁malformations	-10395
END	-10396
▁PD	-10397
▁buc	-10398
Other	-10399
▁oils	-10400
married	-10401
▁crease	-10402
▁window	-10403
▁wouldnt	-10404
▁wondered	-10405
▁encephalopathy	-10406
luv	-10407
▁PA	-10408
▁wk	-10409
)...	-10410
abor	-10411
neal	-10412
▁Bow	-10413
▁Epid	-10414
▁Pers	-10415
arkable	-10416
▁deeper	-10417
▁intact	-10418
oplastic	-10419
▁Stomach	-10420
▁deficit	-10421
▁sprouts	-10422
▁Behavior	-10423
▁irritate	-10424
▁echogenic	-10425
▁physicians	-10426
▁indications	-10427
▁characteristics	-10428
iam	-10429
▁Las	-10430
alking	-10431
cectomy	-10432
▁Hormonal	-10433
▁adjusted	-10434
▁axillary	-10435
▁cavities	-10436
▁parasites	-10437
▁contaminated	-10438
amel	-10439
▁fur	-10440
fever	-10441
▁bowl	-10442
▁star	-10443
▁2013.	-10444
▁spite	-10445
bearing	-10446
raumatic	-10447
psychotic	-10448
▁American	-10449
▁necrosis	-10450
ded	-10451
▁MAN	-10452
▁SLE	-10453
▁wen	-10454
riers	-10455
▁cycl	-10456
▁vers	-10457
afness	-10458
rapped	-10459
▁pants	-10460
estions	-10461
▁Lumbar	-10462
▁Analgesic	-10463
▁Arthritis	-10464
chromatosis	-10465
▁fexofenadine	-10466
bu	-10467
umps	-10468
eanut	-10469
▁mite	-10470
vature	-10471
▁radiate	-10472
▁criteria	-10473
zo	-10474
land	-10475
▁13.	-10476
▁Ris	-10477
▁Lear	-10478
▁Either	-10479
▁Started	-10480
▁creates	-10481
including	-10482
especially	-10483
onucleosis	-10484
▁endocrine	-10485
▁injectable	-10486
Sh	-10487
▁76	-10488
▁TT	-10489
▁Cut	-10490
ether	-10491
▁ECHO	-10492
▁athe	-10493
alping	-10494
▁soles	-10495
▁atleast	-10496
▁cooking	-10497
▁grinding	-10498
▁ultimately	-10499
Good	-10500
wing	-10501
▁rab	-10502
▁amen	-10503
▁kiss	-10504
▁pron	-10505
▁soup	-10506
▁toen	-10507
▁Three	-10508
▁classi	-10509
▁threat	-10510
▁Ideally	-10511
▁Familial	-10512
▁Presence	-10513
depressant	-10514
▁infarction	-10515
ULAR	-10516
▁IGE	-10517
still	-10518
urine	-10519
luvium	-10520
▁eradic	-10521
▁rotator	-10522
▁Remember	-10523
▁believed	-10524
▁collagen	-10525
▁Sebaceous	-10526
▁hemoptysis	-10527
▁progressed	-10528
upi	-10529
vis	-10530
heck	-10531
▁Ast	-10532
ented	-10533
▁divid	-10534
▁punct	-10535
▁Costco	-10536
▁belong	-10537
encephal	-10538
ifestyle	-10539
▁mistake	-10540
▁roughly	-10541
▁shaving	-10542
▁alarming	-10543
▁millions	-10544
▁stretched	-10545
▁0,	-10546
▁et	-10547
Since	-10548
idosis	-10549
▁blank	-10550
▁holes	-10551
▁conduct	-10552
Treatment	-10553
▁vegetable	-10554
RS	-10555
ius	-10556
▁1%	-10557
ICAL	-10558
▁EMG	-10559
phaly	-10560
string	-10561
▁Stool	-10562
▁parap	-10563
▁instit	-10564
epileptic	-10565
▁Tramadol	-10566
cardiogram	-10567
▁hopefully	-10568
▁worldwide	-10569
▁communicate	-10570
Ult	-10571
▁Into	-10572
▁suck	-10573
emetic	-10574
▁Chlor	-10575
▁Those	-10576
▁abcess	-10577
▁stains	-10578
▁needing	-10579
▁football	-10580
▁sprained	-10581
▁folliculitis	-10582
AV	-10583
arb	-10584
▁CV	-10585
▁Ra	-10586
▁ru	-10587
rive	-10588
epend	-10589
▁HIGH	-10590
▁Tina	-10591
▁scrap	-10592
▁Panama	-10593
▁Thromb	-10594
▁warning	-10595
▁suspecting	-10596
To	-10597
?3.	-10598
ulse	-10599
▁aud	-10600
▁dogs	-10601
▁Crohn	-10602
▁lobes	-10603
▁Fruits	-10604
blastoma	-10605
▁Tonight	-10606
▁convuls	-10607
atomegaly	-10608
▁addicted	-10609
▁creating	-10610
▁consistently	-10611
-40	-10612
oto	-10613
▁womb	-10614
entary	-10615
▁blind	-10616
▁tries	-10617
▁bleach	-10618
▁killer	-10619
▁Concern	-10620
▁substit	-10621
▁fibrotic	-10622
▁naproxen	-10623
▁responds	-10624
▁ascertain	-10625
▁background	-10626
▁Wat	-10627
▁dnt	-10628
▁Allegra	-10629
▁relatives	-10630
▁solutions	-10631
▁complexion	-10632
Sp	-10633
achn	-10634
▁Ice	-10635
akness	-10636
▁TABLE	-10637
Surgeon	-10638
ignment	-10639
ordosis	-10640
▁lesser	-10641
▁figured	-10642
▁highest	-10643
▁twisted	-10644
▁junction	-10645
▁referral	-10646
▁acceptable	-10647
▁susceptible	-10648
▁Nut	-10649
▁Ure	-10650
rates	-10651
tress	-10652
▁road	-10653
idents	-10654
▁heter	-10655
▁Rabies	-10656
▁annular	-10657
▁armpits	-10658
▁created	-10659
▁undergar	-10660
▁pathologist	-10661
70	-10662
dy	-10663
▁nw	-10664
▁Wor	-10665
▁text	-10666
onomic	-10667
ositis	-10668
otonin	-10669
▁reapp	-10670
▁Diseases	-10671
▁reference	-10672
▁Neurosurgeon	-10673
BB	-10674
els	-10675
nar	-10676
icky	-10677
▁ITS	-10678
▁row	-10679
iform	-10680
madin	-10681
▁fund	-10682
▁saved	-10683
▁allergist	-10684
▁homeopathic	-10685
▁pharyngitis	-10686
▁hospitalization	-10687
made	-10688
▁Alp	-10689
▁CSF	-10690
▁jus	-10691
cough	-10692
today	-10693
▁0000	-10694
▁pant	-10695
▁tele	-10696
▁covid	-10697
▁rates	-10698
▁medial	-10699
▁Chances	-10700
▁Include	-10701
▁bothers	-10702
▁decline	-10703
▁sluggish	-10704
▁curvature	-10705
▁operative	-10706
▁Hypoplasia	-10707
▁paroxetine	-10708
Pro	-10709
does	-10710
▁104	-10711
▁bpm	-10712
▁lin	-10713
umbai	-10714
▁wave	-10715
▁scope	-10716
▁Active	-10717
▁wrists	-10718
▁neurons	-10719
▁overload	-10720
amethasone	-10721
▁Endometri	-10722
▁Montelukast	-10723
conf	-10724
hage	-10725
once	-10726
▁auto	-10727
▁Mouth	-10728
▁puffy	-10729
▁CONSULT	-10730
▁elastic	-10731
▁fitness	-10732
▁alopecia	-10733
▁bothered	-10734
absorption	-10735
▁Respiratory	-10736
▁circumcision	-10737
nx	-10738
inex	-10739
▁lav	-10740
▁craw	-10741
▁film	-10742
enting	-10743
▁tennis	-10744
▁authors	-10745
,2	-10746
eds	-10747
esia	-10748
▁poo	-10749
▁5-10	-10750
▁Dont	-10751
▁nour	-10752
▁rock	-10753
▁stain	-10754
ristmas	-10755
▁Marian	-10756
▁Prednis	-10757
▁Cerebral	-10758
▁Increase	-10759
▁adolescence	-10760
▁contraceptives	-10761
ibly	-10762
▁Obs	-10763
▁tar	-10764
▁vic	-10765
▁carp	-10766
▁prem	-10767
▁sole	-10768
▁stri	-10769
eating	-10770
ochrom	-10771
sprint	-10772
▁games	-10773
OLOGIST	-10774
acidity	-10775
▁fitted	-10776
▁Monitor	-10777
▁abdomin	-10778
▁strateg	-10779
▁ambulatory	-10780
▁bronchospasm	-10781
OX	-10782
IES	-10783
urable	-10784
▁assisted	-10785
▁designed	-10786
▁Injection	-10787
▁education	-10788
▁returning	-10789
ChatDoctored	-10790
▁ultrasounds	-10791
19	-10792
.5)	-10793
OSIS	-10794
psis	-10795
stein	-10796
ushes	-10797
▁Earlier	-10798
regabalin	-10799
▁desperate	-10800
▁distension	-10801
▁orthopaedic	-10802
oconstriction	-10803
▁eosinophilic	-10804
▁irreversible	-10805
▁regeneration	-10806
▁73	-10807
othy	-10808
rawn	-10809
▁70%	-10810
▁spices	-10811
bendazole	-10812
▁clavicle	-10813
▁influenza	-10814
▁unusually	-10815
▁adjustment	-10816
▁penetration	-10817
13	-10818
▁Oh	-10819
cage	-10820
▁Pap	-10821
chlor	-10822
ustom	-10823
▁Fluc	-10824
▁SUFF	-10825
▁Morph	-10826
▁damages	-10827
▁elements	-10828
▁thickened	-10829
ilos	-10830
▁PID	-10831
▁Wil	-10832
lusive	-10833
▁Sugar	-10834
▁tumour	-10835
▁anybody	-10836
▁ganglion	-10837
▁orthoped	-10838
▁repaired	-10839
▁restroom	-10840
▁spinning	-10841
▁thinners	-10842
▁Dizziness	-10843
▁fluoxetine	-10844
-48	-10845
cho	-10846
uno	-10847
afil	-10848
hoea	-10849
▁tag	-10850
tosis	-10851
▁OVER	-10852
▁input	-10853
▁prolif	-10854
▁choking	-10855
▁succeed	-10856
▁extending	-10857
▁lymphadenopathy	-10858
aucoma	-10859
▁coinc	-10860
upirocin	-10861
▁halogen	-10862
▁ejection	-10863
▁traction	-10864
ectiveness	-10865
▁pathologies	-10866
75	-10867
CY	-10868
two	-10869
▁Hit	-10870
halin	-10871
maybe	-10872
▁abrup	-10873
▁eryth	-10874
respond	-10875
▁refers	-10876
▁piercing	-10877
▁saturday	-10878
toma	-10879
▁Cry	-10880
▁Pri	-10881
ifies	-10882
retic	-10883
▁Neur	-10884
▁PCOD	-10885
▁admit	-10886
▁fumes	-10887
▁Stroke	-10888
▁peanut	-10889
▁poorly	-10890
▁talked	-10891
▁twisting	-10892
▁conducted	-10893
▁contusion	-10894
▁variations	-10895
▁disappointment	-10896
Ch	-10897
ger	-10898
▁84	-10899
-100	-10900
arth	-10901
lish	-10902
▁abd	-10903
▁ans	-10904
▁yaw	-10905
▁narr	-10906
▁tamp	-10907
▁fourth	-10908
▁Mariano	-10909
▁violent	-10910
▁chickenpox	-10911
▁discontinued	-10912
UP	-10913
tab	-10914
umar	-10915
▁TID	-10916
▁Tet	-10917
being	-10918
liver	-10919
small	-10920
vable	-10921
▁WOULD	-10922
ementia	-10923
kinetic	-10924
▁arrive	-10925
▁thereby	-10926
upuncture	-10927
▁antirabies	-10928
▁tightening	-10929
▁exacerbation	-10930
▁ursodeoxycholic	-10931
::	-10932
ACH	-10933
▁PM	-10934
▁log	-10935
omine	-10936
▁boys	-10937
▁neigh	-10938
▁smile	-10939
chronic	-10940
▁THANKS	-10941
▁retina	-10942
▁fainted	-10943
▁refuses	-10944
▁restore	-10945
▁settled	-10946
▁dystonia	-10947
▁teaspoon	-10948
dr	-10949
vil	-10950
When	-10951
▁sut	-10952
exist	-10953
▁cush	-10954
▁navel	-10955
▁soaps	-10956
▁modify	-10957
▁compare	-10958
▁growths	-10959
▁moisture	-10960
▁distended	-10961
▁ps	-10962
▁soy	-10963
domin	-10964
edema	-10965
iligo	-10966
▁Dist	-10967
▁agon	-10968
▁decl	-10969
▁wood	-10970
▁Problems	-10971
▁Thanking	-10972
▁Ayurvedic	-10973
rosclerosis	-10974
wor	-10975
▁CD	-10976
SGPT	-10977
▁ine	-10978
aying	-10979
▁2008	-10980
▁pcos	-10981
▁Seems	-10982
▁Spine	-10983
▁gonna	-10984
▁salty	-10985
▁Mascar	-10986
▁anomaly	-10987
▁coughed	-10988
▁urethral	-10989
▁peritonitis	-10990
?!	-10991
IVE	-10992
▁Got	-10993
▁Pal	-10994
▁std	-10995
▁Tran	-10996
▁begun	-10997
▁trunk	-10998
opharyn	-10999
ffective	-11000
▁chatdoc	-11001
menstrual	-11002
▁restored	-11003
▁deterioration	-11004
amil	-11005
help	-11006
▁Bruno	-11007
▁Click	-11008
▁cries	-11009
▁music	-11010
▁Change	-11011
▁carrot	-11012
▁perine	-11013
▁lighter	-11014
▁Mascaras	-11015
▁Research	-11016
▁approved	-11017
▁pharmacy	-11018
▁shortage	-11019
▁duphaston	-11020
▁fibroaden	-11021
▁routinely	-11022
▁irregularity	-11023
tec	-11024
INDS	-11025
▁Nit	-11026
▁SER	-11027
▁pou	-11028
▁pup	-11029
▁fort	-11030
▁valu	-11031
▁madam	-11032
counter	-11033
stitial	-11034
▁december	-11035
▁intensive	-11036
▁lymphatic	-11037
▁continuity	-11038
▁consecutive	-11039
nic	-11040
▁SL	-11041
ATER	-11042
▁bum	-11043
idden	-11044
ietal	-11045
stomy	-11046
▁acyc	-11047
bacter	-11048
stable	-11049
▁Madam	-11050
▁SINCE	-11051
▁angle	-11052
▁wheel	-11053
▁covers	-11054
▁rubbed	-11055
▁offered	-11056
▁onwards	-11057
▁simplex	-11058
▁compound	-11059
▁relieves	-11060
▁thursday	-11061
▁Laparoscopy	-11062
▁prescribing	-11063
▁unnecessary	-11064
ALT	-11065
vit	-11066
NING	-11067
best	-11068
▁Hes	-11069
▁Sum	-11070
▁Irrit	-11071
▁arous	-11072
▁couch	-11073
▁cephal	-11074
▁reflect	-11075
planation	-11076
▁effluvium	-11077
▁accumulate	-11078
▁vestibular	-11079
▁nonspecific	-11080
ann	-11081
hold	-11082
▁99.	-11083
▁Egg	-11084
▁102.	-11085
▁burp	-11086
▁corn	-11087
rology	-11088
▁chart	-11089
▁supra	-11090
▁Reduce	-11091
▁hunger	-11092
▁whilst	-11093
▁teacher	-11094
▁collapse	-11095
associated	-11096
▁acyclovir	-11097
DER	-11098
TIS	-11099
iab	-11100
ishy	-11101
▁REP	-11102
cised	-11103
luded	-11104
▁draw	-11105
▁evac	-11106
▁pops	-11107
▁zero	-11108
▁Color	-11109
▁Enter	-11110
▁labia	-11111
▁mimic	-11112
▁septal	-11113
ystagmus	-11114
▁ribcage	-11115
▁wasting	-11116
▁Thankyou	-11117
▁phosphate	-11118
▁radiology	-11119
▁maturation	-11120
▁overgrowth	-11121
▁regularize	-11122
CBC	-11123
irs	-11124
long	-11125
▁1.2	-11126
▁pod	-11127
▁wbc	-11128
▁mode	-11129
igrain	-11130
▁debil	-11131
▁emplo	-11132
▁Abdomen	-11133
▁candida	-11134
▁chamber	-11135
▁freaking	-11136
▁inducing	-11137
▁somebody	-11138
▁initiated	-11139
▁accumulated	-11140
▁infiltration	-11141
6)	-11142
▁POS	-11143
▁tod	-11144
oside	-11145
▁drip	-11146
▁slip	-11147
ullary	-11148
▁EVERY	-11149
▁Lipid	-11150
▁cauti	-11151
osporin	-11152
▁discol	-11153
▁SUGGEST	-11154
▁deliver	-11155
▁ingrown	-11156
▁operate	-11157
▁variant	-11158
▁Excision	-11159
?4.	-11160
att	-11161
chic	-11162
▁unf	-11163
ocked	-11164
▁Cand	-11165
▁fren	-11166
▁Eosin	-11167
▁Stalin	-11168
▁statins	-11169
.........	-11170
▁weighing	-11171
▁processed	-11172
▁providers	-11173
▁vegetarian	-11174
▁contraindic	-11175
▁neuropathic	-11176
▁progressing	-11177
off	-11178
▁MO	-11179
▁mn	-11180
PTOM	-11181
▁HOW	-11182
sician	-11183
▁parac	-11184
monella	-11185
▁Injury	-11186
▁urgency	-11187
▁belching	-11188
▁arrhythmias	-11189
YN	-11190
▁MV	-11191
AUSE	-11192
iphy	-11193
▁mag	-11194
borne	-11195
micro	-11196
urity	-11197
▁GERD	-11198
▁STDs	-11199
▁STOP	-11200
▁tack	-11201
▁supporting	-11202
:1	-11203
gm	-11204
AGE	-11205
▁2%	-11206
ensit	-11207
orine	-11208
▁Neck	-11209
assion	-11210
▁reserve	-11211
▁mattress	-11212
▁terminal	-11213
▁repetitive	-11214
BI	-11215
▁dex	-11216
father	-11217
shaped	-11218
▁truly	-11219
▁string	-11220
▁termed	-11221
▁constit	-11222
▁learned	-11223
▁whereas	-11224
▁Enlarged	-11225
▁independ	-11226
▁sedation	-11227
▁Bilateral	-11228
ada	-11229
nge	-11230
oal	-11231
mpha	-11232
ware	-11233
overy	-11234
▁blocking	-11235
▁Excessive	-11236
▁irritants	-11237
▁Infections	-11238
▁metastases	-11239
▁UV	-11240
ctal	-11241
page	-11242
inder	-11243
▁city	-11244
▁void	-11245
orsion	-11246
▁Daily	-11247
▁optic	-11248
encephaly	-11249
▁hematuria	-11250
▁signaling	-11251
▁antiallergic	-11252
▁je	-11253
TIVE	-11254
skin	-11255
▁Hai	-11256
▁Mom	-11257
▁Ves	-11258
istan	-11259
▁Syrup	-11260
▁alive	-11261
▁CONCER	-11262
▁phobia	-11263
▁cluster	-11264
▁gallstone	-11265
▁influence	-11266
▁preferred	-11267
▁immunoglobulin	-11268
uth	-11269
▁lotions	-11270
▁Negative	-11271
▁feverish	-11272
▁coordination	-11273
Tab	-11274
▁IND	-11275
onate	-11276
▁FOLL	-11277
▁grap	-11278
▁shop	-11279
inated	-11280
▁mites	-11281
▁basket	-11282
▁constr	-11283
▁Possible	-11284
▁valuable	-11285
▁admission	-11286
▁interpret	-11287
▁occipital	-11288
▁orthopedist	-11289
▁satisfactory	-11290
".	-11291
PER	-11292
avy	-11293
AMIN	-11294
meal	-11295
test	-11296
▁SYM	-11297
afood	-11298
▁crow	-11299
asthen	-11300
▁HEART	-11301
▁curve	-11302
ellular	-11303
▁tables	-11304
▁respect	-11305
▁surfaces	-11306
▁Scoliosis	-11307
▁requiring	-11308
▁salicylic	-11309
▁accurately	-11310
▁Alternatively	-11311
▁effectiveness	-11312
................	-11313
olam	-11314
▁Cou	-11315
▁DUE	-11316
ellum	-11317
▁beer	-11318
tidase	-11319
▁stung	-11320
▁Sputum	-11321
surgical	-11322
▁Desmond	-11323
▁cycling	-11324
▁reassure	-11325
▁sporadic	-11326
▁Lifestyle	-11327
▁stretches	-11328
▁tolerated	-11329
12.	-11330
ESE	-11331
HPF	-11332
RIC	-11333
ico	-11334
▁82	-11335
wear	-11336
▁90.	-11337
▁ATT	-11338
▁0.25	-11339
ESTION	-11340
▁bloods	-11341
▁faulty	-11342
▁cranial	-11343
▁defense	-11344
▁miscarri	-11345
ocarcinoma	-11346
▁Premature	-11347
▁anomalies	-11348
▁cigarette	-11349
itriptyline	-11350
▁compulsive	-11351
▁Colonoscopy	-11352
▁Suggestions	-11353
▁chromosomal	-11354
▁termination	-11355
▁Ed	-11356
▁Ven	-11357
▁bull	-11358
▁Xanax	-11359
▁grate	-11360
however	-11361
▁relaps	-11362
▁infarct	-11363
▁antifung	-11364
IB	-11365
▁71	-11366
▁77	-11367
▁83	-11368
▁CE	-11369
ease	-11370
▁Ery	-11371
▁Out	-11372
▁lil	-11373
acute	-11374
▁Hand	-11375
▁tast	-11376
▁meets	-11377
▁nasty	-11378
▁blurry	-11379
▁eyelid	-11380
▁insert	-11381
▁Hodgkin	-11382
▁nuclear	-11383
▁presenting	-11384
App	-11385
MON	-11386
orch	-11387
▁GOOD	-11388
▁mesh	-11389
acting	-11390
▁SEVER	-11391
▁Women	-11392
utation	-11393
ribution	-11394
▁closing	-11395
▁femoral	-11396
▁letting	-11397
▁myeloma	-11398
▁struggle	-11399
oposterior	-11400
▁Inflammation	-11401
▁undergarments	-11402
▁Ha	-11403
▁ie	-11404
▁1.6	-11405
▁fle	-11406
▁gal	-11407
▁mam	-11408
▁nas	-11409
▁Acne	-11410
▁DOES	-11411
▁hoar	-11412
▁rehab	-11413
▁antipy	-11414
▁screws	-11415
▁yearly	-11416
fficulty	-11417
▁barrier	-11418
▁Numbness	-11419
▁flossing	-11420
▁pricking	-11421
▁Condition	-11422
▁responded	-11423
▁Especially	-11424
,.	-11425
ht	-11426
lump	-11427
organ	-11428
racks	-11429
▁KIDNE	-11430
ogether	-11431
▁Osteop	-11432
▁multip	-11433
▁septum	-11434
▁minimize	-11435
▁DearWelcome	-11436
▁Occasionally	-11437
▁mitochondrial	-11438
ara	-11439
gyn	-11440
▁pc	-11441
avir	-11442
bido	-11443
▁Leg	-11444
▁tas	-11445
horus	-11446
start	-11447
▁Myel	-11448
▁24-48	-11449
atadine	-11450
lobulin	-11451
▁filter	-11452
▁stored	-11453
▁voices	-11454
▁Bladder	-11455
▁summary	-11456
▁Specific	-11457
ologically	-11458
▁correlate	-11459
▁anticoagul	-11460
ChatDoctoredic	-11461
ux	-11462
alo	-11463
era	-11464
▁Ct	-11465
▁Gi	-11466
onatal	-11467
▁style	-11468
▁aspects	-11469
▁stomache	-11470
▁Basically	-11471
▁Homeopathy	-11472
▁trigeminal	-11473
▁nephropathy	-11474
emb	-11475
▁1-	-11476
▁ge	-11477
▁arent	-11478
▁colds	-11479
▁heads	-11480
▁shave	-11481
▁depress	-11482
▁mucosal	-11483
▁restart	-11484
▁retract	-11485
▁spinach	-11486
▁Steroids	-11487
▁laxative	-11488
▁explaining	-11489
▁Infertility	-11490
▁fluctuations	-11491
▁significance	-11492
Ab	-11493
100	-11494
nac	-11495
chol	-11496
ftal	-11497
olut	-11498
▁145	-11499
▁AGO	-11500
amina	-11501
▁germ	-11502
odeine	-11503
▁resem	-11504
▁peeing	-11505
▁uneasy	-11506
▁smokers	-11507
▁interven	-11508
▁antifungals	-11509
On	-11510
/20	-11511
▁Clot	-11512
▁Poor	-11513
urated	-11514
▁Hydro	-11515
▁obtain	-11516
▁Evening	-11517
▁Suggest	-11518
▁eyelids	-11519
▁promote	-11520
allergics	-11521
▁sedentary	-11522
▁serotonin	-11523
▁completion	-11524
aphylococcus	-11525
▁antioxidant	-11526
▁hepatomegaly	-11527
ENA	-11528
kel	-11529
rie	-11530
▁GA	-11531
Could	-11532
▁Garg	-11533
▁oval	-11534
▁pcod	-11535
ibility	-11536
▁Advice	-11537
▁suppos	-11538
cephalus	-11539
▁misunder	-11540
respective	-11541
▁cholestrol	-11542
FE	-11543
HS	-11544
UD	-11545
▁Py	-11546
▁hs	-11547
carb	-11548
▁dar	-11549
▁sacral	-11550
bination	-11551
▁collapsed	-11552
▁diagonised	-11553
▁Doxycycline	-11554
▁benzodiazepine	-11555
.2-	-11556
ALK	-11557
ECK	-11558
▁86	-11559
reng	-11560
uing	-11561
upid	-11562
▁Bal	-11563
▁Son	-11564
▁fog	-11565
▁DONE	-11566
▁Glyc	-11567
▁Neuro	-11568
▁outdo	-11569
▁radic	-11570
blastic	-11571
▁tounge	-11572
▁genitalia	-11573
▁Hereditary	-11574
▁Pediatrician	-11575
▁transfusions	-11576
▁ciprofloxacin	-11577
▁MT	-11578
,,,,	-11579
amen	-11580
ophy	-11581
than	-11582
▁apt	-11583
ishes	-11584
▁Aust	-11585
▁Remo	-11586
▁flav	-11587
▁mont	-11588
vasive	-11589
▁addic	-11590
▁faced	-11591
▁lifel	-11592
▁photo	-11593
▁corpus	-11594
▁predis	-11595
▁jumping	-11596
isoprolol	-11597
▁Additional	-11598
▁extensions	-11599
▁mononucleosis	-11600
-1)	-11601
mid	-11602
▁bf	-11603
arial	-11604
ogene	-11605
▁101.	-11606
▁Lose	-11607
▁gang	-11608
▁scap	-11609
strate	-11610
▁agony	-11611
▁circul	-11612
▁disori	-11613
▁libido	-11614
igastric	-11615
▁defined	-11616
pneumonia	-11617
▁affection	-11618
▁Fluconazole	-11619
▁expectorant	-11620
oug	-11621
▁Hg	-11622
▁nex	-11623
ament	-11624
inent	-11625
▁STILL	-11626
▁board	-11627
▁guard	-11628
▁scare	-11629
▁tasks	-11630
itional	-11631
▁sepsis	-11632
▁tuesday	-11633
▁genetics	-11634
▁ingested	-11635
▁Irregular	-11636
▁cerebellar	-11637
▁antipyretic	-11638
▁ChatDoctorWe	-11639
▁lymphadenitis	-11640
▁anteroposterior	-11641
ITE	-11642
aec	-11643
NESS	-11644
otine	-11645
▁THIN	-11646
▁drow	-11647
▁hamp	-11648
▁slim	-11649
uccess	-11650
▁Pelvic	-11651
▁battery	-11652
▁picking	-11653
orineural	-11654
▁juvenile	-11655
▁prenatal	-11656
▁erections	-11657
odeficiency	-11658
▁reasonable	-11659
Pl	-11660
heli	-11661
onel	-11662
feron	-11663
vular	-11664
▁syno	-11665
aresis	-11666
otonia	-11667
▁femur	-11668
▁flush	-11669
▁likes	-11670
▁biotic	-11671
▁citrus	-11672
▁suture	-11673
▁weaker	-11674
▁nowhere	-11675
andibular	-11676
▁nocturnal	-11677
▁Pregabalin	-11678
ODY	-11679
coz	-11680
tol	-11681
▁pH	-11682
▁FOOD	-11683
▁Hall	-11684
▁chor	-11685
▁join	-11686
▁Almonds	-11687
▁Keeping	-11688
▁january	-11689
▁ringing	-11690
steroidal	-11691
▁awaiting	-11692
▁pointing	-11693
▁HelloYour	-11694
▁presented	-11695
▁Additionally	-11696
▁12.5	-11697
▁Mont	-11698
▁Grade	-11699
▁dimin	-11700
▁frame	-11701
▁rushed	-11702
▁compens	-11703
▁pathway	-11704
▁circular	-11705
▁pulsating	-11706
▁fertilized	-11707
----------------	-11708
-15	-11709
▁88	-11710
ello	-11711
epid	-11712
illy	-11713
▁Att	-11714
▁MORE	-11715
ignant	-11716
▁bundle	-11717
▁remote	-11718
▁twenty	-11719
cythemia	-11720
▁Central	-11721
▁DISEASE	-11722
▁SYMPTOM	-11723
▁flexion	-11724
▁predomin	-11725
▁unstable	-11726
▁prostatic	-11727
▁vasculitis	-11728
▁orthodontic	-11729
.3-	-11730
play	-11731
plus	-11732
ront	-11733
▁vap	-11734
▁web	-11735
ggest	-11736
apping	-11737
lihood	-11738
▁CAUSE	-11739
▁sport	-11740
▁tibia	-11741
▁Append	-11742
▁concre	-11743
▁photos	-11744
▁category	-11745
▁cortisol	-11746
▁quadrant	-11747
▁Concerned	-11748
▁nebulizer	-11749
▁cerebellum	-11750
▁menopausal	-11751
▁Antihistamines	-11752
TIL	-11753
▁Look	-11754
▁nove	-11755
lastic	-11756
▁HELLO	-11757
▁Years	-11758
▁seeds	-11759
▁fright	-11760
▁thread	-11761
PRESSION	-11762
▁Itching	-11763
▁shifted	-11764
▁Hematoma	-11765
▁Lymphoma	-11766
▁cataract	-11767
▁outbreak	-11768
▁proximal	-11769
▁staining	-11770
▁maxillary	-11771
depressants	-11772
▁prostatitis	-11773
Hg	-11774
ANS	-11775
derm	-11776
orph	-11777
▁15.	-11778
▁cef	-11779
inger	-11780
▁bott	-11781
▁dint	-11782
▁phal	-11783
coming	-11784
phrine	-11785
▁crust	-11786
▁named	-11787
waiting	-11788
▁annual	-11789
▁excerc	-11790
▁riding	-11791
although	-11792
▁optimum	-11793
▁symptons	-11794
OGA	-11795
edy	-11796
▁jaws	-11797
mostly	-11798
▁CHEST	-11799
▁Whats	-11800
▁rules	-11801
orectal	-11802
▁cracks	-11803
▁incred	-11804
▁ailment	-11805
▁shorter	-11806
▁skipped	-11807
▁greenish	-11808
▁stenting	-11809
▁stocking	-11810
▁components	-11811
▁ophthalmologist	-11812
ohn	-11813
▁oc	-11814
▁3-6	-11815
▁Prop	-11816
▁Side	-11817
▁ghee	-11818
▁jour	-11819
▁lazy	-11820
▁subc	-11821
inctive	-11822
▁aswell	-11823
▁inhale	-11824
▁processes	-11825
▁straighten	-11826
▁debilitating	-11827
IE	-11828
TSD	-11829
fect	-11830
▁SIR	-11831
▁Soft	-11832
▁gard	-11833
▁Cipro	-11834
▁coccyx	-11835
▁deterg	-11836
▁supplying	-11837
elonephritis	-11838
▁contributing	-11839
5/	-11840
gly	-11841
▁:1.	-11842
▁ABD	-11843
▁CAR	-11844
▁amb	-11845
esity	-11846
orism	-11847
▁bugs	-11848
▁spur	-11849
▁2014.	-11850
▁retro	-11851
▁tense	-11852
▁Spastic	-11853
▁dyspnea	-11854
enomegaly	-11855
pur	-11856
▁Eng	-11857
▁wht	-11858
ENTLY	-11859
▁zone	-11860
omical	-11861
contact	-11862
▁absorb	-11863
osalping	-11864
▁occured	-11865
▁sarcoma	-11866
▁Diarrhea	-11867
▁medicated	-11868
▁membranes	-11869
▁Rheumatoid	-11870
▁motivation	-11871
▁sleepiness	-11872
▁7-8	-11873
▁Dil	-11874
alate	-11875
ismus	-11876
▁trop	-11877
inosis	-11878
▁nucle	-11879
▁spond	-11880
elorism	-11881
▁checks	-11882
▁stitch	-11883
▁thrive	-11884
▁bubbles	-11885
▁october	-11886
▁sterile	-11887
▁cautious	-11888
▁handling	-11889
▁clarified	-11890
▁likelihood	-11891
▁Risperidone	-11892
▁preventable	-11893
type	-11894
▁Dup	-11895
▁iui	-11896
▁Calc	-11897
▁Slow	-11898
▁culp	-11899
▁laid	-11900
nitine	-11901
ventil	-11902
▁Learn	-11903
▁Panic	-11904
▁Ulcer	-11905
▁knife	-11906
▁marble	-11907
▁Finally	-11908
▁Opinion	-11909
▁exagger	-11910
▁seafood	-11911
▁persistently	-11912
▁radiculopathy	-11913
AF	-11914
.7.	-11915
ILE	-11916
eem	-11917
AILY	-11918
They	-11919
lanon	-11920
▁ERCP	-11921
▁Meth	-11922
▁PTSD	-11923
▁cort	-11924
headed	-11925
hepatic	-11926
nothing	-11927
▁advant	-11928
▁engage	-11929
▁shoots	-11930
▁Chennai	-11931
▁Leukemia	-11932
▁familiar	-11933
▁implanted	-11934
▁incidental	-11935
):	-11936
45	-11937
sif	-11938
comp	-11939
neck	-11940
reme	-11941
▁Yet	-11942
▁opi	-11943
epsia	-11944
inate	-11945
upper	-11946
▁CONT	-11947
▁YOGA	-11948
jected	-11949
▁advil	-11950
clusion	-11951
ranolol	-11952
▁soften	-11953
▁analyze	-11954
▁profuse	-11955
▁chlamydia	-11956
▁miserable	-11957
▁parathyroid	-11958
(2	-11959
Hi	-11960
Ive	-11961
fib	-11962
opy	-11963
▁hb	-11964
▁oz	-11965
▁bif	-11966
ochem	-11967
▁Brac	-11968
▁Xray	-11969
▁mmHg	-11970
iatric	-11971
ivered	-11972
spinal	-11973
▁Going	-11974
▁radial	-11975
▁Hearing	-11976
▁Insulin	-11977
▁station	-11978
▁tremend	-11979
▁Adderall	-11980
▁Echocardi	-11981
▁backwards	-11982
▁exclusive	-11983
▁Hypothyroidism	-11984
dL	-11985
OTS	-11986
▁(6	-11987
▁(8	-11988
RIED	-11989
many	-11990
mean	-11991
onad	-11992
rocy	-11993
rose	-11994
▁USE	-11995
▁esr	-11996
osity	-11997
▁Gluc	-11998
▁Sure	-11999
Should	-12000
ieving	-12001
timate	-12002
▁phalan	-12003
▁restor	-12004
▁culprit	-12005
▁equally	-12006
▁instantly	-12007
▁generation	-12008
▁,,	-12009
▁105	-12010
▁135	-12011
▁CAL	-12012
▁ivf	-12013
▁knw	-12014
▁Were	-12015
ciitis	-12016
ostomy	-12017
▁match	-12018
▁branch	-12019
▁Studies	-12020
▁ammonia	-12021
▁refused	-12022
▁Sometime	-12023
▁baldness	-12024
▁Consultant	-12025
▁completing	-12026
acar	-12027
bert	-12028
▁Hel	-12029
▁meg	-12030
arsal	-12031
white	-12032
▁Prom	-12033
▁Time	-12034
▁cult	-12035
▁desk	-12036
▁assay	-12037
▁diets	-12038
▁flesh	-12039
▁tingle	-12040
▁Abscess	-12041
▁Culture	-12042
▁courses	-12043
▁radical	-12044
▁records	-12045
▁sisters	-12046
▁hemorrhagic	-12047
pts	-12048
uel	-12049
iber	-12050
▁PVC	-12051
▁Rib	-12052
▁Sup	-12053
▁una	-12054
ocrit	-12055
▁PRES	-12056
▁pupp	-12057
▁LIVER	-12058
▁calls	-12059
▁jerky	-12060
▁salads	-12061
▁virgin	-12062
odialysis	-12063
▁Breathing	-12064
16	-12065
?-	-12066
DH	-12067
ben	-12068
dis	-12069
etal	-12070
▁Cap	-12071
▁DID	-12072
▁PAR	-12073
▁sip	-12074
birth	-12075
▁error	-12076
▁fears	-12077
▁fused	-12078
lingual	-12079
▁cooked	-12080
▁rounds	-12081
▁soccer	-12082
▁stupid	-12083
cinolone	-12084
diabetic	-12085
▁Routine	-12086
▁mixture	-12087
▁steriod	-12088
▁ventilator	-12089
▁considerably	-12090
▁Physiotherapist	-12091
Le	-12092
SW	-12093
ecl	-12094
ube	-12095
zac	-12096
cule	-12097
▁5.5	-12098
▁STR	-12099
▁Mass	-12100
▁syph	-12101
actrim	-12102
▁pinky	-12103
▁Eating	-12104
▁System	-12105
▁exceed	-12106
▁kicked	-12107
▁played	-12108
▁silent	-12109
▁attract	-12110
▁coverage	-12111
▁ureteric	-12112
onephrosis	-12113
▁INFECTION	-12114
▁behaviour	-12115
▁clearance	-12116
▁materials	-12117
▁collarbone	-12118
▁Pr	-12119
▁Bru	-12120
▁2007	-12121
▁Foll	-12122
▁Prof	-12123
atmeal	-12124
▁Cells	-12125
▁DAILY	-12126
▁clock	-12127
▁lever	-12128
▁humans	-12129
▁relate	-12130
nutrition	-12131
▁Varicocele	-12132
▁epithelial	-12133
▁aggravating	-12134
▁orthodontist	-12135
Her	-12136
yes	-12137
▁7,	-12138
▁Ec	-12139
▁SF	-12140
anas	-12141
▁DIA	-12142
▁Spl	-12143
▁eth	-12144
▁dime	-12145
▁vase	-12146
▁alert	-12147
omatous	-12148
▁cloudy	-12149
▁expand	-12150
▁masses	-12151
▁Husband	-12152
▁Presently	-12153
▁operating	-12154
▁department	-12155
3-4	-12156
▁4,	-12157
▁AMH	-12158
▁GFR	-12159
alpro	-12160
entim	-12161
▁pace	-12162
▁shoe	-12163
▁Large	-12164
▁lived	-12165
akistan	-12166
hingles	-12167
▁Lastly	-12168
▁locate	-12169
▁strang	-12170
▁sources	-12171
▁business	-12172
▁conclude	-12173
▁lifelong	-12174
▁november	-12175
▁Radiation	-12176
▁histamines	-12177
▁radiological	-12178
▁Metronidazole	-12179
500	-12180
ORY	-12181
▁ga	-12182
rica	-12183
▁0.0	-12184
▁Cha	-12185
▁dip	-12186
▁lys	-12187
▁CAUS	-12188
▁WANT	-12189
▁amyl	-12190
ocereb	-12191
rences	-12192
rhythm	-12193
▁finan	-12194
▁tuber	-12195
▁stores	-12196
▁Aspirin	-12197
▁biggest	-12198
▁clogged	-12199
▁sustain	-12200
alcoholic	-12201
▁Positive	-12202
▁adenoids	-12203
▁ovulated	-12204
amcinolone	-12205
▁attempted	-12206
▁parkinson	-12207
▁administration	-12208
▁conservatively	-12209
)2.	-12210
▁BET	-12211
▁RED	-12212
ivers	-12213
orsal	-12214
▁WORK	-12215
ortions	-12216
▁combat	-12217
▁shakes	-12218
▁actions	-12219
▁ringworm	-12220
▁lidocaine	-12221
▁persisted	-12222
▁interesting	-12223
▁breakthrough	-12224
▁gf	-12225
▁mel	-12226
odyst	-12227
▁Sore	-12228
tically	-12229
▁Migrain	-12230
▁cushion	-12231
▁movable	-12232
lipidemia	-12233
▁Recovery	-12234
vas	-12235
foot	-12236
mild	-12237
ript	-12238
▁(1)	-12239
▁rod	-12240
EMAIL	-12241
iagra	-12242
inging	-12243
ometer	-12244
▁Broad	-12245
▁detox	-12246
▁sorts	-12247
fulness	-12248
Complete	-12249
▁epiderm	-12250
▁grateful	-12251
▁modality	-12252
▁destroyed	-12253
▁Treatments	-12254
▁correspond	-12255
▁orthopaedician	-12256
▁30.	-12257
▁50.	-12258
▁PER	-12259
amide	-12260
▁rose	-12261
ounced	-12262
▁beans	-12263
▁recom	-12264
ontitis	-12265
▁Fungal	-12266
▁abroad	-12267
▁enamel	-12268
enerative	-12269
remarkable	-12270
▁requested	-12271
▁dehydrated	-12272
Co	-12273
▁Sa	-12274
oric	-12275
rium	-12276
▁Nap	-12277
▁plu	-12278
▁spy	-12279
ERING	-12280
green	-12281
spicy	-12282
would	-12283
▁cruc	-12284
▁nite	-12285
consult	-12286
▁milder	-12287
▁paraly	-12288
▁sweets	-12289
asteride	-12290
recently	-12291
swelling	-12292
▁classic	-12293
▁torsion	-12294
omyelitis	-12295
▁confirms	-12296
▁obstruct	-12297
▁ambulance	-12298
oqu	-12299
too	-12300
size	-12301
▁Ever	-12302
▁Liqu	-12303
▁desc	-12304
▁host	-12305
▁trac	-12306
illing	-12307
ointed	-12308
ulence	-12309
▁Bowel	-12310
▁Delhi	-12311
▁overw	-12312
▁rigid	-12313
▁......	-12314
▁Height	-12315
▁bringing	-12316
▁contacted	-12317
▁basketball	-12318
olip	-12319
roxy	-12320
axine	-12321
ories	-12322
▁whit	-12323
▁wore	-12324
▁puffs	-12325
achnoid	-12326
▁resort	-12327
▁street	-12328
ithiasis	-12329
▁desired	-12330
▁Alkaline	-12331
▁deafness	-12332
▁skipping	-12333
▁Allergist	-12334
▁autonomic	-12335
▁lisinopril	-12336
▁prokinetic	-12337
▁miscarriages	-12338
▁5,	-12339
▁81	-12340
▁Du	-12341
akia	-12342
anic	-12343
gnant	-12344
ritic	-12345
these	-12346
ttage	-12347
▁Black	-12348
▁Cleft	-12349
▁ortho	-12350
▁overl	-12351
osartan	-12352
▁Pancre	-12353
▁intram	-12354
▁BECAUSE	-12355
▁fasciitis	-12356
▁laxatives	-12357
▁thyroxine	-12358
▁candidiasis	-12359
?5.	-12360
▁79	-12361
good	-12362
ioma	-12363
▁Aer	-12364
etron	-12365
ostal	-12366
ulose	-12367
zenges	-12368
▁diagn	-12369
▁staff	-12370
▁bathing	-12371
▁carious	-12372
▁stained	-12373
▁trivial	-12374
▁papillae	-12375
▁spitting	-12376
▁mupirocin	-12377
▁benefitted	-12378
PO	-12379
mps	-12380
▁BL	-12381
▁CY	-12382
eton	-12383
mann	-12384
oper	-12385
vanse	-12386
▁goog	-12387
ounters	-12388
▁bearing	-12389
▁febrile	-12390
▁reveals	-12391
▁superior	-12392
▁deficient	-12393
▁originally	-12394
▁ulcerative	-12395
▁visualized	-12396
▁hyperactivity	-12397
fl	-12398
URI	-12399
cle	-12400
FORE	-12401
aise	-12402
osol	-12403
post	-12404
▁mgs	-12405
Madam	-12406
▁Baby	-12407
▁Grad	-12408
▁Hard	-12409
▁bare	-12410
▁worn	-12411
ctores	-12412
pylori	-12413
▁Level	-12414
▁mobil	-12415
▁sache	-12416
inating	-12417
without	-12418
▁Streng	-12419
▁hiatus	-12420
ropriate	-12421
▁lithium	-12422
▁purpura	-12423
▁retinal	-12424
▁touches	-12425
anitizing	-12426
▁diabetics	-12427
▁elsewhere	-12428
▁encounters	-12429
▁Application	-12430
▁instability	-12431
BP	-12432
..?	-12433
Its	-12434
ilia	-12435
pres	-12436
▁wrap	-12437
ionate	-12438
unctiv	-12439
yvanse	-12440
▁10-12	-12441
▁salts	-12442
▁vague	-12443
▁Factor	-12444
▁latter	-12445
▁statin	-12446
▁Swollen	-12447
▁balloon	-12448
▁divided	-12449
▁happend	-12450
▁passive	-12451
developed	-12452
▁believes	-12453
▁terribly	-12454
▁differently	-12455
▁troublesome	-12456
▁irregularities	-12457
OWN	-12458
ica	-12459
▁(9	-12460
▁87	-12461
▁mt	-12462
tide	-12463
▁16.	-12464
▁ich	-12465
cycle	-12466
▁Neut	-12467
▁held	-12468
rehens	-12469
▁IRENA	-12470
▁Pseud	-12471
derabad	-12472
▁Proton	-12473
▁Reflux	-12474
▁Steroid	-12475
▁booster	-12476
▁frenulum	-12477
▁managing	-12478
▁searched	-12479
▁positional	-12480
▁distinctive	-12481
▁concentrated	-12482
▁prophylactic	-12483
▁Levocetrizine	-12484
OLE	-12485
laf	-12486
bies	-12487
ATIVE	-12488
rance	-12489
thank	-12490
▁Form	-12491
▁hydr	-12492
▁peak	-12493
▁goose	-12494
ylosing	-12495
▁Contin	-12496
▁calves	-12497
▁Reduced	-12498
▁climate	-12499
▁rearward	-12500
▁teenager	-12501
▁weakened	-12502
eal	-12503
esh	-12504
▁VA	-12505
▁Trig	-12506
fering	-12507
ustion	-12508
▁Third	-12509
▁darken	-12510
▁lowered	-12511
spiration	-12512
▁SYMPTOMS	-12513
▁brothers	-12514
▁tapering	-12515
▁delivered	-12516
▁epileptic	-12517
▁atherosclerosis	-12518
GI	-12519
OH	-12520
11.	-12521
▁97	-12522
onge	-12523
ystic	-12524
▁backs	-12525
▁grain	-12526
▁sebum	-12527
▁Recent	-12528
▁autism	-12529
▁bluish	-12530
▁hiatal	-12531
▁lipids	-12532
▁pseudo	-12533
▁titles	-12534
uestions	-12535
▁Microcephaly	-12536
.4-	-12537
IAL	-12538
PIT	-12539
apt	-12540
▁ti	-12541
incre	-12542
▁sees	-12543
▁LEVEL	-12544
▁dislod	-12545
sibility	-12546
▁stamina	-12547
▁Dementia	-12548
▁cystitis	-12549
▁dentists	-12550
▁desensit	-12551
▁Potassium	-12552
▁Polycystic	-12553
▁practicing	-12554
elf	-12555
Have	-12556
Then	-12557
asol	-12558
▁hop	-12559
▁lens	-12560
▁amino	-12561
▁label	-12562
angioma	-12563
azepine	-12564
clusive	-12565
thening	-12566
version	-12567
▁Summary	-12568
ACE	-12569
cons	-12570
orte	-12571
▁AGE	-12572
▁HLA	-12573
▁MCH	-12574
▁Ten	-12575
▁SURG	-12576
stress	-12577
Alcohol	-12578
iabetes	-12579
maximum	-12580
million	-12581
▁FOLLOW	-12582
▁failing	-12583
▁firstly	-12584
olidation	-12585
▁occlusion	-12586
▁selective	-12587
▁expectoration	-12588
Wh	-12589
lep	-12590
rati	-12591
sign	-12592
▁Bro	-12593
▁REM	-12594
celer	-12595
▁WEEK	-12596
▁hicc	-12597
▁plat	-12598
throid	-12599
▁diarr	-12600
▁verify	-12601
▁imagine	-12602
▁knuckle	-12603
▁sulfate	-12604
▁upright	-12605
▁blotches	-12606
▁convince	-12607
▁cracking	-12608
▁Childhood	-12609
▁activated	-12610
▁phosphorus	-12611
▁hemochromatosis	-12612
-14	-12613
rah	-12614
see	-12615
sem	-12616
▁99%	-12617
▁atm	-12618
Thank	-12619
resia	-12620
stone	-12621
ulses	-12622
▁Temp	-12623
ancing	-12624
▁astha	-12625
▁manip	-12626
▁duoden	-12627
▁select	-12628
▁steady	-12629
▁sweaty	-12630
▁African	-12631
▁Spondyl	-12632
▁shallow	-12633
▁staging	-12634
▁concrete	-12635
▁concluded	-12636
▁Persistent	-12637
▁saturation	-12638
▁Homeopathic	-12639
▁communication	-12640
REE	-12641
▁ot	-12642
▁40.	-12643
▁hay	-12644
ticed	-12645
▁noon	-12646
▁pads	-12647
▁perm	-12648
▁vain	-12649
isation	-12650
▁BEFORE	-12651
▁nobody	-12652
▁corneal	-12653
▁planing	-12654
▁varying	-12655
▁quitting	-12656
arcoidosis	-12657
▁bothersome	-12658
▁noncontact	-12659
▁maxillofacial	-12660
▁whicChatDoctore	-12661
Ag	-12662
▁SR	-12663
▁10,	-12664
▁20.	-12665
▁pil	-12666
oting	-12667
enafil	-12668
height	-12669
making	-12670
▁Their	-12671
▁dried	-12672
▁edges	-12673
▁grass	-12674
forming	-12675
opamine	-12676
ortical	-12677
▁Around	-12678
▁waited	-12679
ographic	-12680
▁blowing	-12681
▁pinkish	-12682
▁Whatever	-12683
▁infusion	-12684
▁unfortun	-12685
▁Christmas	-12686
▁gestation	-12687
▁relievers	-12688
▁wednesday	-12689
▁hypothyroid	-12690
17	-12691
DM	-12692
gr	-12693
APY	-12694
INT	-12695
cot	-12696
▁4-	-12697
▁HT	-12698
▁IB	-12699
000.	-12700
opep	-12701
pled	-12702
ionic	-12703
▁cann	-12704
▁THESE	-12705
▁drunk	-12706
▁reson	-12707
▁stings	-12708
ansetron	-12709
▁article	-12710
▁generic	-12711
treatment	-12712
▁concepts	-12713
▁terrified	-12714
▁myocardial	-12715
▁gastrostomy	-12716
OF	-12717
bel	-12718
def	-12719
▁Er	-12720
safe	-12721
stop	-12722
▁12,	-12723
comes	-12724
ifamp	-12725
incip	-12726
oured	-12727
▁DEAR	-12728
▁hurry	-12729
jective	-12730
▁Immedi	-12731
▁KIDNEY	-12732
▁carcin	-12733
▁delays	-12734
▁lumber	-12735
▁overly	-12736
lafaxine	-12737
▁dusting	-12738
▁moments	-12739
▁prepare	-12740
ometasone	-12741
tubercular	-12742
▁abortions	-12743
▁decisions	-12744
FUL	-12745
los	-12746
acia	-12747
imers	-12748
hedema	-12749
▁Feels	-12750
athetic	-12751
atology	-12752
entists	-12753
patient	-12754
▁bitter	-12755
▁stands	-12756
aterally	-12757
▁STARTED	-12758
▁excited	-12759
▁preterm	-12760
▁sutures	-12761
▁Benadryl	-12762
▁interact	-12763
▁tomography	-12764
HL	-12765
IP	-12766
MY	-12767
▁92	-12768
▁dx	-12769
▁vi	-12770
need	-12771
▁1.0	-12772
▁198	-12773
onged	-12774
▁CELL	-12775
flexia	-12776
▁Cysts	-12777
▁Tidal	-12778
razolam	-12779
▁Pulmon	-12780
▁cereal	-12781
alproate	-12782
ogeneous	-12783
▁conflic	-12784
▁pleased	-12785
▁deciding	-12786
▁foramina	-12787
▁alignment	-12788
▁aggravates	-12789
▁complicate	-12790
▁undiagnosed	-12791
▁displacement	-12792
▁rh	-12793
/201	-12794
cell	-12795
iest	-12796
▁EFF	-12797
▁SPF	-12798
▁TLC	-12799
▁cas	-12800
▁dev	-12801
arant	-12802
▁Luke	-12803
▁doct	-12804
during	-12805
▁Prior	-12806
▁teach	-12807
▁bacilli	-12808
▁princip	-12809
traumatic	-12810
orvastatin	-12811
▁stricture	-12812
▁amlodipine	-12813
▁Diagnostics	-12814
▁manifestations	-12815
KIN	-12816
amps	-12817
▁Put	-12818
▁Tur	-12819
▁War	-12820
sized	-12821
▁Knee	-12822
▁Thro	-12823
▁snot	-12824
abolic	-12825
verted	-12826
▁marry	-12827
▁fiance	-12828
▁plates	-12829
▁massaging	-12830
▁unmarried	-12831
▁grandfather	-12832
▁antispasmodic	-12833
MR	-12834
-50	-12835
onus	-12836
rone	-12837
▁Ank	-12838
▁fif	-12839
▁cane	-12840
▁fasc	-12841
▁built	-12842
▁dense	-12843
▁gamma	-12844
▁stood	-12845
oplakia	-12846
▁builds	-12847
▁burned	-12848
▁fingern	-12849
▁heavier	-12850
▁oatmeal	-12851
▁overwhel	-12852
▁syphilis	-12853
▁articular	-12854
▁encounter	-12855
▁screaming	-12856
▁altogether	-12857
▁ulceration	-12858
▁appendectomy	-12859
▁subsequently	-12860
▁unremarkable	-12861
cil	-12862
ums	-12863
▁ib	-12864
ropo	-12865
▁HSV	-12866
▁Ray	-12867
▁HEAD	-12868
▁Shar	-12869
▁weed	-12870
orexia	-12871
uctose	-12872
▁dusts	-12873
▁Slight	-12874
▁differ	-12875
otexture	-12876
▁wrapped	-12877
▁cellular	-12878
▁freezing	-12879
▁rheumatic	-12880
ChatDoctores	-12881
▁mammography	-12882
Ad	-12883
EE	-12884
CRE	-12885
abel	-12886
atum	-12887
urst	-12888
▁THX	-12889
level	-12890
▁Hash	-12891
▁equal	-12892
▁exhib	-12893
▁herbs	-12894
▁niece	-12895
▁trachea	-12896
▁portions	-12897
▁cutaneous	-12898
▁favorable	-12899
▁withdrawal	-12900
▁apprehension	-12901
▁considerable	-12902
▁embarrassing	-12903
mm	-12904
UTI	-12905
fed	-12906
▁HP	-12907
▁ID	-12908
mail	-12909
▁15%	-12910
▁Lor	-12911
▁MIL	-12912
▁shy	-12913
illus	-12914
noted	-12915
rauma	-12916
▁None	-12917
▁sets	-12918
▁vibr	-12919
▁Rapid	-12920
obacter	-12921
▁Father	-12922
▁Visual	-12923
▁intell	-12924
▁sickle	-12925
▁efforts	-12926
oospermia	-12927
▁foreplay	-12928
▁promptly	-12929
▁underarm	-12930
▁normalize	-12931
▁tolerable	-12932
▁troubling	-12933
▁documented	-12934
▁increasingly	-12935
vin	-12936
▁zy	-12937
anty	-12938
imus	-12939
▁CHF	-12940
▁TAB	-12941
early	-12942
ludge	-12943
▁clen	-12944
throcy	-12945
▁THINK	-12946
▁TIMES	-12947
▁newly	-12948
▁noises	-12949
▁bucolic	-12950
▁devices	-12951
▁valvular	-12952
opeptidase	-12953
▁referring	-12954
▁metoprolol	-12955
▁alternatives	-12956
▁hyperacidity	-12957
star	-12958
▁CAD	-12959
▁IGM	-12960
esare	-12961
inase	-12962
▁AVOID	-12963
▁dealt	-12964
▁ureters	-12965
▁MEDICINE	-12966
▁laughing	-12967
▁Urticaria	-12968
▁hamstring	-12969
▁infantile	-12970
▁Prednisone	-12971
▁pharmacist	-12972
▁suspension	-12973
▁%.	-12974
▁(7	-12975
▁GM	-12976
ammy	-12977
oons	-12978
▁REG	-12979
icycl	-12980
▁Magn	-12981
motile	-12982
▁AGAIN	-12983
▁myths	-12984
▁canals	-12985
▁raises	-12986
isthesis	-12987
▁Concent	-12988
▁raising	-12989
▁SUFFERING	-12990
ocerebellar	-12991
▁Prevention	-12992
▁distribution	-12993
YM	-12994
200	-12995
All	-12996
▁TY	-12997
▁Tw	-12998
obal	-12999
inoin	-13000
▁PERI	-13001
butrin	-13002
▁bunch	-13003
▁gases	-13004
▁Rather	-13005
▁grains	-13006
▁recurs	-13007
valuation	-13008
medication	-13009
▁sublingual	-13010
▁antianxiety	-13011
▁symptomatically	-13012
PD	-13013
know	-13014
oman	-13015
▁1.4	-13016
▁165	-13017
azine	-13018
block	-13019
hagia	-13020
inear	-13021
kward	-13022
▁Foot	-13023
▁ONCE	-13024
▁Wide	-13025
▁paid	-13026
▁Nasal	-13027
▁baths	-13028
▁dirty	-13029
▁ipill	-13030
▁puppy	-13031
▁curing	-13032
▁placing	-13033
▁sucking	-13034
▁syndrom	-13035
▁lozenges	-13036
▁maternal	-13037
▁twitches	-13038
▁bangalore	-13039
▁mastectomy	-13040
▁paroxysmal	-13041
▁auscultation	-13042
."	-13043
Not	-13044
sip	-13045
▁Hal	-13046
▁aft	-13047
▁hob	-13048
activ	-13049
▁aloe	-13050
almost	-13051
caling	-13052
zapine	-13053
▁Major	-13054
▁realy	-13055
▁dreams	-13056
essation	-13057
hydactyly	-13058
▁lordosis	-13059
odystrophy	-13060
athyroidism	-13061
▁consolidation	-13062
vt	-13063
IDS	-13064
▁CC	-13065
rene	-13066
▁190	-13067
▁bak	-13068
▁wil	-13069
These	-13070
nitus	-13071
yellow	-13072
▁germs	-13073
▁imper	-13074
▁mount	-13075
▁plane	-13076
▁polio	-13077
▁vocal	-13078
azapine	-13079
▁donate	-13080
▁codeine	-13081
▁express	-13082
▁jawline	-13083
▁lipomas	-13084
▁punched	-13085
sensitive	-13086
▁Shingles	-13087
▁Weakness	-13088
▁carriers	-13089
▁channels	-13090
▁emission	-13091
▁threatening	-13092
.1-	-13093
try	-13094
▁Sr	-13095
HING	-13096
INAL	-13097
eins	-13098
vert	-13099
NSAID	-13100
azone	-13101
▁Monte	-13102
▁empir	-13103
▁glute	-13104
▁socks	-13105
rogenic	-13106
▁syring	-13107
▁largest	-13108
▁parotid	-13109
▁refined	-13110
▁shouldnt	-13111
▁Gastritis	-13112
▁finishing	-13113
▁indicator	-13114
▁terminate	-13115
▁anatomical	-13116
▁intermittently	-13117
BUT	-13118
lio	-13119
ona	-13120
erge	-13121
?????	-13122
ticul	-13123
▁Dysp	-13124
▁adop	-13125
ausing	-13126
▁Adult	-13127
▁drawn	-13128
▁impot	-13129
▁attain	-13130
▁cortex	-13131
▁forced	-13132
▁stoped	-13133
invasive	-13134
▁closure	-13135
▁gravity	-13136
▁humidif	-13137
ventional	-13138
▁Camphene	-13139
▁newborns	-13140
▁Sincerely	-13141
MD	-13142
Or	-13143
fat	-13144
lly	-13145
pen	-13146
▁KG	-13147
UERY	-13148
inct	-13149
main	-13150
▁HAI	-13151
▁dut	-13152
▁hai	-13153
odics	-13154
▁ANSW	-13155
▁CHAN	-13156
▁Part	-13157
▁poss	-13158
aseous	-13159
▁DIAGN	-13160
▁Macro	-13161
▁bumpy	-13162
▁Pylori	-13163
▁employ	-13164
▁lessen	-13165
ilateral	-13166
▁Obesity	-13167
▁engaged	-13168
▁experts	-13169
▁hardness	-13170
▁moreover	-13171
..........	-13172
▁Lidocaine	-13173
▁compromise	-13174
▁eosinophils	-13175
Ultrasonography	-13176
ylo	-13177
▁96	-13178
phen	-13179
▁Fin	-13180
▁HIM	-13181
▁Thy	-13182
▁cuz	-13183
comed	-13184
▁Rash	-13185
▁URIN	-13186
▁cred	-13187
▁fift	-13188
▁intr	-13189
▁tied	-13190
▁varied	-13191
rofurant	-13192
▁blotchy	-13193
chicoside	-13194
▁articles	-13195
▁hairfall	-13196
▁aspirated	-13197
▁september	-13198
▁classified	-13199
▁comprehens	-13200
▁epididymis	-13201
ani	-13202
▁tv	-13203
ceal	-13204
▁adm	-13205
▁sen	-13206
▁Conf	-13207
▁Same	-13208
▁soci	-13209
oracic	-13210
▁Ortho	-13211
▁fibro	-13212
▁plaqu	-13213
ubation	-13214
▁Dental	-13215
▁Trying	-13216
▁lavage	-13217
▁Burning	-13218
▁blessed	-13219
▁erupted	-13220
▁recheck	-13221
▁thirsty	-13222
▁glaucoma	-13223
▁vitiligo	-13224
▁accompany	-13225
▁dyspepsia	-13226
▁instances	-13227
▁discolored	-13228
▁regulation	-13229
En	-13230
NO	-13231
▁uv	-13232
clin	-13233
iden	-13234
zole	-13235
▁copd	-13236
▁NIGHT	-13237
▁WEEKS	-13238
▁alkal	-13239
▁woken	-13240
▁areola	-13241
▁entity	-13242
▁Similar	-13243
▁psychic	-13244
▁rotated	-13245
▁stating	-13246
▁callosum	-13247
▁draining	-13248
▁wonderful	-13249
▁Deficiency	-13250
ABG	-13251
Rec	-13252
mark	-13253
▁Ass	-13254
▁Drs	-13255
▁Aden	-13256
▁Melan	-13257
▁talks	-13258
esarean	-13259
▁motrin	-13260
▁surviv	-13261
▁zoster	-13262
omatosis	-13263
▁leaning	-13264
▁tearing	-13265
▁nostrils	-13266
▁releasing	-13267
▁lightening	-13268
▁frustrating	-13269
▁respiration	-13270
▁levofloxacin	-13271
Mar	-13272
neu	-13273
Read	-13274
ilty	-13275
male	-13276
rous	-13277
▁Bot	-13278
▁Old	-13279
▁Var	-13280
▁Won	-13281
▁orn	-13282
echan	-13283
lebsi	-13284
orbid	-13285
pread	-13286
▁Diff	-13287
▁soar	-13288
second	-13289
▁defec	-13290
▁fluor	-13291
▁frank	-13292
itoneal	-13293
ometric	-13294
▁Facial	-13295
▁Hashim	-13296
▁brushed	-13297
▁removes	-13298
Otherwise	-13299
▁deranged	-13300
▁abilities	-13301
▁cosmetics	-13302
▁exception	-13303
00.	-13304
tyl	-13305
yph	-13306
▁Mi	-13307
▁vs	-13308
INES	-13309
kind	-13310
vera	-13311
▁1.3	-13312
▁Dad	-13313
acare	-13314
idism	-13315
ience	-13316
▁burnt	-13317
▁lumpy	-13318
▁scares	-13319
lyceride	-13320
▁element	-13321
icyclomine	-13322
▁displaced	-13323
▁Angiography	-13324
▁Inflammatory	-13325
▁arthroscopic	-13326
MB	-13327
vus	-13328
auti	-13329
dler	-13330
face	-13331
inch	-13332
stay	-13333
▁-1.	-13334
ocyst	-13335
▁Uric	-13336
▁fool	-13337
▁unno	-13338
▁2009.	-13339
▁Metal	-13340
▁adnex	-13341
▁rises	-13342
opausal	-13343
▁compli	-13344
▁experi	-13345
▁marked	-13346
▁thrown	-13347
▁GETTING	-13348
▁caution	-13349
▁retired	-13350
▁tubular	-13351
idespread	-13352
▁athletic	-13353
▁candidate	-13354
▁Fibromyalgia	-13355
UG	-13356
WH	-13357
yo	-13358
OTIC	-13359
ests	-13360
stom	-13361
▁DEC	-13362
▁Exa	-13363
▁MOR	-13364
▁TWO	-13365
▁Unc	-13366
essed	-13367
▁Cran	-13368
▁Meet	-13369
▁plex	-13370
▁sits	-13371
▁methy	-13372
▁omega	-13373
▁trich	-13374
▁Mental	-13375
▁awkward	-13376
▁glomerul	-13377
▁retainer	-13378
▁describes	-13379
▁ovulatory	-13380
▁subsiding	-13381
rofurantoin	-13382
▁restrictions	-13383
▁TC	-13384
▁25.	-13385
▁HEAL	-13386
▁SAID	-13387
▁demo	-13388
▁furn	-13389
▁CONTR	-13390
▁books	-13391
▁irrig	-13392
▁myocl	-13393
▁surge	-13394
▁Direct	-13395
▁Epilep	-13396
▁Sodium	-13397
▁crocin	-13398
▁exists	-13399
▁spikes	-13400
▁Hormone	-13401
▁Erectile	-13402
▁breathes	-13403
▁fillings	-13404
▁Bacterial	-13405
▁biological	-13406
▁precipitate	-13407
▁moisturizing	-13408
▁ChatDoctorYou	-13409
▁contraindicated	-13410
GFR	-13411
aky	-13412
isa	-13413
▁Sm	-13414
Dear	-13415
aled	-13416
inol	-13417
yrid	-13418
▁1.8	-13419
▁80.	-13420
▁ALS	-13421
▁RBS	-13422
▁SPEC	-13423
imosis	-13424
▁COUNT	-13425
butamol	-13426
dactyly	-13427
lycemic	-13428
thyosis	-13429
▁engine	-13430
▁morbid	-13431
▁deposit	-13432
▁repeating	-13433
▁acupuncture	-13434
▁Tb	-13435
▁oh	-13436
Well	-13437
apro	-13438
clav	-13439
ipur	-13440
▁alp	-13441
▁mul	-13442
▁GIVE	-13443
▁ugly	-13444
iation	-13445
ugated	-13446
ogenous	-13447
▁atmosp	-13448
▁sticks	-13449
anything	-13450
▁erythem	-13451
▁fitting	-13452
▁Impression	-13453
▁paraplegia	-13454
▁streamline	-13455
▁periodontitis	-13456
▁susceptibility	-13457
BE	-13458
▁MI	-13459
Last	-13460
gged	-13461
▁0.1	-13462
▁cro	-13463
▁iced	-13464
▁scat	-13465
▁Water	-13466
▁pores	-13467
UESTION	-13468
ransfer	-13469
▁offers	-13470
▁timely	-13471
▁vitals	-13472
▁adenoid	-13473
▁hospice	-13474
▁measles	-13475
▁oxalate	-13476
▁clicking	-13477
▁molecule	-13478
aresthesia	-13479
)3.	-13480
RIES	-13481
▁INS	-13482
ITION	-13483
▁DISC	-13484
inegar	-13485
▁comic	-13486
▁squat	-13487
▁twins	-13488
▁uncon	-13489
lectomy	-13490
▁solids	-13491
▁malaise	-13492
▁marking	-13493
▁ventral	-13494
bacterial	-13495
lebsiella	-13496
▁biopsies	-13497
▁cultures	-13498
▁dropping	-13499
▁predispos	-13500
▁Intestinal	-13501
▁internally	-13502
▁constitution	-13503
▁Approximately	-13504
7)	-13505
ua	-13506
AKE	-13507
▁DU	-13508
leve	-13509
ysms	-13510
▁115	-13511
▁bio	-13512
▁hub	-13513
armed	-13514
uspid	-13515
▁BODY	-13516
▁PATI	-13517
▁tape	-13518
▁tilt	-13519
▁molds	-13520
▁straw	-13521
▁trend	-13522
osphate	-13523
▁lactic	-13524
requency	-13525
▁coating	-13526
▁teenage	-13527
▁Naproxen	-13528
▁reacting	-13529
mandibular	-13530
▁Cirrhosis	-13531
▁Prolactin	-13532
▁cessation	-13533
▁Autoimmune	-13534
▁adolescent	-13535
▁transferred	-13536
▁unfortunate	-13537
▁occupational	-13538
▁ChatDoctorRead	-13539
RT	-13540
OPE	-13541
mod	-13542
poly	-13543
▁Bel	-13544
▁5000	-13545
▁NEVER	-13546
▁Narrow	-13547
▁explor	-13548
▁Despite	-13549
▁Vertigo	-13550
▁anatomy	-13551
▁supplies	-13552
▁widespread	-13553
▁Clindamycin	-13554
▁fluctuating	-13555
▁identifying	-13556
Ac	-13557
Be	-13558
Dr	-13559
bt	-13560
ISH	-13561
ief	-13562
rage	-13563
tify	-13564
▁Hol	-13565
▁LMP	-13566
▁Pha	-13567
▁lum	-13568
adesh	-13569
phone	-13570
▁Leuk	-13571
▁MANY	-13572
▁Name	-13573
▁Uter	-13574
▁sack	-13575
▁slide	-13576
▁thous	-13577
▁wives	-13578
enteric	-13579
▁CANCER	-13580
▁destroy	-13581
▁distant	-13582
▁flowing	-13583
orchidism	-13584
▁Migraine	-13585
▁dermatof	-13586
▁Minoxidil	-13587
▁flatulence	-13588
▁bilaterally	-13589
▁importantly	-13590
▁Bronchoscopy	-13591
▁Nephrologist	-13592
▁histopathology	-13593
▁Musculoskeletal	-13594
(1	-13595
▁HD	-13596
fine	-13597
opin	-13598
▁20,	-13599
▁LOT	-13600
▁fee	-13601
▁vib	-13602
lemon	-13603
petic	-13604
▁Rule	-13605
▁doll	-13606
▁pray	-13607
avirus	-13608
ropion	-13609
▁Forte	-13610
▁caring	-13611
▁former	-13612
▁papaya	-13613
ensities	-13614
▁Fatigue	-13615
▁advises	-13616
uccessful	-13617
▁benadryl	-13618
▁flexible	-13619
▁immature	-13620
▁opinions	-13621
▁retained	-13622
▁sequence	-13623
▁Fallopian	-13624
▁listening	-13625
▁represent	-13626
▁synthetic	-13627
ocolchicoside	-13628
▁malabsorption	-13629
▁misunderstand	-13630
▁professionals	-13631
▁uncontrollable	-13632
▁GT	-13633
▁Tes	-13634
▁TELL	-13635
▁myth	-13636
rative	-13637
▁harsh	-13638
▁mirena	-13639
▁sludge	-13640
omalacia	-13641
▁behaves	-13642
▁doubled	-13643
▁journey	-13644
▁slurred	-13645
ocellular	-13646
▁Newsprint	-13647
▁conclusive	-13648
▁radiographs	-13649
LI	-13650
nat	-13651
iers	-13652
inor	-13653
▁McC	-13654
again	-13655
ortil	-13656
ureus	-13657
▁Boil	-13658
▁gurg	-13659
lantar	-13660
liness	-13661
niotic	-13662
olkata	-13663
▁Diffe	-13664
▁feces	-13665
▁inapp	-13666
thalmia	-13667
▁Center	-13668
▁Growth	-13669
▁almond	-13670
▁author	-13671
▁clitor	-13672
▁insult	-13673
amoxifen	-13674
ternally	-13675
▁exiting	-13676
▁guarant	-13677
▁Avoiding	-13678
▁Coughing	-13679
▁Coumadin	-13680
▁actively	-13681
▁ailments	-13682
▁catching	-13683
▁habitual	-13684
▁instance	-13685
▁nicotine	-13686
▁oxycodone	-13687
rophysician	-13688
oh	-13689
ISA	-13690
enz	-13691
▁89	-13692
▁ah	-13693
From	-13694
icol	-13695
olon	-13696
wish	-13697
diliv	-13698
uroxim	-13699
▁Exact	-13700
▁trick	-13701
▁truth	-13702
rations	-13703
▁shared	-13704
▁treats	-13705
▁untill	-13706
▁SURGERY	-13707
▁acceler	-13708
▁isolate	-13709
iferative	-13710
▁overdose	-13711
▁toxicity	-13712
▁Exercises	-13713
▁Prominent	-13714
▁problematic	-13715
▁antipsychotic	-13716
osalpingography	-13717
muc	-13718
OUGH	-13719
Pain	-13720
▁LONG	-13721
ablets	-13722
erobic	-13723
▁Omega	-13724
▁cried	-13725
▁diary	-13726
▁kerat	-13727
▁custom	-13728
▁linear	-13729
▁recess	-13730
▁spring	-13731
▁Painful	-13732
▁Cataract	-13733
▁perianal	-13734
▁adenocarcinoma	-13735
iva	-13736
abis	-13737
gent	-13738
musc	-13739
oned	-13740
▁325	-13741
▁Eye	-13742
▁MCV	-13743
▁SEE	-13744
▁TES	-13745
▁bye	-13746
▁pep	-13747
▁seg	-13748
balta	-13749
lemma	-13750
▁Lith	-13751
▁TOLD	-13752
▁bcoz	-13753
▁Fluid	-13754
▁angio	-13755
▁costly	-13756
▁modern	-13757
▁silver	-13758
▁almonds	-13759
ontrolled	-13760
▁Dialysis	-13761
▁Possibly	-13762
▁crystals	-13763
▁forearms	-13764
▁reliever	-13765
▁prolapsed	-13766
▁administer	-13767
▁irrespective	-13768
▁bronchiectasis	-13769
ERC	-13770
Most	-13771
sing	-13772
ynov	-13773
hange	-13774
issed	-13775
▁coup	-13776
▁duty	-13777
▁foam	-13778
▁grab	-13779
etasol	-13780
ffects	-13781
▁divor	-13782
▁knots	-13783
▁shell	-13784
▁shrin	-13785
hythmia	-13786
ostasis	-13787
ticemia	-13788
yphosis	-13789
▁ALLERGY	-13790
▁alarmed	-13791
according	-13792
▁discover	-13793
▁implanon	-13794
▁releases	-13795
▁Nutrition	-13796
▁excercise	-13797
▁laproscopy	-13798
▁instruction	-13799
ipl	-13800
pol	-13801
bial	-13802
▁Bed	-13803
▁HOS	-13804
▁cab	-13805
▁mot	-13806
asmin	-13807
itant	-13808
▁2000	-13809
▁Risk	-13810
▁task	-13811
▁ABDOM	-13812
▁amoxic	-13813
▁lifted	-13814
▁traits	-13815
asmodics	-13816
▁disrupt	-13817
▁knocked	-13818
▁pockets	-13819
▁somatic	-13820
▁episodic	-13821
▁protects	-13822
▁realised	-13823
▁blindness	-13824
▁household	-13825
▁echotexture	-13826
▁perforation	-13827
▁pyelonephritis	-13828
27	-13829
uf	-13830
▁MB	-13831
▁MC	-13832
feet	-13833
ipes	-13834
vide	-13835
went	-13836
▁Shes	-13837
▁Urea	-13838
rombin	-13839
rontal	-13840
▁SERUM	-13841
▁clues	-13842
▁embar	-13843
▁wears	-13844
▁crisis	-13845
▁dilute	-13846
▁govern	-13847
aphyseal	-13848
▁regress	-13849
▁comorbid	-13850
▁curettage	-13851
▁searching	-13852
▁interferes	-13853
▁endodontist	-13854
▁independent	-13855
▁Obstetrician	-13856
.--	-13857
Non	-13858
erin	-13859
▁18.	-13860
▁60.	-13861
▁Dar	-13862
▁cook	-13863
▁dorm	-13864
iltrum	-13865
osprin	-13866
▁2010,	-13867
▁PREGN	-13868
▁uvula	-13869
rologic	-13870
uroxime	-13871
▁centim	-13872
▁freely	-13873
▁Natural	-13874
▁bottles	-13875
▁extends	-13876
▁maxilla	-13877
▁fibroids	-13878
▁thankful	-13879
▁thankyou	-13880
autoimmune	-13881
▁operations	-13882
▁contracting	-13883
▁masturbated	-13884
▁paracentral	-13885
▁premenstrual	-13886
aur	-13887
▁LA	-13888
▁LS	-13889
rash	-13890
▁URI	-13891
▁gau	-13892
▁piz	-13893
grade	-13894
▁bits	-13895
▁cups	-13896
▁fecal	-13897
▁wrote	-13898
ectasia	-13899
killers	-13900
▁Dengue	-13901
retinoin	-13902
▁coupled	-13903
▁ideally	-13904
▁plaques	-13905
▁mistaken	-13906
▁imperfect	-13907
▁Consulting	-13908
▁sucChatDoctor	-13909
24	-13910
UAL	-13911
happ	-13912
icus	-13913
ives	-13914
ycin	-13915
▁175	-13916
▁CNS	-13917
▁ger	-13918
oppin	-13919
resis	-13920
▁flag	-13921
unting	-13922
▁Think	-13923
▁salad	-13924
lebitis	-13925
omastia	-13926
▁Plenty	-13927
▁SEVERE	-13928
▁Volume	-13929
▁letter	-13930
▁pepper	-13931
▁pharyn	-13932
angement	-13933
rabismus	-13934
uffering	-13935
▁flushed	-13936
▁metacar	-13937
Sometimes	-13938
▁Neuropathy	-13939
LS	-13940
ns	-13941
ARDI	-13942
urts	-13943
▁6.5	-13944
▁Ach	-13945
▁Ash	-13946
▁ren	-13947
phosp	-13948
ylate	-13949
zepam	-13950
▁BOTH	-13951
▁page	-13952
▁Among	-13953
▁SSRIs	-13954
▁dorsal	-13955
▁mashed	-13956
▁scanty	-13957
▁unsafe	-13958
▁replied	-13959
▁strains	-13960
▁excreted	-13961
▁impulses	-13962
▁outburst	-13963
▁Shortness	-13964
▁augmentin	-13965
▁recognize	-13966
▁correlated	-13967
▁neutrophils	-13968
▁conversation	-13969
▁disappointed	-13970
▁comprehensive	-13971
▁streptococcal	-13972
ERM	-13973
ITT	-13974
VED	-13975
zid	-13976
▁hx	-13977
sian	-13978
▁---	-13979
pleas	-13980
roxin	-13981
▁Hemo	-13982
▁MILK	-13983
▁Milk	-13984
Normal	-13985
ampsia	-13986
around	-13987
chance	-13988
entery	-13989
female	-13990
ighter	-13991
▁opine	-13992
between	-13993
lasting	-13994
▁ANSWER	-13995
▁Lipoma	-13996
▁Single	-13997
▁Throat	-13998
▁bulges	-13999
▁atresia	-14000
▁version	-14001
▁division	-14002
ptorchidism	-14003
▁malfunction	-14004
▁inconclusive	-14005
▁interventions	-14006
LDL	-14007
mil	-14008
wat	-14009
▁Ev	-14010
▁RO	-14011
chen	-14012
disc	-14013
▁(2)	-14014
▁Bad	-14015
atoma	-14016
oming	-14017
▁DONT	-14018
▁Pass	-14019
▁dele	-14020
▁fash	-14021
▁herb	-14022
▁pepp	-14023
posure	-14024
▁2011,	-14025
▁NINDS	-14026
▁THING	-14027
▁horri	-14028
kinesia	-14029
▁Others	-14030
▁plexus	-14031
ocolitis	-14032
▁dilemma	-14033
▁updated	-14034
ifampicin	-14035
▁bacterium	-14036
▁eradicate	-14037
▁vasectomy	-14038
▁substitute	-14039
▁transverse	-14040
▁contracture	-14041
▁liquefaction	-14042
▁restlessness	-14043
ept	-14044
lie	-14045
▁Iv	-14046
▁ht	-14047
okal	-14048
▁28.	-14049
▁LEG	-14050
eling	-14051
rinth	-14052
▁Arth	-14053
▁DOWN	-14054
▁crut	-14055
soever	-14056
vation	-14057
▁blast	-14058
▁ridge	-14059
▁sizes	-14060
osamine	-14061
▁Remedy	-14062
▁compet	-14063
▁elabor	-14064
asthenia	-14065
▁Bipolar	-14066
▁alittle	-14067
▁upwards	-14068
▁crawling	-14069
▁donation	-14070
▁welcomed	-14071
ransferase	-14072
▁Gradually	-14073
▁Sinusitis	-14074
▁congenita	-14075
omandibular	-14076
▁hepatologist	-14077
SS	-14078
Par	-14079
bot	-14080
inj	-14081
mel	-14082
ENCE	-14083
agon	-14084
tiff	-14085
zyme	-14086
▁1.7	-14087
▁CEA	-14088
▁Dig	-14089
▁Ket	-14090
▁Mid	-14091
▁NON	-14092
▁THR	-14093
▁Tom	-14094
▁fan	-14095
twice	-14096
▁awak	-14097
▁boss	-14098
umping	-14099
▁bulky	-14100
▁eased	-14101
▁kilos	-14102
▁spoke	-14103
▁Stones	-14104
▁belief	-14105
existing	-14106
▁mediast	-14107
▁wherein	-14108
▁Consider	-14109
▁Platelet	-14110
▁accepted	-14111
▁distingu	-14112
▁pleuritic	-14113
▁saturated	-14114
▁Gallbladder	-14115
▁fingernails	-14116
▁hyperventil	-14117
▁Intrauterine	-14118
▁malnutrition	-14119
▁Psychological	-14120
//	-14121
OWA	-14122
did	-14123
▁Fem	-14124
▁pec	-14125
▁vel	-14126
madam	-14127
orial	-14128
rapez	-14129
water	-14130
▁vegg	-14131
▁bound	-14132
▁chain	-14133
▁manic	-14134
olution	-14135
ropenia	-14136
▁Changes	-14137
▁margins	-14138
▁abrasion	-14139
▁curative	-14140
▁inherits	-14141
▁priority	-14142
jaculation	-14143
▁diarrhoea	-14144
▁seborrhea	-14145
▁amenorrhea	-14146
▁properties	-14147
▁tubercular	-14148
▁unaffected	-14149
▁Hepatomegaly	-14150
Tb	-14151
xx	-14152
cel	-14153
lut	-14154
ref	-14155
aden	-14156
▁25,	-14157
▁75%	-14158
▁Air	-14159
▁Cit	-14160
▁Sam	-14161
▁gun	-14162
▁mer	-14163
▁Card	-14164
▁SHOW	-14165
▁buds	-14166
▁euro	-14167
having	-14168
▁Exper	-14169
▁Motor	-14170
ocytoma	-14171
▁coping	-14172
▁solves	-14173
balanced	-14174
iscosity	-14175
▁science	-14176
unctivitis	-14177
▁Morphology	-14178
▁antiemetic	-14179
▁polycythemia	-14180
.!!	-14181
CoA	-14182
iof	-14183
why	-14184
home	-14185
▁FBS	-14186
▁Gra	-14187
PITAL	-14188
metry	-14189
oxine	-14190
▁1500	-14191
▁DIFF	-14192
▁dand	-14193
▁quer	-14194
▁escap	-14195
▁facil	-14196
▁heels	-14197
▁phlem	-14198
▁rubber	-14199
▁victim	-14200
▁compuls	-14201
▁outdoor	-14202
▁toddler	-14203
▁footwear	-14204
▁guideline	-14205
▁resonance	-14206
▁succeeded	-14207
▁Generalized	-14208
UMB	-14209
▁UL	-14210
▁gy	-14211
▁AAA	-14212
▁HEP	-14213
▁Str	-14214
morph	-14215
oints	-14216
stage	-14217
▁Carb	-14218
▁Five	-14219
▁Mill	-14220
▁Work	-14221
▁asym	-14222
riasis	-14223
▁valid	-14224
▁credit	-14225
▁rolled	-14226
▁sacrum	-14227
▁taught	-14228
pressure	-14229
▁crossed	-14230
▁heparin	-14231
▁repeats	-14232
▁thicker	-14233
▁glandular	-14234
▁statement	-14235
▁fluctuation	-14236
▁encephalitis	-14237
▁Strengthening	-14238
,-	-14239
TY	-14240
run	-14241
otos	-14242
itian	-14243
mense	-14244
obics	-14245
▁Brown	-14246
▁Laser	-14247
▁cipro	-14248
▁tepid	-14249
▁flying	-14250
▁syrups	-14251
▁Gastric	-14252
▁nodular	-14253
amazepine	-14254
▁Reviewed	-14255
▁demonstr	-14256
▁enhanced	-14257
▁massages	-14258
▁particip	-14259
▁spelling	-14260
responsive	-14261
▁abscesses	-14262
▁cleansing	-14263
▁deviation	-14264
▁internist	-14265
▁Lisinopril	-14266
▁syndactyly	-14267
olecystectomy	-14268
▁dermatofibroma	-14269
lb	-14270
egg	-14271
Best	-14272
reck	-14273
sugg	-14274
▁650	-14275
▁CSI	-14276
▁fir	-14277
▁tie	-14278
atozo	-14279
etera	-14280
heads	-14281
▁WORRY	-14282
▁equip	-14283
▁inten	-14284
▁therm	-14285
feeling	-14286
▁Hellos	-14287
▁incomp	-14288
▁jumped	-14289
▁arrived	-14290
▁clinics	-14291
▁mastoid	-14292
▁shocked	-14293
keratosis	-14294
▁abruptly	-14295
▁chloride	-14296
▁tubercul	-14297
▁whatsoever	-14298
▁haemoglobin	-14299
▁anticoagulant	-14300
▁concentrating	-14301
▁antispasmodics	-14302
TB	-14303
OLD	-14304
Pls	-14305
▁5)	-14306
▁UA	-14307
dear	-14308
ians	-14309
iser	-14310
▁750	-14311
▁bid	-14312
▁dur	-14313
▁syp	-14314
▁Coll	-14315
▁Cycl	-14316
▁EVEN	-14317
▁Flex	-14318
▁cath	-14319
phyria	-14320
▁Birth	-14321
▁goals	-14322
▁havnt	-14323
▁gynaec	-14324
▁lights	-14325
▁lowest	-14326
▁viscos	-14327
▁allopat	-14328
▁entered	-14329
▁fragile	-14330
▁plaster	-14331
cortisone	-14332
siologist	-14333
▁dilation	-14334
▁behaviors	-14335
▁confusing	-14336
▁gonorrhea	-14337
▁accidental	-14338
▁exhaustion	-14339
▁interfering	-14340
PC	-14341
pus	-14342
late	-14343
osec	-14344
▁Nic	-14345
aware	-14346
plish	-14347
▁kick	-14348
▁perc	-14349
flower	-14350
smoker	-14351
ycline	-14352
▁Optic	-14353
▁Virus	-14354
▁legal	-14355
ingling	-14356
▁REPORT	-14357
▁barium	-14358
▁fashion	-14359
▁duodenum	-14360
▁postpone	-14361
▁survivor	-14362
▁occassion	-14363
▁conventional	-14364
▁Hypertelorism	-14365
▁Pulmonologist	-14366
▁reconstruction	-14367
Am	-14368
ALE	-14369
ban	-14370
war	-14371
▁6-	-14372
▁ty	-14373
lung	-14374
▁21.	-14375
▁YRS	-14376
▁ond	-14377
ronin	-14378
▁2006	-14379
▁Down	-14380
▁WENT	-14381
▁goin	-14382
▁Scrot	-14383
▁bursa	-14384
▁Mumbai	-14385
▁viable	-14386
▁biotics	-14387
▁inquiry	-14388
▁reoccur	-14389
▁toenail	-14390
oalveolar	-14391
yesterday	-14392
▁advising	-14393
▁anorexia	-14394
▁floating	-14395
▁initiate	-14396
▁reflexes	-14397
▁benefited	-14398
▁pregnency	-14399
montelukast	-14400
opharyngeal	-14401
▁eliminated	-14402
▁nourishing	-14403
pi	-14404
bar	-14405
bre	-14406
▁PO	-14407
ader	-14408
echo	-14409
phan	-14410
thin	-14411
▁19.	-14412
▁Est	-14413
▁Liv	-14414
orate	-14415
serum	-14416
▁Spir	-14417
▁rain	-14418
▁Paras	-14419
▁aside	-14420
▁fault	-14421
▁paral	-14422
theless	-14423
▁poking	-14424
▁trache	-14425
▁Implant	-14426
▁crucial	-14427
▁reviews	-14428
▁entering	-14429
▁ultrason	-14430
▁effecting	-14431
▁stockings	-14432
▁switching	-14433
▁forgetting	-14434
▁pronounced	-14435
▁arthropathy	-14436
▁stabilizing	-14437
▁amitriptyline	-14438
▁proliferation	-14439
HY	-14440
hard	-14441
roil	-14442
▁Sci	-14443
▁doe	-14444
▁kel	-14445
apped	-14446
yrtec	-14447
▁CLIN	-14448
▁Clon	-14449
▁SKIN	-14450
▁jobs	-14451
▁Hypog	-14452
▁fifth	-14453
causing	-14454
ophobia	-14455
▁Wilson	-14456
▁clammy	-14457
▁lovely	-14458
▁runner	-14459
▁sponge	-14460
▁washes	-14461
▁Waiting	-14462
▁immense	-14463
▁attempts	-14464
▁connects	-14465
▁palpable	-14466
▁financial	-14467
▁imperfecta	-14468
▁laboratories	-14469
▁differentiation	-14470
tr	-14471
CAD	-14472
▁XL	-14473
deep	-14474
itin	-14475
oxin	-14476
▁NEG	-14477
▁Pet	-14478
CTION	-14479
ogerm	-14480
sleep	-14481
▁CABG	-14482
▁Dyst	-14483
▁FIND	-14484
▁mile	-14485
▁naus	-14486
bestos	-14487
course	-14488
stones	-14489
▁movie	-14490
licated	-14491
▁Transp	-14492
▁behave	-14493
▁folate	-14494
▁hollow	-14495
▁soothe	-14496
▁Imaging	-14497
▁biochem	-14498
▁crushed	-14499
▁endings	-14500
decreased	-14501
▁dopamine	-14502
▁cranberry	-14503
▁Amlodipine	-14504
▁directions	-14505
▁reinfection	-14506
▁reoccurring	-14507
▁specializes	-14508
▁disabilities	-14509
18	-14510
tiz	-14511
OTAL	-14512
psin	-14513
rian	-14514
▁Bul	-14515
▁msg	-14516
▁ELISA	-14517
▁tidal	-14518
mphaden	-14519
▁apical	-14520
▁claims	-14521
▁traces	-14522
▁couples	-14523
▁ganglia	-14524
▁overuse	-14525
▁popular	-14526
▁Repeated	-14527
▁fissures	-14528
▁advantage	-14529
▁viscosity	-14530
▁ingredient	-14531
▁additionally	-14532
▁differentiated	-14533
▁EP	-14534
▁Rt	-14535
▁cc	-14536
...?	-14537
vuls	-14538
▁Chi	-14539
▁Cho	-14540
▁RNA	-14541
▁PRESS	-14542
▁SLEEP	-14543
▁Shall	-14544
▁Tumor	-14545
▁incor	-14546
▁warmth	-14547
▁asthama	-14548
▁mastrub	-14549
▁slowing	-14550
▁squishy	-14551
▁Findings	-14552
▁HOSPITAL	-14553
▁confined	-14554
▁overlying	-14555
▁precisely	-14556
▁Definitive	-14557
▁perception	-14558
▁embarrassed	-14559
-19	-14560
THE	-14561
nam	-14562
typ	-14563
▁GB	-14564
▁il	-14565
acort	-14566
essor	-14567
odysp	-14568
▁apex	-14569
▁flut	-14570
▁lute	-14571
▁thym	-14572
▁shirt	-14573
▁spill	-14574
itative	-14575
▁poster	-14576
osarcoma	-14577
▁craving	-14578
▁pointed	-14579
▁suffice	-14580
▁delusion	-14581
▁midnight	-14582
▁recurred	-14583
▁spending	-14584
▁surprised	-14585
▁umbilicus	-14586
▁epigastric	-14587
▁incredibly	-14588
▁inflamation	-14589
▁restoration	-14590
▁Multivitamin	-14591
▁insufficient	-14592
▁dexamethasone	-14593
22	-14594
(2)	-14595
oos	-14596
rey	-14597
ITIS	-14598
With	-14599
▁16,	-14600
▁CMV	-14601
▁Cef	-14602
▁ace	-14603
▁bup	-14604
cemia	-14605
yceal	-14606
▁Note	-14607
▁Year	-14608
▁pine	-14609
▁visa	-14610
▁FEVER	-14611
▁entry	-14612
▁exert	-14613
molysis	-14614
▁fascia	-14615
▁TABLETS	-14616
▁capable	-14617
▁chennai	-14618
▁classes	-14619
▁felling	-14620
▁foramen	-14621
▁gaseous	-14622
▁sunburn	-14623
▁adhesion	-14624
▁neighbor	-14625
▁sedative	-14626
▁MEDICINES	-14627
▁greetings	-14628
▁stabilizer	-14629
▁Information	-14630
▁fibroadenoma	-14631
ratiopeptidase	-14632
CM	-14633
FS	-14634
.5-	-14635
ECG	-14636
GAN	-14637
chi	-14638
▁OS	-14639
▁Ye	-14640
imet	-14641
ofib	-14642
oily	-14643
▁FDA	-14644
▁Raj	-14645
▁VIR	-14646
▁hus	-14647
▁liv	-14648
▁sem	-14649
brain	-14650
chair	-14651
▁Call	-14652
▁Clar	-14653
▁bean	-14654
▁plug	-14655
hadone	-14656
licate	-14657
ocrine	-14658
▁LOWER	-14659
▁Stone	-14660
▁lucky	-14661
▁tonic	-14662
▁widal	-14663
uvenile	-14664
▁Hoping	-14665
▁compar	-14666
▁PATIENT	-14667
▁Vaginal	-14668
▁dormant	-14669
▁kitchen	-14670
▁sadness	-14671
▁Epilepsy	-14672
▁emptying	-14673
▁eyebrows	-14674
▁dimension	-14675
▁institute	-14676
▁externally	-14677
▁determining	-14678
▁pneumococcal	-14679
oproliferative	-14680
hs	-14681
His	-14682
LFT	-14683
▁94	-14684
inds	-14685
▁Mem	-14686
anger	-14687
loxac	-14688
▁Olig	-14689
▁SEEN	-14690
▁remn	-14691
enolol	-14692
▁awoke	-14693
▁bicep	-14694
▁slows	-14695
berries	-14696
heezing	-14697
oniazid	-14698
▁aureus	-14699
reactive	-14700
▁Improve	-14701
▁Perhaps	-14702
▁Pleural	-14703
▁Results	-14704
▁cerebro	-14705
▁dosages	-14706
▁metabol	-14707
▁vinegar	-14708
angladesh	-14709
▁clusters	-14710
▁deficits	-14711
▁flushing	-14712
▁glycogen	-14713
▁interrup	-14714
▁Prolonged	-14715
▁spasmodic	-14716
▁interstitial	-14717
▁obstetrician	-14718
▁periodontist	-14719
▁unsuccessful	-14720
▁-3	-14721
▁ML	-14722
▁XR	-14723
▁ALP	-14724
▁FEW	-14725
▁Lab	-14726
▁MAR	-14727
▁TDS	-14728
▁ivy	-14729
black	-14730
lexin	-14731
▁0,3,	-14732
▁Caps	-14733
▁IOWA	-14734
▁Lack	-14735
▁Requ	-14736
▁mths	-14737
TILITY	-14738
▁10-14	-14739
▁Found	-14740
▁Given	-14741
▁bodys	-14742
symptom	-14743
▁Cystic	-14744
▁Motile	-14745
▁barley	-14746
▁crowns	-14747
▁manual	-14748
▁walker	-14749
nacortil	-14750
vomiting	-14751
▁kissing	-14752
▁baseball	-14753
▁indulged	-14754
▁mainstay	-14755
▁recovers	-14756
▁elevating	-14757
alpitations	-14758
▁exacerbate	-14759
▁tremendous	-14760
▁conditioner	-14761
▁stabilizers	-14762
▁Ciprofloxacin	-14763
)..	-14764
▁MIN	-14765
▁USA	-14766
visit	-14767
▁2005	-14768
▁XXXXX	-14769
▁toxin	-14770
achment	-14771
albumin	-14772
▁bumped	-14773
▁burden	-14774
iectasis	-14775
▁anticip	-14776
▁cereals	-14777
▁corners	-14778
▁veggies	-14779
▁Contrast	-14780
▁asthalin	-14781
▁homemade	-14782
menopausal	-14783
▁assessing	-14784
▁Difficulty	-14785
▁mechanisms	-14786
▁nervousness	-14787
▁triamcinolone	-14788
Dis	-14789
hot	-14790
kar	-14791
oms	-14792
rix	-14793
▁.5	-14794
olen	-14795
orea	-14796
▁ABC	-14797
teral	-14798
▁Flor	-14799
▁dies	-14800
▁Thick	-14801
▁gonad	-14802
▁media	-14803
rolimus	-14804
routine	-14805
▁ending	-14806
▁Overall	-14807
▁optimal	-14808
lanzapine	-14809
▁Everyone	-14810
▁disrupts	-14811
▁philtrum	-14812
▁tinnitus	-14813
▁supported	-14814
▁distention	-14815
▁Appendicitis	-14816
▁Clotrimazole	-14817
emp	-14818
rid	-14819
▁Pi	-14820
omip	-14821
▁MVP	-14822
illes	-14823
large	-14824
[...]
